the
and
to
it
she
of
said
you
alice
in
was
that
as
her
at
on
all
with
had
but
for
so
they
be
not
very
what
this
little
he
out
is
one
down
there
up
his
if
about
then
no
them
know
were
like
again
herself
went
would
do
have
or
when
could
queen
off
thought
me
how
time
into
see
can
who
did
king
ll
your
don
now
turtle
well
an
by
my
began
its
mock
hatter
gryphon
quite
are
way
think
just
their
first
here
much
say
some
go
head
only
more
thing
which
rabbit
voice
never
come
get
got
looked
oh
ve
must
after
him
mouse
duchess
over
re
round
such
came
dormouse
great
other
tone
why
any
back
two
been
before
cat
from
march
long
nothing
once
we
large
last
will
found
tell
hare
moment
put
right
door
heard
looking
made
next
things
white
caterpillar
dear
eyes
replied
look
make
might
going
poor
seemed
should
three
too
upon
without
won
away
course
day
rather
shall
soon
while
yet
chapter
good
same
sure
than
took
added
felt
take
another
ever
getting
half
let
find
minute
till
wish
words
anything
cried
end
hand
however
sort
being
curious
even
feet
old
please
tried
bill
court
eat
enough
house
jury
sat
something
soup
table
use
wonder
am
asked
perhaps
question
side
spoke
talking
under
bit
doesn
garden
hastily
high
indeed
mad
near
ran
turned
because
called
done
face
gave
idea
knew
saying
seen
set
speak
through
where
air
anxiously
beginning
better
both
certainly
change
didn
dinah
everything
hear
itself
left
low
ought
remember
saw
silence
suppose
talk
these
trying
us
always
arm
baby
beautiful
begin
behind
cats
close
cook
dance
dodo
far
game
gone
grow
kept
many
may
people
really
room
sea
size
still
suddenly
tea
try
used
whole
wouldn
yes
afraid
among
best
deal
else
every
finished
give
hands
hardly
majesty
pigeon
pool
tears
turning
ask
footman
glad
gloves
growing
hurried
hurry
keep
life
makes
mind
minutes
nearly
read
thinking
though
turn
waited
wasn
whether
birds
bottle
child
children
creatures
either
explain
fan
foot
having
heads
hold
join
lessons
mean
mouth
name
offended
opened
own
queer
remark
remarked
repeated
rest
sight
sitting
small
soldiers
those
trial
walked
witness
word
yourself
against
angrily
answer
believe
call
coming
continued
conversation
couldn
different
does
few
glass
hall
help
important
interrupted
key
knave
least
leave
matter
mine
pig
puzzled
rate
reason
serpent
shook
shouted
sister
story
tail
timidly
together
top
waiting
want
appeared
asleep
beg
changed
chin
distance
draw
dry
each
eagerly
everybody
evidence
exactly
fact
feel
fetch
five
followed
gardeners
happen
hard
haven
hearts
live
lobster
lying
making
meaning
moral
most
mushroom
nobody
nose
noticed
opportunity
our
party
pepper
place
play
ready
running
seem
sit
slates
slowly
tarts
ten
twinkle
watch
whiting
william
window
wood
work
adventures
begun
book
bright
business
cheshire
deep
dream
drink
em
eye
fall
fancy
feeling
frightened
generally
goes
golden
grown
hadn
hair
happened
has
hedgehog
history
isn
kind
larger
learn
listen
lobsters
lory
manage
middle
myself
neck
nonsense
oop
open
others
pleased
puppy
repeat
shoes
silent
sing
sir
somebody
song
soo
stood
surprised
tired
trees
wondering
world
almost
along
arms
between
bread-and-butter
broken
chimney
chorus
croquet
dreadfully
ear
english
exclaimed
executed
executioner
father
fell
forgotten
four
full
grin
himself
home
inches
jumped
late
leaves
liked
lizard
loud
man
marked
melancholy
nice
nor
pardon
politely
roof
sentence
seven
shan
sharp
sleep
sneezing
stand
stop
stupid
subject
times
tis
told
trembling
trouble
understand
wow
write
written
youth
across
ah
alas
aloud
altogether
angry
ann
asking
become
breath
case
catch
clock
confusion
crowded
curiosity
cut
dare
direction
doing
drew
dropped
ears
eggs
evening
faces
finger
finish
flamingo
ground
happens
height
hookah
hot
impatiently
instantly
interesting
kid
knee
likely
means
meant
miss
morning
moved
nearer
nervous
new
nine
notice
number
often
pack
pair
pale
passed
piece
plan
pocket
prizes
procession
quadrille
quietly
remembered
reply
rule
sadly
school
seems
shouldn
shriek
shrill
shut
sighed
simple
sleepy
sometimes
sounded
speaking
stay
strange
sudden
surprise
swam
swim
taking
tale
temper
treacle
tree
twice
until
usual
walk
walking
waving
whispered
wrong
young
age
alone
animals
answered
arches
argument
bats
beat
beau
begins
besides
boots
bottom
bowed
box
busily
capital
care
carried
chance
confused
consider
corner
creature
crowd
crumbs
cry
days
dead
decidedly
deeply
difficulty
digging
dish
doubt
duck
earth
escape
except
fallen
fast
fear
fellow
fire
fish
fond
french
frowning
fur
girl
grand
grass
green
grunted
hearing
held
hers
honour
hours
ill
indignantly
judge
jumping
jurors
jurymen
kitchen
lay
led
less
lives
love
mabel
managed
mary
met
mice
mouths
natural
none
officers
ordered
otherwise
outside
paper
particular
passage
pat
paws
perfectly
person
pictures
players
pointing
porpoise
puzzling
questions
rabbit-hole
reach
rose-tree
run
savage
says
screamed
second
several
severely
sharply
short
shoulder
shoulders
shrinking
sides
sigh
since
sky
sobs
solemnly
sound
sounds
stick
stuff
suppressed
taken
taught
thank
thimble
thoughtfully
throw
tiny
tongue
true
twelve
twinkling
un
uncomfortable
vanished
ventured
verdict
verse
verses
violently
wanted
water
worth
writing
yer
above
advance
advantage
advice
alive
allow
anxious
arch
around
attending
bank
bat
beheaded
below
blow
boy
break
breathe
bring
bringing
brought
burn
butter
cake
cakes
candle
cards
carefully
caucus-race
caught
cause
cautiously
certain
ch
checked
cheered
choked
civil
confusing
considered
considering
courage
crab
crash
croquet-ground
crossed
crown
dark
dears
decided
delight
directions
dog
dogs
doth
drive
dull
eager
eaglet
easily
edge
effect
elbow
execution
expecting
faster
figure
filled
finding
fit
floor
fly
folded
follows
forgetting
free
friend
fun
funny
further
fury
general
gently
girls
grave
gravely
grinned
growl
guess
guessed
guests
guinea-pigs
handed
hanging
hedgehogs
hoarse
holding
hope
hoping
howling
hungry
hunting
hurt
hush
immediately
impossible
instance
instead
inter
joined
jury-box
kick
knocking
knowledge
lady
later
legs
letter
list
listening
lived
livery
lm
longer
lost
loudly
ma
mark
master
mentioned
mid
miles
mistake
move
moving
muchness
music
muttering
needn
nibbling
night
noise
notion
nurse
nursing
obliged
ootiful
opening
order
out-of-the-way
owl
panther
part
pass
passion
pattering
paw
peeped
picked
pieces
pinch
pity
plate
pleaded
poison
possibly
pray
present
pressed
proper
putting
reading
real
remained
remarking
remarks
repeating
roses
rules
sad
sense
serpents
settled
shaking
shore
show
sighing
simply
slate
slipped
smaller
snail
snatch
sobbing
solemn
somewhere
sorts
spectacles
speech
spread
stairs
staring
stole
stopped
succeeded
suit
sulky
tails
tasted
tea-party
teacup
telescope
th
themselves
timid
to-day
toes
tortoise
tossing
trumpet
tucked
tumbling
turns
unfortunate
unimportant
upset
venture
voices
wash
washing
watching
week
whatever
whiskers
whisper
wonderland
worse
wrote
yesterday
yours
counter##
electro##
double-##
self-co##
anthrop##
single-##
superin##
quasi-c##
yellow-##
interco##
self-re##
pseudo-##
thunder##
straigh##
pseudoc##
quasi-p##
pseudos##
self-de##
cephalo##
pseudoa##
bacteri##
ichthyo##
pseudop##
quasi-i##
noncont##
phospho##
quasi-e##
silver-##
quasi-s##
ophthal##
quarter##
superse##
crystal##
weather##
chondro##
quasi-d##
sacchar##
thought##
erythro##
smooth-##
well-co##
dermato##
ornitho##
tubercu##
twice-s##
overpro##
self-di##
spermat##
uninter##
pharmac##
pseudom##
spectro##
superco##
quinque##
self-in##
interme##
pharyng##
quasi-a##
underst##
feather##
magneto##
pneumat##
overcon##
quasi-r##
noncons##
noninte##
sulphur##
encepha##
noncomp##
quasi-f##
chromat##
communi##
square-##
triple-##
multipl##
twenty-##
broncho##
politic##
untrans##
hystero##
passion##
self-ex##
contemp##
heteroc##
leather##
overstr##
quasi-m##
self-su##
blephar##
thoroug##
twelve-##
twice-r##
circums##
heterop##
intermi##
paralle##
perfect##
philoso##
superst##
histori##
hydroph##
hypothe##
present##
substan##
univers##
arterio##
branchi##
christi##
phantas##
staphyl##
interre##
opistho##
uretero##
noncomm##
overcom##
uncontr##
evangel##
haemato##
heterog##
laryngo##
precons##
profess##
self-pr##
strong-##
transpo##
superex##
twice-a##
twice-p##
well-re##
charact##
collect##
galacto##
microco##
preconc##
theolog##
winter-##
concert##
continu##
contrac##
deutero##
express##
gentlem##
harmoni##
narrow-##
slender##
synchro##
transmi##
twice-d##
convers##
general##
nonconf##
serpent##
spring-##
subject##
world-c##
galvano##
heaven-##
impress##
interla##
interlo##
interpo##
parasit##
precomp##
semicon##
spirit-##
twice-c##
acantho##
heteros##
interst##
microph##
pneumon##
protect##
psychop##
sympath##
through##
unconte##
anthrac##
chlorop##
interve##
microsp##
nontran##
persona##
purple-##
shallow##
underco##
underpr##
archaeo##
cerebro##
conserv##
convent##
golden-##
mechani##
possess##
predisc##
splanch##
stomach##
tempest##
antimon##
cylindr##
electri##
individ##
interna##
interpr##
interse##
precont##
retrans##
stomato##
supersu##
supervi##
tracheo##
well-de##
world-s##
achroma##
circula##
heterot##
infinit##
interce##
objecti##
parthen##
semi-in##
uncompl##
unconce##
unconve##
alcohol##
anticon##
concept##
contrad##
gelatin##
interli##
interpe##
machine##
magneti##
merchan##
nonconc##
pleasur##
pseudoe##
superca##
supersa##
thoraco##
tobacco##
tongue-##
albumin##
command##
constru##
half-co##
interdi##
intrans##
overexp##
porphyr##
pseudog##
pyramid##
salping##
scratch##
transfe##
underse##
conduct##
determi##
diamond##
esophag##
heterom##
illumin##
intertr##
legitim##
mercuri##
phalang##
picture##
pseudob##
pseudol##
refract##
semipro##
siphono##
sorrow-##
spiritu##
thirty-##
three-s##
thrombo##
transve##
urethro##
world-d##
america##
authori##
automat##
cholecy##
formula##
gastrop##
hydroge##
materia##
membran##
microme##
out-of-##
pancrea##
pleasan##
quadrup##
rationa##
represe##
reticul##
self-ad##
signifi##
spondyl##
superac##
tender-##
tranqui##
trouble##
undersh##
violet-##
contrap##
differe##
discont##
improvi##
institu##
intelle##
mountai##
noncorr##
nonsens##
physico##
practic##
propaga##
reflect##
scatter##
stereot##
summer-##
traditi##
anatomi##
commiss##
corpora##
correct##
cryptog##
dehydro##
fractio##
homogen##
interca##
interde##
intersp##
monopol##
neighbo##
nonsubs##
occipit##
precipi##
rhyncho##
sanguin##
superfi##
superre##
thermop##
transce##
twice-b##
underli##
alterna##
appendi##
bibliop##
chicken##
constit##
cross-b##
discour##
disinte##
ecclesi##
endothe##
flower-##
hundred##
interfe##
interro##
phenome##
phospha##
preconf##
prevent##
process##
protoco##
quasi-g##
quasi-t##
reinter##
respect##
respons##
scandal##
short-s##
special##
suggest##
thermos##
transit##
uncircu##
vesicul##
arbitra##
catholi##
central##
chromop##
circuma##
concent##
connect##
dispens##
dispers##
dolicho##
episcop##
hydrome##
hyperco##
imperso##
meningo##
metalli##
nonconv##
partici##
periton##
predisp##
program##
prophet##
recogni##
roentge##
scarlet##
separat##
seventy##
strange##
superpo##
telegra##
thousan##
uncompa##
undergr##
unself-##
unsuper##
vertebr##
adminis##
articul##
auricul##
carcino##
commerc##
complex##
confess##
cross-f##
cross-s##
demonst##
flagell##
homolog##
interma##
monarch##
nondist##
orienta##
overdis##
phanero##
photogr##
pseudon##
psychot##
quadric##
quasi-h##
religio##
revolut##
schisto##
schoolm##
superna##
thalass##
tyranni##
underre##
uniform##
well-in##
world-a##
abstrac##
actinom##
alphabe##
amygdal##
attract##
benefic##
broken-##
cinchon##
denatur##
depress##
discipl##
epithel##
functio##
germani##
ground-##
hospita##
hyperse##
industr##
interch##
journal##
little-##
monogra##
nondefe##
nondisc##
nonspec##
observa##
opposit##
orchest##
overhea##
oversta##
polychr##
pre-exp##
questio##
reforma##
sclerot##
self-im##
specifi##
spindle##
standar##
strengt##
superde##
superma##
surface##
termina##
terror-##
travel-##
twice-t##
ventric##
amphith##
austral##
bastard##
capital##
carboni##
chamber##
classic##
compres##
conjuga##
consign##
consult##
corrupt##
dactylo##
decarbo##
discrim##
distrib##
dramati##
english##
exhibit##
formali##
half-in##
hydroxy##
incorpo##
instruc##
liberal##
mineral##
noncond##
nonexte##
nonresi##
onomato##
penetra##
presbyt##
priest-##
project##
pseudoi##
pseudor##
psychos##
pterygo##
reconci##
repress##
republi##
self-po##
shepher##
slipper##
soldier##
sphaero##
steeple##
strepto##
telepho##
three-c##
trichin##
unconst##
well-di##
well-st##
wonder-##
academi##
adulter##
antipat##
associa##
barbari##
bottle-##
brachio##
categor##
chondri##
cicatri##
circumv##
conform##
controv##
country##
democra##
develop##
diversi##
encyclo##
enteroc##
experim##
familia##
fashion##
fiction##
illustr##
inquisi##
interru##
megalop##
metallo##
methodi##
middle-##
misappr##
narcoti##
natural##
nonsupp##
overpre##
overspe##
paradox##
pericar##
periost##
perturb##
philant##
product##
progres##
protest##
psychol##
reconfi##
romanti##
scissor##
sensati##
sparrow##
squirre##
stretch##
success##
superab##
thimble##
trumpet##
acclima##
assembl##
better-##
bronchi##
cardina##
christo##
chrysop##
clothes##
compani##
concord##
condens##
content##
crescen##
crimson##
crooked##
diploma##
dissent##
epistol##
fragmen##
hyperca##
immorta##
imperia##
initial##
interne##
interpl##
investi##
italian##
labyrin##
legisla##
leucocy##
marble-##
meteoro##
militar##
myrmeco##
ninety-##
nondepr##
nonrepr##
officia##
omphalo##
oscilla##
overrea##
peacock##
photoch##
premedi##
princip##
proleta##
prostat##
pseudod##
pseudoh##
psychog##
quadrat##
quarrel##
quasi-l##
quasi-n##
reconve##
rubber-##
rufous-##
self-op##
stereop##
syllabi##
symboli##
technic##
thanato##
three-p##
timber-##
traffic##
transcr##
transla##
unconfi##
unconse##
underca##
undisco##
unrepro##
world-r##
account##
bibliot##
calcula##
catechi##
cervico##
checker##
circumc##
comfort##
comment##
compact##
complai##
confirm##
conjunc##
consent##
convert##
destruc##
discomm##
doctrin##
emotion##
epiderm##
equilib##
euphemi##
extempo##
externa##
extrava##
ferment##
fertili##
fratern##
ganglio##
gentle-##
geometr##
heterod##
hypnoti##
imagina##
interac##
interje##
introdu##
literal##
magnifi##
manifes##
metabol##
metamor##
naphtha##
nationa##
nondefi##
nonpers##
nonpres##
nonprop##
obstruc##
orange-##
orthodo##
overgra##
overint##
paramet##
philipp##
phoenic##
phyllos##
predest##
pressur##
promise##
prosely##
pseudot##
recipro##
regular##
sentime##
sequest##
sinistr##
sociali##
stercor##
strait-##
subcont##
sulphon##
superim##
synonym##
systema##
tempera##
torment##
trachel##
transmu##
treasur##
uncompr##
underdr##
undersp##
warrant##
world-p##
abdomin##
acciden##
adventu##
allegor##
anesthe##
animali##
antipar##
antithe##
brachyc##
brother##
carbona##
circuit##
circumf##
colloqu##
committ##
composi##
consona##
contras##
contrib##
copper-##
corresp##
deposit##
descend##
diverti##
draught##
duplica##
economi##
element##
elephan##
eleuthe##
ephemer##
excepti##
expedit##
foreign##
franco-##
hematoc##
hollow-##
husband##
hyperme##
hyposta##
influen##
informa##
inherit##
inspect##
interpa##
interva##
marshal##
mesmeri##
microgr##
moderat##
moderni##
origina##
paraphr##
particu##
pedicul##
perpetu##
photoco##
potenti##
recomme##
reconst##
registr##
schemat##
scienti##
second-##
section##
secular##
self-ac##
slumber##
somnamb##
spanish##
specula##
stabili##
stigmat##
subcomm##
suffrag##
superel##
superpr##
suppres##
tempora##
transfo##
transpl##
traumat##
unappre##
underbu##
unrever##
vulcani##
well-pr##
wrinkle##
anathem##
antagon##
anticom##
applica##
arthrop##
brazen-##
bright-##
catalog##
commend##
compass##
complem##
concili##
congreg##
congres##
conspir##
constan##
cosmopo##
counsel##
crimina##
dactyli##
definit##
dialect##
disembo##
disillu##
documen##
federal##
gastroe##
half-de##
heathen##
helleni##
helmint##
hyperac##
hypophy##
incarna##
indigen##
instrum##
integra##
knuckle##
lachrym##
nonprof##
nonprot##
operati##
organis##
palaeog##
palaeon##
parabol##
paradis##
pastora##
physiog##
pleurot##
popular##
posteri##
predict##
preinte##
prescri##
presupp##
prohibi##
proport##
proprie##
quadril##
retrogr##
reversi##
rheumat##
romance##
schizop##
scintil##
self-ab##
skeleto##
solicit##
sophist##
souther##
speckle##
stimula##
subcomp##
subscri##
superad##
superhe##
swallow##
symmetr##
symphon##
theatri##
trichop##
trinitr##
unappro##
undercl##
underta##
ventril##
vulgari##
white-b##
worship##
adverti##
aggluti##
alexand##
benedic##
butterf##
combina##
compart##
complet##
complic##
compreh##
concret##
conditi##
contain##
contrar##
cryptoc##
deliber##
dogmati##
exhaust##
fibrino##
forward##
gastros##
half-re##
heredit##
hispani##
hydroly##
hyperdi##
incompa##
indiscr##
inhabit##
intensi##
interin##
invalid##
jeopard##
microbi##
microsc##
million##
monochr##
multitu##
nectari##
neutral##
nonreve##
obligat##
overdra##
oversen##
pacific##
palaeot##
palladi##
pasteur##
pedagog##
plagiar##
platitu##
polyglo##
polygon##
precept##
predete##
predica##
preside##
procura##
prognos##
prospec##
pseudof##
reprodu##
scorpio##
scrutin##
self-se##
sphygmo##
stephan##
subterr##
support##
suspens##
sweet-s##
tantali##
thermot##
transfi##
triangu##
trigono##
uncomme##
underla##
unequal##
unprovi##
upright##
water-s##
well-be##
whistle##
world-w##
xanthop##
acceler##
accommo##
accompl##
affecti##
amalgam##
antipro##
appreci##
balloon##
bristle##
burglar##
butcher##
canthar##
castell##
cerebra##
chancel##
channel##
chlamyd##
coffee-##
confede##
contort##
control##
convuls##
critici##
cross-p##
cultiva##
decompo##
delight##
deliver##
delphin##
denomin##
diphtho##
displea##
distill##
distinc##
eighty-##
enantio##
explica##
exposit##
extensi##
extract##
foresta##
frictio##
galvani##
glossop##
grammat##
gregari##
harvest##
hesperi##
hyperbo##
hyperth##
impassi##
imperat##
inconsi##
inconve##
indicat##
indulge##
initiat##
insurre##
interfi##
licheni##
lithoph##
lymphan##
manipul##
mechano##
melanch##
monumen##
necessi##
noncirc##
noncoll##
nondisp##
nonexpe##
occasio##
opinion##
overcap##
overflo##
overins##
parcel-##
persist##
photoph##
phytoph##
placent##
plastic##
polypho##
psychoa##
psychom##
pterido##
quadrip##
radiote##
reddish##
referen##
regener##
restrai##
resurre##
scribbl##
self-ma##
self-st##
sergean##
short-c##
simple-##
slaught##
station##
sterili##
strateg##
strobil##
subsidi##
summari##
supersc##
supposi##
symptom##
territo##
terrori##
thick-s##
three-b##
torrent##
transpa##
twice-e##
unparti##
unpreci##
unpredi##
unrepre##
victori##
vindica##
vitriol##
volatil##
well-fo##
well-se##
wooden-##
xanthoc##
yellowi##
absinth##
absolut##
aggrega##
aliment##
amphibo##
analogi##
antiqua##
aphoris##
apologi##
archite##
argenti##
aromati##
blanket##
blossom##
brahman##
capacit##
cathedr##
centaur##
chatter##
cholest##
cinemat##
commens##
communa##
compens##
compuls##
conside##
convict##
coopera##
coralli##
corrobo##
cotton-##
cross-l##
decentr##
decolor##
degener##
desulfu##
diagnos##
diagram##
dichoto##
discuss##
domesti##
elastic##
endocri##
etymolo##
euphoni##
expansi##
exploit##
flannel##
floccul##
fluorid##
fountai##
frederi##
gastero##
gastroc##
germina##
geronto##
hierarc##
hydroch##
hydroco##
hypocho##
immater##
impregn##
incompl##
incompr##
intercr##
introsp##
irratio##
kitchen##
leaden-##
liberat##
literat##
melodra##
microst##
monogen##
monothe##
musculo##
mytholo##
neglect##
negotia##
neologi##
nicotin##
nimble-##
nitroge##
nonacce##
nonappe##
nondeli##
nonextr##
nonperc##
nonrepe##
norther##
overcha##
overemp##
overind##
oversti##
palaeoc##
panegyr##
parochi##
patriar##
pension##
percept##
periodo##
periphe##
phantom##
phyllop##
pilgrim##
platoni##
plurali##
polaris##
polymer##
polypha##
pontifi##
pre-exc##
precond##
preoccu##
primros##
proctor##
pronoun##
quadran##
quasi-b##
quasi-o##
recover##
regulat##
reinsta##
rejuven##
residen##
retract##
reveren##
sacrame##
sacrifi##
secreta##
sedimen##
several##
stereom##
subtili##
suburba##
superor##
superso##
supplic##
synergi##
synthet##
syphilo##
tautolo##
temporo##
thaumat##
thermom##
transpi##
treason##
trichom##
uncorre##
ungener##
unpleas##
village##
vinegar##
viscero##
water-c##
well-br##
white-f##
white-s##
address##
alchemi##
amphibi##
anagram##
annihil##
antisep##
appoint##
apprehe##
arteria##
authent##
autogra##
bachelo##
black-b##
bureauc##
cabinet##
camphor##
candle-##
canniba##
capitul##
cellulo##
centrif##
certifi##
chemico##
circumn##
cockney##
commemo##
competi##
complim##
compute##
concess##
confide##
configu##
contest##
contine##
cortico##
council##
dendroc##
departm##
diaboli##
dimethy##
disappr##
dishono##
disputa##
disrupt##
distrac##
effemin##
entomol##
epidemi##
equivoc##
esthesi##
exorcis##
extermi##
flutter##
foresho##
frequen##
generat##
gilbert##
glyceri##
granulo##
gynaeco##
gynandr##
hybridi##
hyperte##
importu##
intelli##
interci##
intergr##
interra##
intoxic##
intuiti##
isochro##
jacobin##
justice##
lepidop##
locomot##
magistr##
memoria##
metapho##
metaphy##
micropr##
microse##
ministr##
misinte##
mollusc##
mongrel##
multico##
mythopo##
necroph##
nonappr##
nonasce##
nondete##
nondiff##
nonelec##
nonindu##
noninst##
nonprov##
normali##
ornamen##
overacc##
overass##
overbra##
overgen##
overimp##
palaeoe##
palaeop##
peculia##
persecu##
phagocy##
phylloc##
physiol##
plasmod##
pleuroc##
postero##
pragmat##
precede##
precoll##
precomm##
preform##
prejudi##
preserv##
prince-##
procons##
prologu##
prosecu##
provinc##
pulveri##
rainbow##
rapture##
recompe##
redistr##
refresh##
repetit##
respond##
restora##
retriev##
rhapsod##
rhinoce##
romano-##
schizog##
sclerod##
scriptu##
self-en##
self-fo##
self-pe##
seriali##
sermoni##
service##
soliloq##
sphacel##
spiroch##
spongio##
squamos##
stereos##
stipula##
structu##
subordi##
substit##
superen##
superpa##
systemi##
telemet##
tetrame##
three-f##
tourist##
trenche##
trypano##
twice-m##
twice-o##
unconfo##
underbo##
underbr##
underma##
underpa##
underwa##
undeter##
unpropo##
vapouri##
verbali##
vernacu##
villain##
vituper##
vocifer##
water-b##
well-ac##
well-ca##
well-ch##
well-ma##
well-su##
western##
abnorma##
accessi##
accusat##
aggress##
ambulat##
anaerob##
anaesth##
apostro##
appropr##
asclepi##
astrolo##
attitud##
baronet##
batrach##
behavio##
bibliog##
blood-s##
blunder##
bronze-##
cardiop##
celebra##
charter##
choledo##
christe##
chronog##
ciceron##
citizen##
civiliz##
coagula##
collabo##
collegi##
columbi##
combust##
compara##
comprom##
conclud##
conquer##
consola##
cushion##
dedicat##
detract##
diffusi##
dihydro##
disagre##
discern##
discomf##
disemba##
disprop##
distort##
emancip##
epigram##
equival##
exponen##
exterio##
fiddle-##
flatter##
foramin##
formica##
fortune##
fossili##
french-##
glutton##
granula##
guarant##
halluci##
hatchet##
heart-s##
horizon##
hydroth##
hymenop##
hyperin##
hypertr##
hypoder##
identif##
idolatr##
immobil##
imparti##
impleme##
implica##
indeter##
innovat##
instant##
intempe##
interes##
intervi##
journey##
light-h##
marsupi##
meditat##
menstru##
metropo##
microch##
micropo##
monolog##
mosquit##
multilo##
multise##
nonassi##
nonimpe##
nonmeta##
nonpara##
nonpart##
nonperm##
nonpros##
nonreco##
occiden##
orthogr##
overres##
oversto##
pachyde##
papillo##
parchme##
parliam##
patroni##
pauperi##
pentame##
percuss##
permuta##
phoneti##
phonogr##
physici##
polymor##
postula##
predece##
preteri##
pretran##
probati##
probosc##
prolong##
propiti##
protrac##
pseudov##
quadrif##
quasi-v##
recepti##
reconce##
recruit##
redempt##
reminis##
remonst##
remuner##
reprehe##
reproac##
reproba##
restric##
rontgen##
sabbath##
saddle-##
scleros##
segrega##
self-ap##
self-be##
semicol##
seminar##
sensiti##
sociolo##
sporang##
subdivi##
subinte##
substra##
sulphat##
sulphoc##
sweet-t##
syphili##
terebra##
tetrach##
thermog##
three-t##
thyroid##
tonsill##
traitor##
transfu##
travers##
trichlo##
triplic##
tympano##
unbelie##
unconso##
unconsu##
underac##
unnatur##
unsanct##
unsuspe##
vagabon##
well-bo##
well-en##
well-gr##
well-pl##
well-tr##
whisper##
woolly-##
xenopho##
##ization##
##ousness##
##bleness##
##tically##
##ability##
##ablenes##
##logical##
##counter##
##iveness##
##ologica##
##ication##
##ographi##
##ational##
##graphic##
##ologist##
##iousnes##
##ificati##
##iferous##
##tivenes##
##ficatio##
##electro##
##lizatio##
##istical##
##ography##
##tedness##
##ingness##
##ination##
##sticall##
##essness##
##lessnes##
##atively##
##fulness##
##tionali##
##ishness##
##ulation##
##ibility##
##ometric##
##hearted##
##tionist##
##isation##
##-shaped##
##tograph##
##alizati##
##aphical##
##raphica##
##eration##
##alistic##
##nizatio##
##-minded##
##anthrop##
##cephalo##
##-headed##
##dedness##
##matical##
##ophobia##
##rically##
##calness##
##gically##
##icalnes##
##tabilit##
##sivenes##
##ionally##
##alizing##
##metrica##
##branchi##
##colored##
##etrical##
##itation##
##nograph##
##ionalis##
##ocephal##
##rizatio##
##ogicall##
##rograph##
##hically##
##nically##
##aticall##
##genetic##
##rousnes##
##-colore##
##ationis##
##iblenes##
##otherap##
##cephali##
##ncephal##
##ntation##
##ctional##
##encepha##
##tionall##
##chromat##
##omorphi##
##iograph##
##ographe##
##grapher##
##ativene##
##genesis##
##ression##
##double-##
##ilities##
##inesses##
##eticall##
##iologic##
##ateness##
##ranchia##
##-leaved##
##entatio##
##ctively##
##minatio##
##escence##
##tablene##
##enesses##
##iculate##
##erative##
##nationa##
##present##
##ogeneti##
##ogenous##
##ulating##
##communi##
##inating##
##phicall##
##looking##
##nthropo##
##structi##
##olution##
##ophthal##
##ressive##
##ogenesi##
##iaceous##
##positio##
##sibilit##
##-lookin##
##nstruct##
##ologies##
##rationa##
##osition##
##phthalm##
##crystal##
##self-co##
##ciousne##
##termina##
##mically##
##oscopic##
##tizatio##
##bilitie##
##oration##
##rabilit##
##rations##
##tionary##
##eograph##
##esthesi##
##ndednes##
##bacteri##
##ticulat##
##tration##
##alities##
##ation's##
##cations##
##ciously##
##rticula##
##thought##
##articul##
##morphic##
##electri##
##single-##
##tificat##
##icative##
##snesses##
##tricall##
##scripti##
##tologic##
##eringly##
##mission##
##pressio##
##hologic##
##plastic##
##essiona##
##natural##
##tations##
##thologi##
##lograph##
##plicati##
##bearing##
##manship##
##rablene##
##-footed##
##alising##
##atingly##
##crimina##
##otropic##
##phospho##
##rystall##
##sulphur##
##grammat##
##lisatio##
##prehens##
##superin##
##obranch##
##politic##
##ishment##
##lations##
##magneti##
##mentati##
##mouthed##
##nologic##
##pharyng##
##raction##
##straigh##
##traight##
##uration##
##volutio##
##ectiona##
##erating##
##ionaliz##
##itional##
##tubercu##
##ubercul##
##astical##
##passion##
##quasi-c##
##riously##
##stituti##
##yellow-##
##substan##
##itative##
##quarter##
##unction##
##chondro##
##duction##
##entness##
##etermin##
##portion##
##rehensi##
##interco##
##rologic##
##determi##
##generat##
##icating##
##omatous##
##persona##
##-handed##
##express##
##feather##
##mentali##
##therapy##
##underst##
##ocratic##
##onalist##
##zations##
##atorial##
##erminat##
##llation##
##rammati##
##ttering##
##culatio##
##entally##
##lection##
##matolog##
##ounding##
##rianism##
##sensiti##
##station##
##collect##
##mograph##
##oplasti##
##perfect##
##stantia##
##ception##
##thunder##
##culated##
##-flower##
##ctivene##
##inative##
##monstra##
##nstitut##
##ordinat##
##self-re##
##centric##
##christi##
##lectric##
##riousne##
##sacchar##
##tiously##
##tologis##
##ionless##
##onistic##
##tempora##
##tometer##
##torship##
##evoluti##
##formati##
##harmoni##
##hromati##
##nabilit##
##ubstant##
##bstanti##
##general##
##liferou##
##pseudo-##
##redness##
##ulative##
##-bearin##
##berries##
##cession##
##continu##
##dynamic##
##icultur##
##mpressi##
##titious##
##-tailed##
##dermato##
##emonstr##
##hograph##
##syllabi##
##tationa##
##-tongue##
##contemp##
##listica##
##mechani##
##onicall##
##ristian##
##rtednes##
##sthesia##
##-winged##
##eologic##
##uousnes##
##usnesse##
##estheti##
##fashion##
##ilosoph##
##ssional##
##tibilit##
##tiousne##
##elf-con##
##eousnes##
##nablene##
##ounter-##
##rometer##
##arianis##
##ariness##
##hilosop##
##hristia##
##ichthyo##
##imental##
##itarian##
##itution##
##multipl##
##oplasty##
##philoso##
##pically##
##possess##
##practic##
##sionist##
##trophic##
##central##
##histori##
##lateral##
##nations##
##obiolog##
##omorpho##
##titutio##
##vention##
##ephalic##
##erentia##
##impress##
##logists##
##plicate##
##utation##
##entalis##
##mmunica##
##naceous##
##netical##
##ommunic##
##pseudoc##
##rmation##
##self-de##
##technic##
##ticalne##
##biologi##
##ciation##
##efulnes##
##hosphor##
##parasit##
##pharmac##
##quasi-p##
##weather##
##alisati##
##anchiat##
##elessne##
##ntially##
##product##
##pseudos##
##servati##
##fection##
##hetical##
##niferou##
##nificat##
##omantic##
##section##
##stratio##
##anizati##
##ifiable##
##iologis##
##ionable##
##morphis##
##odactyl##
##pseudoa##
##uasi-co##
##ystalli##
##-hearte##
##angular##
##constru##
##erously##
##ialness##
##ighting##
##odynami##
##onalize##
##rection##
##rificat##
##riminat##
##spheric##
##ticular##
##version##
##corpora##
##ivorous##
##mentary##
##ounterp##
##profess##
##spectro##
##abiliti##
##connect##
##conscio##
##content##
##gnostic##
##materia##
##minatin##
##resenta##
##roscopi##
##atologi##
##ferenti##
##ounters##
##pressiv##
##rativel##
##roducti##
##symmetr##
##tfulnes##
##america##
##circula##
##covered##
##hotogra##
##indedne##
##itorial##
##jection##
##licatio##
##lousnes##
##ocation##
##oelectr##
##onalism##
##otograp##
##photogr##
##pseudop##
##atholog##
##conduct##
##culture##
##differe##
##epresen##
##icality##
##minated##
##operati##
##quasi-i##
##represe##
##siblene##
##conserv##
##ctionis##
##erville##
##iabilit##
##instruc##
##noncont##
##omaniac##
##omeness##
##patholo##
##pneumat##
##protect##
##quasi-e##
##sthetic##
##tionism##
##-backed##
##artedne##
##conform##
##elation##
##hemical##
##igation##
##mindedn##
##ndering##
##orphism##
##ostatic##
##raceous##
##ratical##
##rnation##
##silver-##
##spirite##
##circums##
##cultura##
##eartedn##
##entiall##
##erythro##
##faction##
##ifferen##
##nologis##
##nunciat##
##ornitho##
##quasi-s##
##respect##
##spermat##
##superse##
##utional##
##-haired##
##chemica##
##contrac##
##ensible##
##esville##
##nscious##
##onville##
##phagous##
##pirited##
##rologis##
##somenes##
##tongued##
##dramati##
##ductive##
##ersonal##
##gressiv##
##igerous##
##indicat##
##onsciou##
##preciat##
##romanti##
##ssively##
##-witted##
##atednes##
##aterial##
##ceptive##
##erousne##
##lementa##
##nousnes##
##onograp##
##onstrat##
##oportio##
##plement##
##proport##
##ractive##
##religio##
##rescent##
##riferou##
##rsville##
##tributi##
##-mouthe##
##brained##
##itating##
##mentall##
##onizati##
##phalous##
##roporti##
##stomato##
##xpressi##
##antness##
##authori##
##egenera##
##ilation##
##intelle##
##itively##
##nisatio##
##ontract##
##orative##
##quasi-d##
##regulat##
##ressing##
##ropical##
##thograp##
##ulatory##
##-legged##
##amental##
##ammatic##
##correct##
##eabilit##
##eablene##
##ephalou##
##functio##
##idation##
##nometer##
##ntellec##
##nthropi##
##sympath##
##tellect##
##tifying##
##blastic##
##compens##
##control##
##corrupt##
##dential##
##hthalmo##
##interpr##
##liberat##
##merican##
##nominat##
##objecti##
##psychol##
##smooth-##
##thetica##
##uplicat##
##well-co##
##-loving##
##ainable##
##commiss##
##dically##
##dnesses##
##erialis##
##interme##
##ndition##
##ologize##
##oticall##
##paralle##
##romorph##
##ruction##
##tnesses##
##arallel##
##carpous##
##commend##
##compreh##
##convers##
##develop##
##fficien##
##ishable##
##ministr##
##mprehen##
##omprehe##
##onality##
##onizing##
##onserva##
##onstruc##
##opathic##
##organiz##
##process##
##produci##
##romatic##
##sanguin##
##subject##
##adednes##
##chemist##
##cutting##
##dactyli##
##enerati##
##fferent##
##flagell##
##lificat##
##literat##
##ntative##
##onsider##
##orially##
##osphere##
##philous##
##ssociat##
##theolog##
##tropism##
##univers##
##conside##
##entativ##
##flowere##
##gnifica##
##ilizati##
##labilit##
##liberal##
##militar##
##nedness##
##nsation##
##ochemic##
##ominati##
##ophagou##
##phorous##
##pograph##
##propria##
##reading##
##respons##
##suggest##
##teriali##
##transmi##
##tructio##
##twice-s##
##-spirit##
##atching##
##aturali##
##capital##
##complex##
##convent##
##crowned##
##demonst##
##ensatio##
##graphis##
##harmaco##
##inister##
##lically##
##morphou##
##nsville##
##onation##
##opicall##
##orphous##
##orrhaph##
##otomies##
##overpro##
##penetra##
##reflect##
##residen##
##sentati##
##signifi##
##special##
##stering##
##stimula##
##taceous##
##tionles##
##tlessne##
##ularity##
##ycholog##
##actical##
##concent##
##conditi##
##echanic##
##esophag##
##herapeu##
##industr##
##laborat##
##leather##
##lowered##
##mentari##
##oblasti##
##ormatio##
##orousne##
##ostomat##
##quinque##
##scienti##
##self-di##
##specifi##
##ssivene##
##sycholo##
##therape##
##tiferou##
##uninter##
##-covere##
##acterio##
##actiona##
##associa##
##aughter##
##classic##
##clusive##
##concert##
##constit##
##ctomies##
##ectomie##
##hyllous##
##iculari##
##laceous##
##lighted##
##logisti##
##minator##
##municat##
##onstitu##
##periton##
##phyllou##
##pointed##
##pseudom##
##roscope##
##self-in##
##sighted##
##superco##
##taneous##
##tativel##
##tingnes##
##calcula##
##ction's##
##ctorial##
##entious##
##erapeut##
##ersvill##
##fertili##
##inguish##
##inistra##
##intermi##
##losophi##
##measure##
##metabol##
##monarch##
##nservat##
##onditio##
##ophilou##
##ountain##
##pneumon##
##synchro##
##tempera##
##tinguis##
##vertebr##
##aldehyd##
##bjectiv##
##criptio##
##eadedne##
##ectivel##
##egation##
##enetica##
##ficient##
##headedn##
##hromato##
##hystero##
##imetric##
##lectual##
##orporat##
##ountera##
##percept##
##physiol##
##quasi-a##
##rapeuti##
##recogni##
##ription##
##spiritu##
##ssionis##
##stablis##
##uasi-in##
##aciousn##
##adminis##
##appoint##
##atograp##
##cologic##
##democra##
##discrim##
##dminist##
##educati##
##ellectu##
##entiali##
##evangel##
##ference##
##gelatin##
##ilitari##
##lectrop##
##llectua##
##lnesses##
##ntrover##
##ocentri##
##ogistic##
##onventi##
##orrhagi##
##otation##
##otrophi##
##positiv##
##respond##
##rminati##
##rospect##
##rvation##
##sophist##
##stemati##
##tariani##
##tention##
##tionabl##
##ultural##
##-billed##
##-crowne##
##cationa##
##condens##
##ctivity##
##e-shape##
##emaking##
##endable##
##ercepti##
##erizati##
##escript##
##esentat##
##geograp##
##hysical##
##ibranch##
##iculati##
##illumin##
##iscrimi##
##magneto##
##minativ##
##monious##
##nalized##
##ollecti##
##physica##
##program##
##ritical##
##scrimin##
##spondyl##
##themati##
##toothed##
##atholic##
##blephar##
##catholi##
##chlorid##
##cidenta##
##ctation##
##depende##
##ditiona##
##e-minde##
##ematica##
##entiona##
##essioni##
##feature##
##hematic##
##ignific##
##integra##
##ivation##
##knowled##
##nistica##
##nowledg##
##nterpre##
##odontid##
##porphyr##
##pterous##
##ringing##
##ristica##
##sificat##
##spotted##
##stabili##
##tropica##
##tructiv##
##apprehe##
##arizati##
##carboni##
##charact##
##convert##
##dicatio##
##elibera##
##enuncia##
##epressi##
##erabili##
##heologi##
##horough##
##hought-##
##hysiolo##
##istoric##
##iticall##
##itivene##
##mometer##
##nventio##
##ompensa##
##opathol##
##otropis##
##overcon##
##pprehen##
##pressed##
##quasi-r##
##quisiti##
##ropriat##
##sedness##
##siologi##
##systema##
##tablish##
##thoroug##
##transpo##
##ularize##
##welling##
##ysiolog##
##ystemat##
##aciousl##
##albumin##
##antimon##
##apeutic##
##aracter##
##athered##
##chologi##
##clusion##
##diagnos##
##distrib##
##ectable##
##establi##
##fession##
##forming##
##iablene##
##iminati##
##inizati##
##istribu##
##laryngo##
##matogra##
##nalisti##
##nchiate##
##noninte##
##oncentr##
##orously##
##ortiona##
##phospha##
##revolut##
##rrhaphy##
##stretch##
##stribut##
##strophi##
##tractio##
##vangeli##
##yllabic##
##apitali##
##command##
##compass##
##discipl##
##ependen##
##esponde##
##essivel##
##haracte##
##hydroge##
##hypothe##
##idental##
##individ##
##ndingly##
##ndustri##
##noncons##
##oducing##
##osaurus##
##ratenes##
##riaceae##
##roducin##
##rrespon##
##sabilit##
##service##
##through##
##toriall##
##tutiona##
##ymmetri##
##aggluti##
##anizing##
##copical##
##crescen##
##ections##
##enation##
##familia##
##gglutin##
##hypnoti##
##iparous##
##iritual##
##jective##
##lagella##
##ldehyde##
##metalli##
##ministe##
##ophorou##
##otional##
##placent##
##pressib##
##raphist##
##rential##
##ricular##
##scopica##
##staphyl##
##tempere##
##titudin##
##torious##
##-bodied##
##alcohol##
##ambulat##
##athetic##
##cularly##
##cumulat##
##current##
##econcil##
##enograp##
##eologis##
##glutina##
##habilit##
##ializat##
##igenous##
##imation##
##ledness##
##liation##
##mologic##
##ncorpor##
##ndividu##
##nometri##
##noncomp##
##ontidae##
##quasi-f##
##raight-##
##reconci##
##terpret##
##tiation##
##tioning##
##-toothe##
##concept##
##confide##
##dividua##
##ectroph##
##elessly##
##entaliz##
##erologi##
##exhaust##
##icolous##
##lingual##
##meteoro##
##nsibili##
##observa##
##ocarpou##
##ochemis##
##olation##
##ontradi##
##opharyn##
##orienta##
##rdinate##
##rhythmi##
##rialize##
##rophobi##
##sporang##
##square-##
##superst##
##triple-##
##twenty-##
##working##
##-coated##
##-produc##
##angelic##
##arasiti##
##aryngea##
##axillar##
##broncho##
##bstract##
##carcino##
##ccident##
##classif##
##commerc##
##dactylo##
##depress##
##diction##
##duplica##
##eather-##
##ehearte##
##empered##
##episcop##
##extensi##
##ialized##
##ibiliti##
##interna##
##ionalit##
##itabili##
##lective##
##lustrat##
##membran##
##methodi##
##mpensat##
##nishing##
##obacter##
##ontolog##
##ositive##
##peculat##
##pericar##
##pophysi##
##prehend##
##pyramid##
##self-su##
##sociali##
##support##
##taining##
##ternali##
##ternati##
##timulat##
##tionate##
##traditi##
##trative##
##turalis##
##ulousne##
##uscular##
##appreci##
##artedly##
##athemat##
##atology##
##cephala##
##chamber##
##chondri##
##cograph##
##concili##
##definit##
##entable##
##erfecti##
##ervatio##
##ferment##
##ficator##
##fractio##
##gentlem##
##gration##
##hydrate##
##ificato##
##influen##
##inously##
##iration##
##lectrot##
##nscript##
##occipit##
##ophilic##
##piritua##
##pprecia##
##precipi##
##rationi##
##riation##
##rogenic##
##rogress##
##rolling##
##ructive##
##ssibili##
##stitute##
##thering##
##ulously##
##usively##
##ynchron##
##-christ##
##abstrac##
##acantho##
##adventu##
##apophys##
##auricul##
##contrad##
##ctednes##
##culator##
##cylindr##
##economi##
##emotion##
##emporal##
##estatio##
##estruct##
##gressio##
##iations##
##monopol##
##nsively##
##ntional##
##ochroma##
##ophytic##
##opteryg##
##questio##
##raditio##
##reaking##
##refract##
##rophyll##
##stringe##
##suffici##
##telegra##
##tension##
##thiness##
##uestion##
##untrans##
##ydrogen##
##adition##
##arriage##
##complet##
##compres##
##cratica##
##cultiva##
##dablene##
##deliber##
##descend##
##dificat##
##eaching##
##eartedl##
##ectioni##
##eflecti##
##entimen##
##entrali##
##ernatio##
##ertebra##
##essiven##
##frequen##
##haryngo##
##heistic##
##heteroc##
##hologis##
##ikeness##
##illustr##
##inizing##
##judicat##
##likenes##
##litical##
##lliform##
##machine##
##nomical##
##nsubsta##
##ntermin##
##ntiment##
##olithic##
##ophilis##
##orizati##
##osities##
##patriot##
##perativ##
##ppositi##
##prevent##
##rescenc##
##rituali##
##rliness##
##ryngeal##
##self-ex##
##separat##
##siastic##
##tantial##
##theisti##
##togenic##
##torical##
##transfe##
##transit##
##typical##
##ucation##
##usivene##
##vabilit##
##venesse##
##-necked##
##achroma##
##bration##
##carbona##
##confirm##
##destruc##
##diograp##
##dventur##
##element##
##existen##
##fective##
##hosphat##
##hydroph##
##infinit##
##institu##
##interre##
##iometer##
##iscipli##
##istrati##
##legitim##
##natured##
##ncentra##
##neutral##
##ocardia##
##oncilia##
##ophysic##
##opodous##
##overstr##
##pecific##
##permato##
##popular##
##pterygi##
##pterygo##
##quasi-m##
##reciati##
##retrans##
##roplast##
##rrhagia##
##rtation##
##sciplin##
##setting##
##sionary##
##stallin##
##success##
##tainabl##
##ticipat##
##trating##
##uniform##
##venture##
##wrought##
##-fashio##
##cephalu##
##ctionar##
##cularis##
##ducatio##
##ellatio##
##esponsi##
##gmatica##
##gregati##
##harynge##
##henomen##
##heterop##
##hocepha##
##inousne##
##missive##
##mmetric##
##nctiona##
##ntologi##
##ommerci##
##origina##
##osophic##
##ounterc##
##phenome##
##picture##
##pleasur##
##ppressi##
##produce##
##prophet##
##ptively##
##ralizat##
##recipit##
##reforma##
##regular##
##ricardi##
##rmative##
##russian##
##sentime##
##sequent##
##sociati##
##soundin##
##standar##
##sticate##
##stricti##
##structu##
##suppres##
##tamorph##
##tandard##
##tential##
##thyroid##
##tructur##
##tsville##
##twelve-##
##twice-r##
##uggesti##
##uminous##
##uretero##
##urgical##
##worship##
##-breast##
##-breath##
##-cuttin##
##-voiced##
##aesthet##
##agellat##
##agnetic##
##alculat##
##anatomi##
##arizing##
##asi-con##
##bellied##
##benzene##
##bercula##
##cabilit##
##chlorop##
##citatio##
##commoda##
##doctrin##
##dontida##
##eathing##
##ectomiz##
##emocrat##
##enomina##
##eometri##
##ericard##
##germani##
##growing##
##hthalmi##
##ilatera##
##interve##
##literal##
##lizable##
##lutiona##
##mizatio##
##mocrati##
##morphos##
##mplemen##
##mplicat##
##ndersta##
##normali##
##omagnet##
##ontroll##
##opistho##
##ossessi##
##patheti##
##peratio##
##petitio##
##populat##
##potenti##
##princip##
##probati##
##protest##
##provide##
##ransfer##
##reconce##
##riction##
##risatio##
##rogramm##
##rometri##
##sponden##
##ssimila##
##stigmat##
##stricke##
##tantiat##
##thermal##
##-spoken##
##-temper##
##aminati##
##appropr##
##arterio##
##aternal##
##atizati##
##automat##
##balance##
##breaker##
##breaste##
##cephaly##
##coagula##
##critici##
##deliver##
##dispers##
##emphasi##
##ensiona##
##ensitiv##
##ensitiz##
##ernment##
##esident##
##estimat##
##expansi##
##formula##
##graphie##
##hanging##
##hnologi##
##icatory##
##imitati##
##indulge##
##ingered##
##intelli##
##interpo##
##lescent##
##lutinat##
##matosis##
##migrati##
##mmercia##
##nalizat##
##neumato##
##ntentio##
##oglossa##
##ophical##
##ophilia##
##ophonic##
##ortable##
##overcom##
##owering##
##pendent##
##phantas##
##pressur##
##protein##
##ptional##
##ranchis##
##raphies##
##rrectio##
##scribed##
##session##
##specula##
##spiring##
##stomach##
##subscri##
##supervi##
##therapi##
##tracted##
##transla##
##tricken##
##trouble##
##uppress##
##-genera##
##-ridden##
##academi##
##acchari##
##accharo##
##acrific##
##ahedron##
##alphabe##
##anation##
##archica##
##artment##
##assembl##
##assiona##
##atorily##
##attered##
##ciative##
##civiliz##
##courage##
##criptiv##
##croscop##
##culatin##
##dingnes##
##ecologi##
##emental##
##enchyma##
##eralize##
##ericall##
##exhibit##
##fingere##
##franchi##
##galacto##
##haemato##
##icizing##
##identia##
##indedly##
##iometri##
##itioned##
##lingnes##
##lphabet##
##ncompre##
##ndation##
##ndescen##
##ndicati##
##ngering##
##niaceae##
##nistrat##
##nsivene##
##ntellig##
##ntercom##
##ntribut##
##officia##
##omicall##
##ompress##
##onarchi##
##ophyllo##
##orizing##
##otechni##
##partmen##
##peciali##
##ppropri##
##propaga##
##ractica##
##raising##
##raneous##
##regener##
##repress##
##ressibl##
##rophoto##
##rration##
##sacrifi##
##salping##
##sarcoma##
##scenden##
##scratch##
##spectiv##
##sulphon##
##synthet##
##tiblene##
##tionize##
##toriali##
##turally##
##uasi-re##
##uliform##
##xillary##
##-americ##
##-finger##
##-german##
##amiliar##
##amorpho##
##anesthe##
##anthrac##
##aration##
##arbitra##
##astroph##
##breakin##
##chingly##
##chronic##
##contest##
##contrib##
##critica##
##ctropho##
##directi##
##distinc##
##dizatio##
##e-heade##
##eathere##
##ecclesi##
##elastic##
##english##
##entific##
##entlema##
##eparati##
##ephalus##
##erablen##
##erizing##
##essenti##
##ficienc##
##galvano##
##ictoria##
##imperia##
##interce##
##istinct##
##itablen##
##ividual##
##lighten##
##metamor##
##mineral##
##ncement##
##nsitive##
##ntalize##
##ntleman##
##omatica##
##omologi##
##onfiden##
##oninter##
##onologi##
##ophosph##
##ophysio##
##orescen##
##organic##
##orthodo##
##owledge##
##planchn##
##porangi##
##publica##
##putatio##
##ranslat##
##reasted##
##referen##
##riaceou##
##rofessi##
##sablene##
##sexuali##
##shoulde##
##sically##
##sitiona##
##splanch##
##ssentia##
##ssionat##
##telepho##
##terable##
##ticness##
##tometri##
##tomorph##
##tophobi##
##vertibl##
##activat##
##adverti##
##anistic##
##applica##
##atterin##
##barbari##
##categor##
##centrat##
##cerebra##
##cheeked##
##dentate##
##dimensi##
##dispens##
##eformat##
##elf-dis##
##emonger##
##enologi##
##epithel##
##essible##
##etamorp##
##forward##
##hemistr##
##houlder##
##ializin##
##ightene##
##inciden##
##incorpo##
##inocula##
##interes##
##investi##
##ionists##
##istress##
##iteness##
##jointed##
##judicia##
##luminat##
##mercial##
##mercuri##
##minable##
##mperial##
##nianism##
##nishmen##
##noncomm##
##numerat##
##ochondr##
##oductiv##
##ogressi##
##ontribu##
##ophylli##
##pelling##
##politan##
##promise##
##pticall##
##ranquil##
##rchical##
##rdinati##
##reveren##
##scatter##
##serving##
##stincti##
##strong-##
##surface##
##synthes##
##testing##
##tiality##
##tractiv##
##tradict##
##trained##
##uential##
##uncontr##
##vablene##
##-cheeke##
##achable##
##affecti##
##ainment##
##antical##
##atrical##
##attract##
##bronchi##
##clothes##
##contine##
##cticall##
##deposit##
##diffusi##
##discove##
##dustria##
##e-color##
##ehensib##
##ensivel##
##eptical##
##etalous##
##figurat##
##flowing##
##foliate##
##geometr##
##heterog##
##histica##
##hospita##
##hythmic##
##identif##
##imagina##
##inabili##
##inhabit##
##inherit##
##interla##
##itionis##
##kinetic##
##legraph##
##maxilla##
##microsc##
##mountai##
##muscula##
##narrow-##
##nconver##
##neratio##
##nophobi##
##ogeogra##
##ognathi##
##olitica##
##ommodat##
##oriness##
##osauria##
##petalou##
##phistic##
##pitheli##
##pondera##
##precons##
##ralness##
##rativen##
##rialist##
##riptive##
##rsonali##
##science##
##self-pr##
##sensual##
##sprinkl##
##standin##
##strengt##
##tanding##
##tempest##
##thropom##
##toblast##
##tranqui##
##trength##
##troscop##
##urative##
##uricula##
##ustrial##
##utionar##
##ycephal##
##-lipped##
##-making##
##abdomin##
##accumul##
##aggress##
##alterna##
##ccumula##
##channel##
##cialize##
##clastic##
##compose##
##conceiv##
##confess##
##conjuga##
##constan##
##consult##
##dentali##
##deratio##
##discour##
##dolicho##
##e-leave##
##elegrap##
##emicall##
##enerate##
##ensibil##
##eriment##
##erproof##
##erritor##
##erstand##
##ertiliz##
##eyville##
##hablene##
##herical##
##hfulnes##
##ibition##
##ilizing##
##imensio##
##imulati##
##interro##
##interse##
##ircular##
##iscover##
##keeping##
##lectrom##
##lepharo##
##llumina##
##mension##
##microco##
##natenes##
##neighbo##
##nsional##
##ntegrat##
##ogramma##
##olition##
##onometr##
##onomica##
##orating##
##organis##
##oricall##
##oristic##
##otactic##
##perform##
##perimen##
##persens##
##phalang##
##polymer##
##psychop##
##radiate##
##radical##
##ralized##
##reathin##
##recepti##
##romania##
##seeming##
##sential##
##shingly##
##similat##
##skinned##
##strange##
##substit##
##superex##
##surrect##
##suscept##
##symboli##
##talized##
##territo##
##tomatic##
##tomatou##
##transve##
##trograp##
##twice-a##
##twice-p##
##ubjecti##
##ubstitu##
##ultivat##
##unciati##
##vocatio##
##well-re##
##yntheti##
##-bellie##
##-driven##
##agement##
##andedne##
##anicall##
##annered##
##benefic##
##blossom##
##brother##
##bstitut##
##compani##
##composi##
##culariz##
##dabilit##
##delight##
##eatured##
##echnica##
##eflower##
##egislat##
##ehensiv##
##elminth##
##enerali##
##enetrat##
##excepti##
##experim##
##federat##
##fensive##
##formali##
##fratern##
##gastric##
##hensive##
##homogen##
##italize##
##iterate##
##lastici##
##lativel##
##legisla##
##lishmen##
##meditat##
##merchan##
##mindedl##
##motiona##
##mulatio##
##nalizin##
##niversa##
##nlighte##
##nsequen##
##nsidera##
##nsisten##
##nstrati##
##ntalist##
##nthetic##
##ntingly##
##ochlori##
##ogastri##
##ommenda##
##omplexi##
##onscien##
##ontinen##
##ophisti##
##opinion##
##ordered##
##ounterr##
##ountert##
##pplicat##
##preconc##
##presbyt##
##project##
##racious##
##relatio##
##republi##
##rnament##
##scleros##
##slender##
##tousnes##
##ufficie##
##ulphuri##
##wice-re##
##winter-##
##writing##
##xperime##
##-pointe##
##accommo##
##ageable##
##amentar##
##aminate##
##analyti##
##anchise##
##anguine##
##arrying##
##atherin##
##atizing##
##breathi##
##caceous##
##ccommod##
##certain##
##chnical##
##cialist##
##circuit##
##comfort##
##controv##
##counsel##
##crested##
##cretion##
##decorat##
##deutero##
##dicated##
##diploma##
##disting##
##eaction##
##emistry##
##eritone##
##erograp##
##experie##
##gestion##
##gibilit##
##grained##
##iformes##
##infecti##
##interfe##
##interli##
##istingu##
##iterati##
##itiousl##
##lectroc##
##llustra##
##missibl##
##mmatica##
##nathous##
##ndepend##
##ndicate##
##nonconf##
##ochrono##
##odermat##
##ofessio##
##ominate##
##onising##
##ontinua##
##ontrove##
##onversa##
##opterou##
##orologi##
##otentia##
##ountere##
##pancrea##
##peaking##
##pective##
##pension##
##pleasan##
##punctua##
##racting##
##ragmati##
##reactio##
##rectomy##
##reinter##
##rifying##
##segment##
##serpent##
##siderat##
##sistenc##
##sterili##
##sticati##
##syllabl##
##timenta##
##tractor##
##treasur##
##triarch##
##tuation##
##twice-d##
##xperien##
##-nature##
##-spotte##
##alescen##
##appendi##
##bstruct##
##cardiac##
##climati##
##compoun##
##dispose##
##elabora##
##enticul##
##enumera##
##erializ##
##firmati##
##fluence##
##fronted##
##gations##
##gnathou##
##helleni##
##hibitio##
##hloride##
##hunder-##
##ialisti##
##icrosco##
##iedness##
##interlo##
##interru##
##ismatic##
##laughte##
##lectron##
##lytical##
##menting##
##microph##
##nalytic##
##neously##
##nterest##
##ntradic##
##ntransi##
##odendro##
##ompound##
##opsycho##
##osarcom##
##partici##
##periodi##
##pomorph##
##progres##
##psychic##
##purchas##
##racteri##
##ramatic##
##relativ##
##restric##
##scandal##
##scapula##
##solicit##
##speakin##
##spring-##
##termine##
##tinatio##
##tistica##
##toplast##
##transcr##
##tyranni##
##ultipli##
##uminati##
##urement##
##ventric##
##warrant##
##world-c##
##-bottom##
##-skinne##
##aristic##
##arities##
##articip##
##astheni##
##blooded##
##ceremon##
##chronis##
##cibilit##
##committ##
##compact##
##complai##
##condemn##
##consona##
##corresp##
##crement##
##cularit##
##culativ##
##digesti##
##discont##
##domesti##
##ealisti##
##eductio##
##enforce##
##ensiven##
##eomorph##
##erately##
##erlines##
##etaboli##
##ethylen##
##fitting##
##flectio##
##fluorid##
##heaven-##
##heteros##
##iberali##
##ificate##
##informa##
##inistic##
##istiani##
##kishnes##
##lassifi##
##latitud##
##leasant##
##lifying##
##lumines##
##methane##
##mitting##
##mologis##
##morphol##
##nchroni##
##nocepha##
##ntempor##
##nterrog##
##nterven##
##obligat##
##odontia##
##omestic##
##omycete##
##onducti##
##onforma##
##onopoli##
##onseque##
##onsonan##
##optosis##
##ospheri##
##perceiv##
##precomp##
##psychos##
##r-shape##
##restrai##
##romatop##
##rophili##
##rvative##
##semicon##
##sionate##
##spirati##
##spirit-##
##surable##
##tatical##
##tensive##
##teringl##
##terolog##
##thermic##
##thology##
##transce##
##tresses##
##trovers##
##twice-c##
##ulnesse##
##underpr##
##unicati##
##yllable##
##ynthesi##
##-creste##
##-eating##
##-feathe##
##-sighte##
##-tinted##
##aesthes##
##amorphi##
##anifest##
##archaeo##
##ardness##
##arrange##
##assimil##
##atories##
##bearded##
##biograp##
##borough##
##buildin##
##celebra##
##cellula##
##cellulo##
##cendent##
##cholecy##
##competi##
##complic##
##conceal##
##ecipita##
##ecogniz##
##electio##
##eliness##
##ement's##
##enlight##
##ernatur##
##ervativ##
##esignat##
##essions##
##etrogra##
##extract##
##ggressi##
##ghtness##
##gistica##
##handedn##
##icially##
##icities##
##ictiona##
##idectom##
##idities##
##ificial##
##ilicate##
##illatio##
##inaceou##
##inement##
##initial##
##interst##
##introdu##
##iotropi##
##ipotent##
##isement##
##italian##
##linguis##
##llusion##
##manifes##
##manlike##
##margina##
##matized##
##mensura##
##molecul##
##nfectio##
##ntifica##
##ntroduc##
##ogamous##
##ommissi##
##onformi##
##onnecti##
##ophoric##
##orifero##
##orrespo##
##osclero##
##pensati##
##permous##
##phenoid##
##pherica##
##pitaliz##
##portabl##
##ranscri##
##rapping##
##realist##
##rotecti##
##rritori##
##rthodox##
##sationa##
##saturat##
##scriptu##
##secreti##
##shallow##
##silicat##
##sionali##
##solutio##
##spermou##
##sphenoi##
##stained##
##statica##
##sternal##
##stingly##
##stingui##
##strativ##
##superfi##
##talizat##
##theatri##
##tlessly##
##toscope##
##trachea##
##tracheo##
##tribute##
##trovert##
##uarter-##
##uilding##
##unconte##
##uspicio##
##vascula##
##versati##
##vesicul##
##-formed##
##-marked##
##-roofed##
##-yellow##
##acquain##
##acteria##
##ancreat##
##angulat##
##anograp##
##archist##
##arthros##
##atriarc##
##austral##
##berculo##
##bilitat##
##cerebro##
##chanica##
##conscie##
##cquaint##
##ctabili##
##dogmati##
##drawing##
##ephalon##
##eproduc##
##eremoni##
##eriness##
##ersensi##
##estrain##
##estrict##
##etition##
##florous##
##germina##
##globuli##
##gnation##
##hanical##
##heatric##
##idrosis##
##ightful##
##improvi##
##incarna##
##irculat##
##iscount##
##itizati##
##junctiv##
##lablene##
##lanthro##
##lometer##
##lutioni##
##mannere##
##microsp##
##mmissio##
##moderat##
##moderni##
##navigat##
##nciliat##
##negotia##
##nerativ##
##niously##
##nontran##
##ntialit##
##obedien##
##ochrome##
##ognosti##
##omorpha##
##onstant##
##ontrans##
##ophotog##
##orrupti##
##partial##
##perturb##
##photome##
##piscopa##
##punctur##
##purple-##
##reconfi##
##reprodu##
##resisti##
##rminate##
##rnatura##
##ronical##
##strated##
##superna##
##tativen##
##templat##
##thoraci##
##tobacco##
##ulifero##
##umbling##
##umption##
##underco##
##uralist##
##uscepti##
##ustrati##
##utative##
##vaccina##
##volatil##
##y-minde##
##-braine##
##-featur##
##-growin##
##-horned##
##-jointe##
##address##
##agramma##
##angling##
##arbonat##
##archite##
##armonic##
##ascular##
##atrioti##
##authent##
##bolical##
##breathe##
##burning##
##cardina##
##chnolog##
##cipital##
##cologis##
##consoli##
##criptur##
##ctomize##
##derstan##
##diamond##
##diation##
##dicativ##
##dicator##
##discern##
##dsville##
##ectiven##
##edicati##
##educate##
##egulati##
##elephon##
##ellular##
##enthusi##
##ertible##
##eumatic##
##explica##
##externa##
##fficial##
##fically##
##ganglio##
##golden-##
##gulatio##
##hedness##
##hipping##
##holecys##
##hydroxy##
##iciousl##
##igurati##
##inarian##
##inguist##
##inologi##
##ionisti##
##iplicat##
##istence##
##itching##
##iversal##
##leasure##
##lescenc##
##licated##
##llograp##
##marshal##
##moralis##
##neraliz##
##nership##
##nesthes##
##nspirit##
##nticula##
##nutriti##
##obation##
##ocarbon##
##oclimat##
##oglobin##
##olecyst##
##omposit##
##oprotei##
##ormaliz##
##ornamen##
##ounterm##
##parthen##
##persuad##
##phabeti##
##piratio##
##porting##
##predica##
##predisc##
##prescri##
##prinkle##
##prostat##
##ptation##
##qualifi##
##ralizin##
##ramenta##
##ransfor##
##reating##
##resbyte##
##reticul##
##riental##
##ritable##
##ritoria##
##rodacty##
##rothera##
##ruption##
##sporous##
##sterial##
##stiness##
##straine##
##sumptio##
##teratio##
##terroga##
##thentic##
##thermos##
##thoraco##
##thrombo##
##thusias##
##tomical##
##transpa##
##ualness##
##uctivel##
##ultiple##
##umental##
##uthenti##
##vantage##
##vestiga##
##visaged##
##y-faced##
##ympathi##
##-browed##
##-strick##
##acclima##
##aculate##
##agmatic##
##allegor##
##ationar##
##autogra##
##broider##
##capsula##
##casting##
##cclesia##
##cclimat##
##celerat##
##chlorin##
##cificat##
##cinatio##
##combina##
##combust##
##compute##
##consent##
##conspir##
##contain##
##contami##
##convinc##
##cotyled##
##country##
##daceous##
##dedicat##
##describ##
##diversi##
##dliness##
##eceptiv##
##ediment##
##elebrat##
##eriodic##
##ermissi##
##eromorp##
##esbyter##
##escribe##
##etation##
##eteorol##
##etracti##
##expecta##
##expedit##
##federal##
##governm##
##hensibl##
##iciousn##
##ificall##
##igating##
##ilanthr##
##imistic##
##inablen##
##inatory##
##inspect##
##irostra##
##istance##
##ivities##
##journal##
##l-shape##
##lacenta##
##lationa##
##lectrol##
##lightin##
##lternat##
##mastoid##
##microme##
##mycosis##
##naesthe##
##nalness##
##narcoti##
##ndeterm##
##necessi##
##neousne##
##neumono##
##nfident##
##nfluenc##
##ngulate##
##nitaria##
##noculat##
##ntamina##
##ntercha##
##nterrup##
##nthusia##
##oductio##
##ontamin##
##ontempl##
##onverti##
##opposit##
##orpholo##
##orphyri##
##otyledo##
##overnme##
##perfora##
##philant##
##phyllum##
##plasmic##
##precont##
##predict##
##prohibi##
##pronoun##
##pulatio##
##radiati##
##ranscen##
##ransver##
##rchitec##
##rculate##
##reathed##
##reation##
##recipro##
##reeding##
##rhyncho##
##ringnes##
##rishnes##
##rocepha##
##rohibit##
##ropping##
##roscopy##
##rpholog##
##sclerot##
##segrega##
##servant##
##smanshi##
##sonable##
##stereot##
##stipula##
##supersu##
##tation'##
##tellige##
##tematic##
##terrupt##
##tership##
##thalami##
##ticated##
##tivatio##
##tometry##
##transfo##
##transpl##
##tricula##
##trologi##
##ttednes##
##tuously##
##tyledon##
##uminesc##
##ureless##
##uthoriz##
##utionis##
##vernmen##
##well-de##
##world-s##
##xceptio##
##ylamine##
##-bright##
##-limbed##
##-ribbed##
##-visage##
##acciden##
##account##
##acknowl##
##acousti##
##actions##
##anscend##
##ansform##
##ansport##
##anthous##
##arcinom##
##atrophi##
##bordina##
##bricate##
##certifi##
##cessive##
##chiness##
##chitect##
##cknowle##
##cogniza##
##conjunc##
##conquer##
##consecr##
##consequ##
##coustic##
##denomin##
##destroy##
##diously##
##disinte##
##distill##
##dlessne##
##dressed##
##e-faced##
##ecessit##
##eciproc##
##ectible##
##eligiou##
##ell-con##
##emoglob##
##enicall##
##entilat##
##eproach##
##epublic##
##equenti##
##equival##
##eutrali##
##evaluat##
##examine##
##fiction##
##flation##
##formabl##
##furnish##
##galvani##
##granula##
##gratula##
##gregate##
##heterot##
##hilanth##
##homolog##
##horacic##
##icalism##
##ickness##
##ightnes##
##igratio##
##inescen##
##isteria##
##itiousn##
##ivalent##
##liament##
##ligious##
##linesse##
##liograp##
##llectiv##
##llowing##
##loquent##
##mabilit##
##masters##
##minesce##
##monogra##
##mpassio##
##mytholo##
##nderous##
##nesthet##
##ngelica##
##nhearte##
##nsecrat##
##nsonant##
##nspirat##
##ntempla##
##nterfer##
##nticall##
##ntoxica##
##ochromi##
##ocrysta##
##onjunct##
##onsecra##
##onymous##
##orchest##
##ospecti##
##othermi##
##pendenc##
##philist##
##posable##
##positor##
##pragmat##
##preserv##
##prosper##
##reducti##
##reproac##
##resista##
##ressure##
##reversi##
##rganize##
##romance##
##rostati##
##scrutin##
##selling##
##semi-in##
##sentien##
##siology##
##siphono##
##sonvill##
##ssnesse##
##stracti##
##subordi##
##talline##
##taphylo##
##terless##
##therium##
##ticatio##
##tivated##
##tocrati##
##tongue-##
##toxicat##
##tractin##
##ubordin##
##umulati##
##uncompl##
##unconce##
##unconve##
##urrecti##
##ventila##
##victori##
##washing##
##ytholog##
##-bearde##
##-bearer##
##aborate##
##activel##
##aggerat##
##aggrega##
##anising##
##anticon##
##aphrodi##
##arthrit##
##asserti##
##ategori##
##avicula##
##brachia##
##brachyc##
##branche##
##breedin##
##cardiog##
##climato##
##convict##
##degener##
##depreci##
##dinatio##
##ducible##
##easonab##
##ectuali##
##eculati##
##egative##
##egitima##
##eheaded##
##eistica##
##elligen##
##embryon##
##entaria##
##eprecia##
##eptiona##
##eristic##
##erminab##
##estable##
##evapora##
##geologi##
##haunted##
##helmint##
##hotomet##
##hropomo##
##iangula##
##iberate##
##ichotom##
##igraphi##
##ileness##
##inhibit##
##intensi##
##interdi##
##interpe##
##intrans##
##irrigat##
##issible##
##leaning##
##lectrod##
##lishnes##
##llegori##
##mathema##
##mations##
##microgr##
##moglobi##
##mongeri##
##mphasiz##
##mulativ##
##ncontem##
##ndiffer##
##nescent##
##niaceou##
##nishnes##
##nonconc##
##nonsens##
##ntaneou##
##ntermed##
##nucleat##
##nvestig##
##omplete##
##ontempo##
##oplasmi##
##opolita##
##ormativ##
##orrhoea##
##osphori##
##ounterf##
##ounteri##
##patient##
##perpetu##
##phologi##
##physici##
##pinnate##
##pressin##
##pseudoe##
##pulsive##
##quadrat##
##raining##
##rasitic##
##rcinoma##
##recover##
##ricultu##
##rochemi##
##rogenou##
##rthriti##
##scholas##
##seminat##
##sisting##
##skeleto##
##slipper##
##sophica##
##spectab##
##sthenia##
##stomata##
##strator##
##superca##
##supersa##
##talizin##
##termini##
##thylene##
##tialize##
##tifiabl##
##torment##
##trospec##
##tualist##
##uasi-pr##
##uncture##
##undersh##
##verable##
##y-heade##
##absolut##
##accinat##
##aceable##
##acement##
##activit##
##agnetis##
##amation##
##antagon##
##arliame##
##biology##
##ceptual##
##choceph##
##cholast##
##chromop##
##ciferou##
##consign##
##contras##
##conveni##
##cranial##
##culturi##
##dendron##
##descrip##
##designa##
##dialect##
##digitat##
##ealable##
##earance##
##ectedne##
##elative##
##elimina##
##ellated##
##empiric##
##enomena##
##entangl##
##enville##
##ercular##
##errogat##
##estigat##
##exagger##
##exclusi##
##fruited##
##glandul##
##graduat##
##guarant##
##half-co##
##hantasm##
##hloroph##
##hnesses##
##holasti##
##horizon##
##hunting##
##iculous##
##ielding##
##iflorou##
##ignment##
##iliatio##
##iniform##
##initiat##
##interde##
##intoxic##
##involve##
##le-mind##
##locatio##
##malacia##
##naphtha##
##natomic##
##neglect##
##nhabita##
##nifying##
##nominal##
##nostica##
##nourish##
##nterpro##
##ntinent##
##ntolera##
##ntracti##
##oagulat##
##obstruc##
##olastic##
##omalaci##
##ometers##
##ompetit##
##onablen##
##onfigur##
##ongerin##
##onsolid##
##opercul##
##opomorp##
##oppress##
##opulari##
##orograp##
##ortatio##
##oseness##
##overexp##
##parliam##
##pending##
##perinte##
##persuas##
##phthong##
##phylact##
##physico##
##pitalis##
##posteri##
##postula##
##ppendic##
##pseudog##
##publish##
##quentia##
##ralisti##
##ranspor##
##ratulat##
##recomme##
##reconst##
##registr##
##rilling##
##rimenta##
##rinkled##
##rlessne##
##rliamen##
##rnished##
##robiolo##
##ropomor##
##rticipa##
##seeking##
##sistent##
##sitivel##
##soldier##
##spanish##
##sponsib##
##ssionar##
##stomous##
##striali##
##structe##
##taminat##
##tangent##
##tatoria##
##tempori##
##tending##
##tentive##
##thermop##
##tigmati##
##tricity##
##trophot##
##turatio##
##ualisti##
##uasi-de##
##udicial##
##uminate##
##underse##
##upercon##
##upernat##
##urablen##
##urethro##
##uristic##
##uteness##
##valence##
##versive##
##viduali##
##western##
##xaggera##
##xternal##
##y-looki##
##-manner##
##-operat##
##-struck##
##-tipped##
##acceler##
##accessi##
##accompl##
##adulter##
##advanta##
##aginati##
##alytica##
##andibul##
##aniacal##
##animate##
##archies##
##ardiogr##
##assical##
##blingly##
##bordere##
##bulator##
##cablene##
##cademic##
##cativel##
##ceivabl##
##centesi##
##ceptibl##
##chronou##
##ciliate##
##conclud##
##conomic##
##consist##
##consola##
##creativ##
##cribing##
##cursive##
##defensi##
##dentifi##
##diousne##
##disturb##
##dvantag##
##dvertis##
##ecommen##
##efiniti##
##egregat##
##eholder##
##ellable##
##eminate##
##emperat##
##enarian##
##endothe##
##eorolog##
##equilib##
##eratene##
##erforat##
##ersuasi##
##feeding##
##filling##
##flatter##
##fortune##
##frontal##
##gastrop##
##ggregat##
##heterom##
##holding##
##hronous##
##humanis##
##hundred##
##icabili##
##icrogra##
##idently##
##ierarch##
##iminate##
##imulate##
##increas##
##inquisi##
##interch##
##intertr##
##isition##
##isticat##
##istrust##
##itously##
##justifi##
##lassica##
##lcoholi##
##licativ##
##litaria##
##mandibu##
##maniaca##
##masculi##
##miliari##
##n-proof##
##ncident##
##ncircum##
##ncommun##
##ncontin##
##ncontra##
##ncorrup##
##ncounte##
##negativ##
##neumati##
##nformat##
##niousne##
##njuncti##
##nmental##
##noscope##
##nquisit##
##ntagoni##
##ntangle##
##ntednes##
##nuclear##
##octrina##
##oentgen##
##olonial##
##onaliza##
##onaries##
##oplasma##
##opteran##
##orbital##
##orphosi##
##osporan##
##ounterb##
##oxidize##
##pacific##
##plankto##
##platoni##
##polariz##
##prejudi##
##provinc##
##pseudob##
##pseudol##
##ptivene##
##purpose##
##quadrup##
##quilibr##
##rculari##
##rdiogra##
##rebelli##
##recolle##
##rejudic##
##resente##
##retical##
##rianize##
##righten##
##roentge##
##ronomic##
##ronounc##
##rostrat##
##roversi##
##rthines##
##running##
##scribin##
##semipro##
##sensati##
##seudoco##
##sionall##
##sorrow-##
##ssemble##
##ssifica##
##sulphat##
##superab##
##teorolo##
##terogen##
##terrane##
##thicall##
##thirty-##
##three-s##
##thropic##
##tmental##
##togenou##
##trenche##
##trumpet##
##tualize##
##ublican##
##uisitio##
##unterre##
##utomati##
##valuati##
##vaporat##
##vindica##
##visiona##
##willing##
##world-d##
##xistent##
##ypograp##
##-bloode##
##-comple##
##-fronte##
##-fruite##
##-rooted##
##-souled##
##-topped##
##acanthi##
##affirma##
##aginous##
##allocat##
##anipula##
##anufact##
##ariacea##
##arising##
##asculin##
##asonabl##
##atation##
##atisfac##
##bdomina##
##cancell##
##capacit##
##capular##
##catechi##
##chlamyd##
##ciating##
##cientif##
##ciently##
##clesias##
##coincid##
##colonia##
##comment##
##compuls##
##concret##
##cortico##
##creatin##
##cryptog##
##dehydro##
##documen##
##draught##
##eatable##
##ectivis##
##efactio##
##eferent##
##elf-com##
##ellidae##
##ementar##
##enchant##
##endence##
##entenar##
##entless##
##ephalom##
##erchant##
##erculat##
##erinten##
##ermenta##
##errestr##
##estrial##
##formity##
##gedness##
##glossal##
##iastica##
##ibution##
##idealis##
##ientifi##
##imatolo##
##impregn##
##inducti##
##instrum##
##ion-pro##
##iotical##
##istocra##
##ithogra##
##ivision##
##kinesis##
##lankton##
##lastica##
##le-head##
##lender-##
##lesiast##
##leucocy##
##lf-cons##
##limenta##
##linatio##
##llitera##
##logized##
##lomorph##
##loplast##
##lowerin##
##lubrica##
##mablene##
##manipul##
##manufac##
##matopho##
##mbering##
##meningo##
##mention##
##mplexio##
##mputati##
##narchic##
##nchiata##
##ncontro##
##ndistin##
##nfedera##
##nspirin##
##nstrume##
##ntemper##
##nternat##
##ntiatio##
##ocating##
##ocative##
##ociatio##
##ocument##
##ogramme##
##ologise##
##ombusti##
##omycosi##
##on-proo##
##ontempt##
##ophyllu##
##opriate##
##optimis##
##opulati##
##orializ##
##ornithi##
##orrecti##
##out-of-##
##ovision##
##parable##
##paradox##
##paralys##
##particu##
##pection##
##phoenic##
##phthisi##
##plexion##
##plicato##
##pollina##
##preside##
##propell##
##proprie##
##psychot##
##ractice##
##ransiti##
##ransmit##
##ranspla##
##regatio##
##remonst##
##reserve##
##resting##
##ributio##
##ricalne##
##ricatio##
##riminal##
##robatio##
##ropriet##
##satisfa##
##scented##
##secular##
##self-ad##
##strumen##
##summer-##
##superac##
##suspect##
##swallow##
##tainmen##
##tanical##
##tender-##
##tenosis##
##terlike##
##tiating##
##togenet##
##torines##
##trument##
##trusive##
##ttiness##
##tympani##
##ubricat##
##unctive##
##underli##
##upervis##
##urabili##
##utinati##
##velling##
##violet-##
##vouring##
##worthin##
##written##
##ynamics##
##ystallo##
##-haunte##
##-stitch##
##-veined##
##-wrough##
##accepta##
##alogica##
##ambitio##
##anchial##
##ansvers##
##anticip##
##arching##
##ardinal##
##arietal##
##asement##
##asi-com##
##atistic##
##atitudi##
##bastard##
##bjectio##
##bricati##
##ccompli##
##cedness##
##centena##
##changea##
##chicken##
##chromic##
##cinchon##
##ciproca##
##commens##
##complia##
##concern##
##configu##
##contrap##
##cortica##
##cracker##
##crimson##
##ctibili##
##ctually##
##dhearte##
##discuss##
##disposi##
##disputa##
##distort##
##divisio##
##dominat##
##eceptor##
##emption##
##ensurab##
##enterta##
##eprehen##
##erednes##
##erially##
##erostom##
##esomene##
##especta##
##ettered##
##eucocyt##
##explain##
##ffected##
##ffectio##
##filtrat##
##flower-##
##foreign##
##foresta##
##ghtened##
##gistrat##
##gitatio##
##glyceri##
##gregari##
##hangeab##
##hypophy##
##icalize##
##iciency##
##illusio##
##imperso##
##inspiri##
##interca##
##intersp##
##iomorph##
##iplomat##
##itualis##
##iversit##
##keleton##
##laminat##
##larizat##
##larized##
##leasing##
##lecting##
##ligible##
##lishing##
##lithogr##
##logizin##
##magnifi##
##mancipa##
##marriag##
##matizat##
##mentous##
##mistica##
##mperson##
##n-heade##
##nconfor##
##nderstr##
##neering##
##nematog##
##nharmon##
##noncorr##
##nscient##
##nterlin##
##nterpol##
##ntertai##
##nticipa##
##ntimoni##
##oclasti##
##odramat##
##oecious##
##ogizing##
##ognatho##
##omechan##
##omogene##
##onalise##
##ontrast##
##opsychi##
##oratori##
##orophyl##
##oroscop##
##ospital##
##osynthe##
##ountabl##
##pacious##
##pectora##
##perienc##
##permiss##
##persecu##
##phrenic##
##pishnes##
##premedi##
##provabl##
##quarrel##
##ranchio##
##reasure##
##recontr##
##reconve##
##requent##
##resolut##
##resumpt##
##rfishes##
##ributiv##
##rimeter##
##riologi##
##rnalize##
##rophore##
##rounded##
##rporate##
##rporati##
##rrelati##
##rrestri##
##rsensit##
##rtmenta##
##saurian##
##schemat##
##simulat##
##sograph##
##spectio##
##stigate##
##sulfuri##
##sulphid##
##sumptiv##
##supposi##
##technol##
##tennial##
##thermom##
##threate##
##tialnes##
##tinctiv##
##tionari##
##tisfact##
##tishnes##
##togenes##
##toplasm##
##tortion##
##tractab##
##trician##
##trophia##
##ttingly##
##tuousne##
##turable##
##turning##
##ualizat##
##ulphure##
##ureness##
##yticall##
##zabilit##
##-consci##
##-filled##
##-graine##
##-seemin##
##-soundi##
##accusto##
##achieve##
##achment##
##actable##
##actylou##
##agnosti##
##alpingo##
##aneousl##
##apprais##
##approac##
##ariidae##
##arteria##
##astrono##
##atorshi##
##attribu##
##baptist##
##capitul##
##ccustom##
##challen##
##cipitat##
##citizen##
##collegi##
##comorph##
##correla##
##ctioniz##
##ctorshi##
##ctylous##
##cyclope##
##depreca##
##diagram##
##dissolv##
##distrac##
##easurab##
##eatrica##
##ectness##
##ectrica##
##edicate##
##effecti##
##egistra##
##ematize##
##emophil##
##emunera##
##endorse##
##entiate##
##ercuria##
##erebral##
##erminal##
##erpetua##
##esiasti##
##executi##
##exploit##
##fibrill##
##ficativ##
##frighte##
##gelical##
##ghtenin##
##gitimat##
##glomera##
##halleng##
##hepherd##
##honical##
##housand##
##hreaten##
##htening##
##humaniz##
##ialised##
##iberati##
##icardia##
##ighteni##
##ilating##
##illenni##
##imating##
##imethyl##
##imoniou##
##importa##
##inately##
##inifero##
##iphenyl##
##irectio##
##isconti##
##ispensa##
##istract##
##isyllab##
##itousne##
##jectivi##
##junctio##
##lariace##
##lasting##
##latrous##
##lectomy##
##lecular##
##lerosis##
##liaceou##
##licious##
##litaris##
##llingly##
##lobular##
##lusivel##
##lusiven##
##meliora##
##millenn##
##mobiliz##
##monolog##
##mortgag##
##mothera##
##mousnes##
##mulated##
##mutatio##
##nativel##
##ncourag##
##ncreati##
##ncumber##
##ndibula##
##ndulgen##
##ngeable##
##ngement##
##nifican##
##ningnes##
##nisteri##
##nivorou##
##nizable##
##nliness##
##nnatura##
##nnesses##
##nogenes##
##nonsubs##
##nteract##
##ntercon##
##nthesis##
##nvenien##
##ocialis##
##ocution##
##oincide##
##olatili##
##olatrou##
##olecula##
##olymeri##
##omatosi##
##ometeor##
##omising##
##omphalo##
##omplain##
##onjugat##
##onnecte##
##ophagis##
##ophysis##
##opograp##
##ordinar##
##oriousl##
##ormable##
##orrelat##
##orthine##
##ostasis##
##ostulat##
##othermo##
##othorax##
##otrophy##
##ouldere##
##partite##
##patroni##
##periost##
##personi##
##pictori##
##pirator##
##pproach##
##predisp##
##propiti##
##proving##
##raphers##
##rcharge##
##reachin##
##remuner##
##reparat##
##replace##
##reserva##
##rganiza##
##rialise##
##ructure##
##satisfi##
##scently##
##secreta##
##sequest##
##shepher##
##siphona##
##slander##
##slaught##
##speckle##
##stellat##
##stemmed##
##stenosi##
##stockin##
##strepto##
##superre##
##suspici##
##sustain##
##tarines##
##tentiou##
##teously##
##terical##
##teritis##
##ternate##
##tertain##
##thousan##
##tivitie##
##tmaking##
##tothera##
##trachel##
##transmu##
##tructed##
##ttribut##
##tuality##
##tulatio##
##turaliz##
##twice-b##
##typogra##
##ubscrib##
##umptive##
##uperint##
##urchase##
##utograp##
##ventral##
##villain##
##vulcani##
##-seekin##
##addling##
##adiogra##
##admissi##
##affilia##
##ahedral##
##amalgam##
##andardi##
##anderin##
##anglion##
##aristoc##
##artheno##
##artisan##
##atement##
##aturate##
##aunting##
##believe##
##bibliop##
##bulatio##
##carboxy##
##ccipita##
##changin##
##charged##
##chistic##
##cholest##
##chronol##
##clerica##
##cleroti##
##cogitat##
##concess##
##concord##
##confine##
##congest##
##corpore##
##cross-b##
##ctionat##
##currenc##
##cushion##
##cytosis##
##dacious##
##decompo##
##descent##
##dictive##
##difying##
##dimenta##
##dissolu##
##ditione##
##dominal##
##e-hande##
##eberrie##
##eceptio##
##echnolo##
##ecializ##
##ecision##
##ecollec##
##ecompen##
##editati##
##efficie##
##efracti##
##eligion##
##entrica##
##eprecat##
##erebell##
##ernaliz##
##ernally##
##erology##
##escency##
##escentl##
##eserved##
##esistan##
##esticul##
##ethnolo##
##europea##
##examina##
##exercis##
##factori##
##felicit##
##ffectiv##
##ganizat##
##gationa##
##gellate##
##glacial##
##gulated##
##gumenta##
##hemoglo##
##hepatic##
##hinking##
##hometer##
##hondrom##
##husband##
##hyposta##
##ibutive##
##igmatic##
##ilingua##
##ilitate##
##immuniz##
##improve##
##inctive##
##inednes##
##isectio##
##isinter##
##itednes##
##killing##
##l-minde##
##lanchno##
##larynge##
##lationi##
##learned##
##lectros##
##limatol##
##liquida##
##llifero##
##luminou##
##manding##
##mantici##
##mestica##
##metapho##
##mistres##
##moraliz##
##mospher##
##mpregna##
##nalised##
##narchis##
##ncarnat##
##nclusiv##
##nconven##
##nfinite##
##nogenic##
##nomenal##
##nomorph##
##nothera##
##nscribe##
##nsiblen##
##nsitize##
##nsolida##
##nstrict##
##ntented##
##ntraliz##
##obenzen##
##ociolog##
##ocytosi##
##odicall##
##ointing##
##ombinat##
##omplica##
##onfeder##
##ongrega##
##onianis##
##oniousl##
##onogram##
##onvenie##
##ophetic##
##orbicul##
##ormalis##
##osphate##
##ostrate##
##ostroph##
##ounterd##
##palatin##
##paratio##
##pastora##
##pernatu##
##philism##
##postati##
##preconf##
##printin##
##protoco##
##prudent##
##quasi-g##
##quasi-t##
##quiesce##
##radiogr##
##ranched##
##reaming##
##recepto##
##redisco##
##rentiat##
##repetit##
##restora##
##reventi##
##riangul##
##ricated##
##riculat##
##rimetri##
##rinking##
##rinting##
##ripping##
##ristocr##
##rminabl##
##roblast##
##rocessi##
##ronolog##
##ropheti##
##rotesta##
##rphosis##
##rsement##
##scarlet##
##sciousn##
##scissor##
##shioned##
##short-s##
##sionism##
##sociate##
##sociolo##
##solidat##
##sparrow##
##spirato##
##steeple##
##sthenic##
##sticula##
##stigati##
##strateg##
##striped##
##stronom##
##submiss##
##suspens##
##syllogi##
##symphon##
##syndica##
##tabular##
##talisti##
##teriliz##
##terrest##
##thnolog##
##tholici##
##thopter##
##thropop##
##tipulat##
##tisatio##
##tonical##
##triangu##
##ualitie##
##uctiven##
##udinous##
##uncircu##
##undergr##
##uropean##
##uttered##
##viation##
##vicular##
##viscera##
##vulgari##
##whistle##
##xhausti##
##y-color##
##ylindri##
##-border##
##-branch##
##-breaki##
##-flowin##
##-letter##
##-should##
##-stemme##
##-stripe##
##abyrint##
##actioni##
##actuali##
##affecte##
##afflict##
##ailable##
##amygdal##
##androus##
##ansplan##
##antatio##
##aphthal##
##arnishe##
##binding##
##bolshev##
##bservan##
##byrinth##
##canonic##
##caustic##
##ccelera##
##ceiving##
##ciologi##
##circuma##
##cogniti##
##coloniz##
##compete##
##complem##
##constri##
##convuls##
##creatio##
##ctingly##
##ctitiou##
##ctrical##
##cularia##
##cylinde##
##dations##
##decahed##
##delegat##
##diaboli##
##dibilit##
##dishnes##
##ditoria##
##diverti##
##dwellin##
##e-foote##
##e-looki##
##ecompos##
##ectasia##
##ectrosc##
##ederati##
##efishes##
##ekeeper##
##elf-rep##
##ellulos##
##elopmen##
##emporan##
##endingl##
##ensuous##
##entered##
##entomol##
##ephalia##
##ephemer##
##equestr##
##equisit##
##erapist##
##erboard##
##ericani##
##erience##
##ermatop##
##ermitte##
##ernalis##
##erpreta##
##erythri##
##estrian##
##ethical##
##etizing##
##eutical##
##evision##
##explana##
##extingu##
##extrava##
##feminis##
##feudali##
##ffiliat##
##founder##
##freight##
##gastros##
##genical##
##genital##
##glement##
##glyphic##
##gnition##
##gradati##
##harvest##
##hierarc##
##hingnes##
##holeste##
##hronolo##
##hydrome##
##hyperbo##
##hyperco##
##idating##
##iloquen##
##immorta##
##inaceae##
##iniatur##
##iningly##
##insular##
##intende##
##interma##
##ionarie##
##iothera##
##isingly##
##isposed##
##istered##
##istolog##
##ition's##
##ivalenc##
##labyrin##
##lerical##
##lf-cont##
##liturgi##
##lomerat##
##lopment##
##lostoma##
##ltation##
##meaning##
##memorat##
##mesmeri##
##metallo##
##metries##
##million##
##miniatu##
##mmering##
##mporane##
##mpositi##
##mptuous##
##nconsci##
##ncyclop##
##nescenc##
##netrati##
##nguishe##
##niversi##
##nometry##
##nonconv##
##norrhea##
##nrepres##
##nscende##
##nstrate##
##ntabili##
##ntering##
##nterior##
##nterloc##
##ntialis##
##ntivene##
##nvertib##
##ocarcin##
##ocellul##
##oculate##
##offensi##
##okinesi##
##olichoc##
##olshevi##
##ometabo##
##omizing##
##ommunis##
##ompleme##
##ongratu##
##onsubst##
##operito##
##orialis##
##ortione##
##oscilla##
##ostenos##
##otherma##
##otypica##
##ounting##
##overhea##
##paradis##
##paramet##
##parieta##
##partiti##
##patriar##
##pectabl##
##perator##
##periali##
##phthale##
##phthali##
##pleural##
##plicabl##
##pondent##
##preadin##
##prolifi##
##pseudon##
##quadric##
##quinone##
##quisite##
##rachyce##
##ranspar##
##rchestr##
##reacher##
##reative##
##recompe##
##redesti##
##requisi##
##retched##
##retract##
##rheumat##
##riodont##
##romancy##
##ronogra##
##rophysi##
##rossing##
##rovisio##
##rushing##
##sanctif##
##scopist##
##selecti##
##sensuou##
##serious##
##seventy##
##silveri##
##sitiven##
##spindle##
##sticism##
##stimate##
##storica##
##stresse##
##suffrag##
##superpo##
##swollen##
##symptom##
##synonym##
##syphili##
##t-minde##
##tantali##
##tatious##
##tercomm##
##terline##
##thinkin##
##thmical##
##ticized##
##tituted##
##tlement##
##tocking##
##tomized##
##traffic##
##travers##
##treason##
##tressed##
##trichin##
##tudinou##
##ualized##
##udation##
##uldered##
##ulturis##
##umentat##
##uncompa##
##undable##
##unself-##
##unsuper##
##untable##
##unterin##
##unterpr##
##uperind##
##urednes##
##urizati##
##utabili##
##utritio##
##utterin##
##vedness##
##velopme##
##versali##
##versifi##
##vertise##
##vitaliz##
##vitatio##
##well-in##
##wrinkle##
##xplanat##
##xtingui##
##ylation##
##ylinder##
##ymologi##
##zealous##
##-master##
##-rigged##
##-scente##
##-second##
##achroni##
##achycep##
##acquisi##
##actinom##
##advance##
##agnetiz##
##agnosis##
##agraphi##
##ambling##
##anarchi##
##ancipat##
##andedly##
##animous##
##announc##
##antasma##
##apitula##
##apostol##
##aringly##
##artific##
##assion-##
##astness##
##athedra##
##atorium##
##blastom##
##blement##
##bottome##
##brutali##
##builder##
##calvini##
##cardial##
##catalog##
##cathedr##
##chyceph##
##circumv##
##clerosi##
##closure##
##colloqu##
##complis##
##conclus##
##confede##
##contrar##
##corrobo##
##created##
##crospor##
##cross-f##
##cross-s##
##ctrosco##
##cumstan##
##cussion##
##cyanide##
##denatur##
##departm##
##dership##
##dicatin##
##dicular##
##digital##
##discoun##
##dressin##
##e-tongu##
##ecahedr##
##ectatio##
##ectedly##
##ectroly##
##ectrome##
##ecution##
##edestin##
##edition##
##ednesse##
##egister##
##egotiat##
##eighbor##
##elephan##
##emaster##
##ematogr##
##employe##
##enching##
##encoura##
##encyclo##
##endered##
##engthen##
##enounce##
##enteric##
##enteroc##
##entione##
##entrati##
##entricu##
##environ##
##eontolo##
##epalous##
##epartme##
##epositi##
##equivoc##
##ercharg##
##ergence##
##ernacul##
##erogene##
##erventi##
##erweigh##
##estward##
##etitive##
##exchang##
##ffering##
##ficiall##
##floccul##
##floweri##
##formist##
##fragmen##
##fulfill##
##gestive##
##ghteous##
##guistic##
##guratio##
##herapis##
##heredit##
##hilling##
##hlessne##
##hycepha##
##ialisin##
##icipati##
##idaceae##
##ighteou##
##imentar##
##inkling##
##intment##
##intuiti##
##ircumst##
##irritat##
##iscopal##
##isitive##
##italist##
##itarist##
##itizing##
##itudini##
##itudino##
##ivating##
##izingly##
##lancing##
##larness##
##lashing##
##latable##
##latiniz##
##lepidop##
##lindric##
##ll-like##
##llating##
##looming##
##ltering##
##mbroide##
##mediati##
##mendabl##
##metaphy##
##methyla##
##microbi##
##mmensur##
##modulat##
##mortali##
##mpetiti##
##mplacen##
##mulatin##
##musical##
##mycetes##
##n-color##
##n-faced##
##n-shape##
##ncompas##
##ndicula##
##nductiv##
##nergeti##
##nformal##
##nguisti##
##nicotin##
##nipulat##
##nnected##
##nondist##
##noplast##
##nsignif##
##nsinuat##
##nsplant##
##nsurabl##
##ntalism##
##nthrall##
##ntrical##
##nufactu##
##ochromo##
##ococcus##
##odiagno##
##oecolog##
##ogation##
##ographs##
##olicall##
##olizing##
##ollegia##
##onately##
##oncerti##
##oncessi##
##oncontr##
##ondensa##
##onomato##
##onounce##
##onstric##
##ontente##
##ophotom##
##opoliti##
##opteris##
##oralist##
##oralize##
##orrobor##
##ortunat##
##ospondy##
##osporou##
##otheist##
##ouble-s##
##ouncing##
##ournali##
##overdis##
##oxygena##
##parochi##
##percuss##
##pertine##
##phanero##
##phlegma##
##phonica##
##physial##
##picious##
##piniona##
##pondyli##
##pondylo##
##poratio##
##portati##
##pressor##
##proleta##
##prosecu##
##prosely##
##provisi##
##pulmona##
##pulsion##
##quasi-h##
##quivoca##
##ragment##
##raighte##
##rbicula##
##rbonate##
##rcement##
##rcumsta##
##reclaim##
##refresh##
##renchym##
##reprehe##
##righteo##
##rillian##
##riticis##
##rizable##
##rolific##
##rosecut##
##rostomy##
##rotherm##
##roviden##
##rthogra##
##rtifica##
##ruptive##
##rusting##
##schisto##
##schoolm##
##scontin##
##scutell##
##sepalou##
##sequenc##
##sertion##
##sianism##
##soluble##
##solvabl##
##sophago##
##souther##
##spiciou##
##spositi##
##ssingly##
##sterous##
##t-shape##
##tationi##
##tenance##
##teriori##
##teutoni##
##thalass##
##thearte##
##thfulne##
##ticizin##
##tleman-##
##tliness##
##tocepha##
##tologie##
##tolysis##
##tomolog##
##tralize##
##traumat##
##tretche##
##triotic##
##ttracti##
##uasi-ex##
##ucleate##
##ufactur##
##uisitiv##
##ularnes##
##undered##
##underre##
##upersen##
##upposit##
##upright##
##uralize##
##ustrate##
##vations##
##vigilan##
##whisper##
##world-a##
##wreathe##
##xanthin##
##yptogra##
##zoologi##
##-inspir##
##-string##
##-though##
##-throat##
##african##
##aliment##
##allowed##
##aluatio##
##analyze##
##angeabl##
##animali##
##anspare##
##anville##
##apillar##
##argumen##
##arthrop##
##ascerta##
##ashione##
##astigat##
##ativity##
##aturati##
##bedient##
##berculi##
##broken-##
##carious##
##carryin##
##cathart##
##ccasion##
##ccessor##
##ccipito##
##cending##
##chablen##
##chemati##
##chromos##
##chronog##
##cizatio##
##cleanin##
##commemo##
##compara##
##compell##
##comprom##
##concurr##
##congrat##
##congreg##
##converg##
##coopera##
##coralli##
##cosmopo##
##cquisit##
##crograp##
##d-heade##
##daughte##
##decepti##
##dectomi##
##delicat##
##derable##
##derivat##
##dichoto##
##diphthe##
##directe##
##directo##
##dissent##
##dontoid##
##eachabl##
##ecifica##
##ecretar##
##ection'##
##ectivit##
##eculari##
##ecutive##
##eferenc##
##egmenta##
##elicate##
##eligibl##
##ellipti##
##emented##
##endible##
##endocri##
##enicity##
##ensibly##
##entesis##
##entgeno##
##entranc##
##eractiv##
##eralist##
##ergetic##
##ermanen##
##ersecut##
##ersever##
##ertinen##
##esenter##
##estical##
##etarian##
##etching##
##ethodic##
##eventy-##
##facture##
##ferable##
##fervesc##
##ffensiv##
##finishe##
##flexion##
##frictio##
##gallant##
##generic##
##genicit##
##ghtless##
##ginatio##
##giously##
##gorical##
##granulo##
##grating##
##ground-##
##handedl##
##hispani##
##husiast##
##hyperse##
##iagnosi##
##icitous##
##iercing##
##iglotti##
##ignatio##
##ignifie##
##ilitati##
##illiont##
##imentat##
##imonial##
##inclusi##
##indepen##
##ing-out##
##intenti##
##invalid##
##ionatel##
##iphther##
##iquidat##
##itrogen##
##ivistic##
##jaculat##
##jeopard##
##l-heade##
##lachrym##
##lanting##
##leading##
##leheart##
##lenesse##
##lephant##
##liating##
##licatin##
##license##
##licitou##
##lighter##
##liminat##
##little-##
##llennia##
##llionth##
##lliptic##
##llowish##
##lometri##
##loratio##
##lorimet##
##ltiplic##
##lturist##
##luation##
##maceous##
##mantica##
##matizin##
##melling##
##miferou##
##mmortal##
##monical##
##munerat##
##nciatio##
##ncommen##
##ndently##
##neologi##
##nephrit##
##neumoni##
##nexpres##
##nherita##
##nipoten##
##noblast##
##nogenet##
##nondefe##
##nondisc##
##nonspec##
##noscopy##
##nsparen##
##ntestin##
##ntology##
##ntricul##
##o-opera##
##ocarpus##
##occasio##
##odontoi##
##ofessor##
##oflagel##
##ointmen##
##olester##
##olizati##
##omatoph##
##ommemor##
##ompassi##
##omplish##
##ompromi##
##onabili##
##onceptu##
##onconte##
##onsensi##
##opodium##
##oraneou##
##orthogr##
##osophis##
##ospermi##
##ospermo##
##ostraca##
##otrichi##
##ouble-b##
##ouching##
##oversta##
##ovincia##
##passing##
##peniten##
##petitiv##
##phoneti##
##phyllos##
##piercin##
##plurali##
##poiesis##
##poietic##
##polychr##
##pre-exp##
##precede##
##primiti##
##proacha##
##problem##
##procura##
##proxima##
##ptibili##
##puritan##
##ractabl##
##ransmut##
##raterni##
##reasona##
##registe##
##renceph##
##reograp##
##reposit##
##retenti##
##rgument##
##rializa##
##rinatio##
##roachab##
##rodynam##
##roelect##
##rofesso##
##rogenes##
##romagne##
##rometry##
##roselyt##
##rotechn##
##rovinci##
##rtebral##
##rtition##
##rumenta##
##salicyl##
##scendin##
##scertai##
##self-im##
##self-po##
##sensibl##
##shelter##
##sicknes##
##similar##
##sitions##
##slumber##
##spreadi##
##ssessed##
##ssessio##
##ssiness##
##stalliz##
##stednes##
##stershi##
##sticize##
##stracte##
##subsidi##
##superde##
##superma##
##supplic##
##talness##
##tangula##
##tellate##
##tenesse##
##termitt##
##ternall##
##terror-##
##testant##
##thfully##
##thritis##
##thropol##
##totroph##
##totropi##
##traitor##
##travel-##
##trolled##
##tropous##
##ttsvill##
##tudinar##
##twice-t##
##ubmissi##
##ularise##
##ulators##
##umbered##
##unctuat##
##underin##
##underta##
##uriousl##
##uthorit##
##vaginal##
##variant##
##yperbol##
##ypophys##
##accentu##
##ainting##
##alizabl##
##alkalin##
##alveola##
##amphith##
##anachro##
##analogi##
##analysi##
##aneousn##
##angioma##
##annibal##
##annihil##
##anologi##
##anthace##
##anthoph##
##antiati##
##aphoris##
##aphysic##
##approve##
##arboxyl##
##ariousn##
##aromati##
##artitio##
##asurabl##
##asyllab##
##atabili##
##attenti##
##autolog##
##blishme##
##calizat##
##caution##
##chancel##
##christe##
##cicatri##
##cipline##
##circumc##
##cognize##
##congres##
##conical##
##conject##
##consume##
##consump##
##contort##
##contriv##
##crooked##
##crutini##
##ctifica##
##ctualis##
##d-looki##
##decarbo##
##dectomy##
##defecti##
##diaphan##
##dicable##
##e-bound##
##e-taile##
##eaceous##
##easured##
##ebellio##
##ecessio##
##ectoral##
##egmatic##
##elf-pro##
##ematous##
##embrace##
##embroid##
##emigrat##
##eminati##
##emisphe##
##empest-##
##endency##
##enefici##
##energet##
##enlarge##
##enoidal##
##entacul##
##enthral##
##entiati##
##eorgani##
##epetiti##
##ephalis##
##ephriti##
##epiderm##
##epistol##
##erators##
##erently##
##erminis##
##erophil##
##erprodu##
##estment##
##etallic##
##etologi##
##euphemi##
##euphoni##
##exposit##
##fabrica##
##ffirmat##
##fighter##
##figured##
##fluores##
##fringed##
##gginess##
##ghtedne##
##gravita##
##habitat##
##habitua##
##halangi##
##half-in##
##heathen##
##hentica##
##heterod##
##hlorina##
##honogra##
##hroated##
##hrough-##
##htednes##
##hydroch##
##hydroly##
##iagraph##
##ialitie##
##ibrilla##
##icablen##
##icephal##
##ichroma##
##icising##
##ightedn##
##igorous##
##illable##
##imilati##
##ineness##
##inflati##
##ingling##
##inished##
##inoscop##
##insinua##
##insiste##
##install##
##interac##
##interne##
##ionably##
##ipinnat##
##ircumsp##
##irector##
##irmatio##
##ischarg##
##isomeri##
##itionar##
##itudina##
##izabili##
##judging##
##kedness##
##lamella##
##landers##
##lements##
##limbing##
##lington##
##litting##
##lobulin##
##lorophy##
##lymphan##
##mastica##
##matidae##
##melanch##
##merical##
##migrate##
##mispher##
##mometri##
##morphin##
##mplifie##
##mprovis##
##nalisin##
##nalysis##
##nceptua##
##nconstr##
##ndardiz##
##ndiscri##
##nductor##
##neglige##
##nflower##
##ngratul##
##ngulari##
##nicalne##
##nitroge##
##nobserv##
##noncond##
##nonexte##
##nonresi##
##nsumpti##
##ntarian##
##ntertra##
##obiotic##
##ocerati##
##of-the-##
##okineti##
##ollinat##
##omatolo##
##omputer##
##onalizi##
##onclusi##
##ondesce##
##oneural##
##onology##
##onomete##
##onsulta##
##onsumpt##
##ontesta##
##ooperat##
##opologi##
##opulate##
##oraceae##
##oraceou##
##orhynch##
##oscopis##
##osensit##
##osmopol##
##ostomou##
##otrache##
##ottomed##
##overnor##
##oxidati##
##pabilit##
##painted##
##palatal##
##parabol##
##parenta##
##pattern##
##pedagog##
##pensive##
##periphe##
##permane##
##persist##
##perspec##
##phasize##
##physiog##
##plagiar##
##planati##
##plaster##
##polaris##
##postoli##
##precati##
##precept##
##predest##
##prepare##
##priest-##
##pseudoi##
##pseudor##
##ptograp##
##pulveri##
##putable##
##quirrel##
##quivale##
##reactiv##
##redistr##
##resembl##
##resurre##
##rialism##
##roborat##
##rochrom##
##rogatio##
##rogator##
##roidere##
##rojecti##
##roletar##
##romatis##
##ropolog##
##rostral##
##rproduc##
##rsation##
##ryville##
##sceptib##
##scribbl##
##secrate##
##sepulch##
##sidenti##
##simeter##
##sinistr##
##smatica##
##smopoli##
##somatic##
##sphaero##
##squamos##
##squirre##
##ssioned##
##statist##
##stirrin##
##stratin##
##t-foote##
##teacher##
##teousne##
##terally##
##terling##
##termedi##
##terment##
##terrori##
##thalmia##
##thanato##
##thesize##
##three-c##
##throate##
##tilized##
##tillion##
##tion-pr##
##tirring##
##tochemi##
##tolerat##
##tomania##
##trigono##
##tringen##
##tuating##
##unconst##
##undatio##
##underbu##
##upplica##
##urnishe##
##usionis##
##vincial##
##vitalis##
##vocativ##
##volcani##
##walking##
##well-di##
##well-st##
##winding##
##wonder-##
##xygenat##
##ympathe##
##ymphang##
##ythmica##
##-destro##
##-direct##
##-giving##
##-of-the##
##-spread##
##abandon##
##abbling##
##acental##
##activen##
##adation##
##adenoma##
##aintain##
##allucin##
##alvinis##
##amphibi##
##anction##
##angible##
##anisati##
##anquill##
##ansmiss##
##ansmitt##
##antable##
##antipat##
##aphoric##
##apologi##
##aralysi##
##argenti##
##ariousl##
##arochia##
##arthrod##
##artiali##
##asiatic##
##astoral##
##astrolo##
##aterali##
##ateship##
##atharti##
##aticaln##
##atifica##
##atroniz##
##bellish##
##blemati##
##bottle-##
##brachio##
##brillia##
##calcare##
##camphor##
##capilla##
##captain##
##carbure##
##carnati##
##catcher##
##ccentua##
##ccessio##
##celesti##
##chanter##
##checker##
##chopath##
##christo##
##cillion##
##cinemat##
##ckiness##
##co-oper##
##colorat##
##commodi##
##commuta##
##complac##
##confoun##
##cracies##
##cretive##
##ctivist##
##ctualiz##
##decilli##
##delphia##
##denitis##
##dependa##
##dermati##
##deserve##
##detract##
##devouri##
##diferou##
##diminis##
##dischar##
##ducated##
##e-flowe##
##e-tooth##
##ecarbon##
##ecedent##
##ecillio##
##econstr##
##ectabil##
##ectoria##
##ederali##
##edeterm##
##editate##
##editori##
##egulate##
##egyptia##
##elatini##
##elievin##
##emancip##
##embarra##
##embrano##
##emonial##
##endicul##
##engrave##
##eningly##
##enogene##
##enology##
##ensione##
##ensuali##
##entalit##
##eoplast##
##eotropi##
##epiglot##
##erarchi##
##erciali##
##erebrat##
##erectom##
##eripher##
##ermomet##
##eroderm##
##esiolog##
##essable##
##esulfur##
##etaphys##
##eteroph##
##etymolo##
##evelopm##
##evourin##
##explosi##
##ffusive##
##fibrino##
##fibroma##
##folious##
##garnish##
##gesticu##
##glossat##
##glottic##
##gmentat##
##grading##
##hallow-##
##halluci##
##handled##
##hermome##
##hibitor##
##holders##
##hologiz##
##holster##
##hondros##
##hromoph##
##hybridi##
##ibratio##
##icientl##
##icizati##
##idolatr##
##ifoliat##
##iginous##
##iminish##
##impassi##
##implici##
##indigen##
##indness##
##ingless##
##inising##
##inophil##
##insulat##
##interin##
##interpl##
##interva##
##intimat##
##invigor##
##ipartit##
##ipation##
##ircumsc##
##isappro##
##isterin##
##kablene##
##lacemen##
##languag##
##laritie##
##lbumino##
##ldering##
##lianism##
##lieving##
##limitat##
##locutio##
##lorinat##
##lotting##
##loyment##
##luoresc##
##maginat##
##maintai##
##matogen##
##mbarras##
##mbellis##
##mediate##
##medical##
##medicin##
##megalop##
##menorrh##
##menstru##
##metrici##
##middle-##
##minates##
##misappr##
##mitatio##
##mmemora##
##mmendat##
##mophili##
##motropi##
##mpathet##
##mphangi##
##municip##
##nachron##
##ncomple##
##ncompli##
##ncurren##
##ndoctri##
##nductio##
##nexhaus##
##nfigura##
##nflamma##
##niformi##
##nlessne##
##nnihila##
##nnounce##
##nonsupp##
##nopolis##
##nresist##
##nstrain##
##ntality##
##ntennia##
##ntermit##
##ntomolo##
##ntrolle##
##nversat##
##oculati##
##oentero##
##oesopha##
##oglossi##
##oidecto##
##oiditis##
##oletari##
##olitici##
##olloqui##
##ologizi##
##olvable##
##omethan##
##omplace##
##onconve##
##ondense##
##ondroma##
##onfound##
##onifero##
##ontaine##
##onuclea##
##ophenol##
##ophobic##
##ophorus##
##ormalit##
##ormally##
##ossesse##
##osterio##
##otheriu##
##otomist##
##oundabl##
##overeig##
##overpre##
##overspe##
##pectina##
##pendicu##
##perspir##
##peutics##
##phalism##
##philipp##
##phtheri##
##platitu##
##plausib##
##plomati##
##polygon##
##pophyse##
##postero##
##potheca##
##pounder##
##ppiness##
##prelati##
##prepara##
##presump##
##printed##
##prising##
##prognos##
##protrac##
##ptimist##
##ptionis##
##racking##
##ransmis##
##rapture##
##ravitat##
##rbitrat##
##rceptiv##
##rchange##
##rcurial##
##reconte##
##rectomi##
##redeter##
##reditab##
##reoccup##
##rescrip##
##restria##
##retrogr##
##rfectio##
##ributor##
##ricious##
##riginat##
##rismati##
##riticiz##
##rmalize##
##rochlor##
##ropathy##
##rophyte##
##ropolit##
##rregula##
##rrowing##
##rtional##
##rtunate##
##rustful##
##sanctio##
##scourag##
##scribab##
##scrupul##
##sectari##
##self-op##
##septate##
##sheathe##
##shiness##
##shining##
##shnesse##
##sifying##
##signati##
##simplif##
##sistant##
##smograp##
##sociabl##
##solatio##
##solidif##
##sophage##
##soverei##
##spatter##
##ssion's##
##stfully##
##stifica##
##stimati##
##summari##
##tabiliz##
##tagonis##
##taphysi##
##tchable##
##tegrati##
##telemet##
##telling##
##tentati##
##ternity##
##tervill##
##thimble##
##thorize##
##ticalit##
##tigator##
##tilagin##
##toleran##
##topogra##
##tributo##
##trictio##
##trifica##
##trogeni##
##truncat##
##trusion##
##tymolog##
##uasi-di##
##uctions##
##uivalen##
##undercl##
##undulat##
##unionis##
##urizing##
##validat##
##verbera##
##vercomp##
##vereign##
##vidence##
##vigorat##
##village##
##wardnes##
##wearing##
##westwar##
##wice-co##
##y-proof##
##ysville##
##zation'##
##-barred##
##-bitten##
##-colour##
##-corner##
##-examin##
##-harden##
##-speaki##
##-staine##
##-testin##
##-walled##
##-wheele##
##ablishm##
##aborati##
##abricat##
##abundan##
##accompa##
##achelor##
##acities##
##acramen##
##adjudic##
##advocat##
##akespea##
##alation##
##algebra##
##allogra##
##ammatis##
##amorous##
##anguage##
##animati##
##anthine##
##antiali##
##arburet##
##arginal##
##ariform##
##arithme##
##arsenic##
##artilag##
##aryngos##
##asi-int##
##asi-pro##
##asmatic##
##astrula##
##atisfie##
##attempt##
##auditor##
##babylon##
##barrass##
##bbiness##
##begotte##
##benevol##
##better-##
##blunder##
##bosomed##
##botanic##
##brahman##
##bristle##
##bscribe##
##bureauc##
##carditi##
##cartila##
##ccompan##
##cements##
##censori##
##centaur##
##centrif##
##cerebel##
##cervica##
##chabili##
##chatter##
##chestra##
##chology##
##chotomi##
##chrysop##
##cialnes##
##circled##
##circumf##
##ckering##
##coloure##
##comania##
##complim##
##coordin##
##corrosi##
##coverab##
##crament##
##ctorian##
##culptur##
##curtain##
##d-faced##
##daemoni##
##decimal##
##devotio##
##disguis##
##disrupt##
##divorce##
##djudica##
##dograph##
##drogeni##
##eadedly##
##eciatio##
##ectione##
##ectrici##
##ecumeni##
##edulous##
##effectu##
##egotten##
##ehensio##
##eivable##
##eliorat##
##ematolo##
##embelli##
##entenni##
##enthron##
##enturou##
##eometer##
##ephaloc##
##eposses##
##eptible##
##eraceae##
##erforma##
##ergener##
##eritabl##
##erivati##
##ermedia##
##ermined##
##ertical##
##erturba##
##essibil##
##estitut##
##esurrec##
##eternal##
##etherea##
##ethmoid##
##everent##
##evident##
##evotion##
##excelle##
##exioned##
##expedie##
##extempo##
##extermi##
##favored##
##ffectua##
##foolish##
##fraught##
##frustra##
##gastrul##
##gements##
##gmental##
##gnified##
##graphed##
##gyptian##
##hakespe##
##hension##
##heretic##
##hogenic##
##hometri##
##hotomic##
##houghte##
##hronogr##
##humeral##
##hyperca##
##iagramm##
##iceable##
##ichocep##
##icologi##
##idifica##
##idopter##
##ificant##
##iliated##
##ilingly##
##illator##
##illifor##
##imparti##
##imperat##
##implica##
##inaugur##
##inclina##
##incrust##
##inction##
##incture##
##inionat##
##interje##
##ionized##
##iscoura##
##ishingl##
##isional##
##ispatch##
##isposit##
##istenti##
##itholog##
##iticize##
##itterin##
##ituberc##
##iversif##
##ivilize##
##kespear##
##kingnes##
##knowing##
##knuckle##
##lagiari##
##landish##
##lativen##
##lculati##
##le-shap##
##lectivi##
##lexione##
##liaceae##
##ligence##
##lineari##
##lipping##
##llaceou##
##lliance##
##lomania##
##lsville##
##malgama##
##marble-##
##mbulato##
##metical##
##minally##
##mmodati##
##mphatic##
##mplimen##
##mpresse##
##mprison##
##myrmeco##
##n-heart##
##nacious##
##nalitie##
##namenta##
##ncrease##
##ndigest##
##ndocrin##
##nerable##
##nexpect##
##ngenera##
##nguisha##
##ninety-##
##nitiali##
##njectur##
##nomania##
##nondepr##
##nonical##
##nonrepr##
##nophile##
##nophili##
##norgani##
##nsancti##
##nsepara##
##ntablen##
##nternal##
##nthesiz##
##nthrone##
##ntrench##
##ntrospe##
##nturous##
##nvigora##
##oachabl##
##ocalize##
##ocardio##
##occiden##
##oenceph##
##officer##
##olograp##
##ommensu##
##omplian##
##omplime##
##omposed##
##onastic##
##onceive##
##onclude##
##oncurre##
##onfirma##
##onfisca##
##ongress##
##oniacea##
##oniousn##
##onisati##
##onjectu##
##onsiste##
##onspira##
##ontenti##
##ontermi##
##ontinuo##
##oordina##
##oothing##
##oparaly##
##operate##
##opithec##
##oplegia##
##opneumo##
##opoiesi##
##opoieti##
##oratory##
##orecept##
##oriousn##
##ormulat##
##orough-##
##ortgage##
##osiphon##
##otative##
##otempor##
##otestan##
##otometr##
##otomous##
##oughted##
##overint##
##overrea##
##pansion##
##paragra##
##pathoge##
##peacock##
##perfici##
##phonogr##
##photoch##
##phyllit##
##pidopte##
##piglott##
##pigment##
##pinning##
##planted##
##playing##
##pliment##
##ploymen##
##pointin##
##ponsibl##
##pregnat##
##preoccu##
##pretend##
##proctor##
##prospec##
##provoca##
##prussia##
##pseudod##
##pseudoh##
##psychia##
##psychog##
##publici##
##quadran##
##quasi-l##
##quasi-n##
##r-color##
##r-gener##
##ragraph##
##ralysis##
##reaucra##
##receden##
##recuper##
##redempt##
##regimen##
##rehears##
##rehouse##
##reposse##
##requenc##
##resenti##
##resolve##
##retriev##
##rfulnes##
##rheaded##
##ridicul##
##riginal##
##rimitiv##
##riptura##
##rnacula##
##rochial##
##rogativ##
##rogenit##
##ropitia##
##rotract##
##rterial##
##rtionat##
##rubber-##
##rufous-##
##ruminat##
##sacrame##
##satisfy##
##scholar##
##scriber##
##sculptu##
##sedimen##
##seismic##
##seudoan##
##seudomo##
##shakesp##
##shatter##
##siderit##
##singnes##
##spangle##
##sphaeri##
##spinous##
##sporidi##
##stening##
##stercor##
##stereop##
##stereos##
##sterior##
##sternum##
##sthesis##
##stinati##
##stocrat##
##stomati##
##stonish##
##strolog##
##subsist##
##sychopa##
##tabulat##
##tection##
##tectomy##
##terosto##
##testabl##
##thalmos##
##thetize##
##three-p##
##tifical##
##tificia##
##tigated##
##tigatio##
##tilizat##
##timatio##
##timber-##
##tinctio##
##tiplica##
##tivatin##
##tmaster##
##tonvill##
##topping##
##toscopy##
##treated##
##triloqu##
##trition##
##ttlemen##
##tualnes##
##tuitous##
##uasi-fa##
##uishabl##
##uitable##
##ulently##
##unching##
##unconfi##
##unconse##
##underca##
##undisco##
##unrepro##
##uperati##
##uperstr##
##urating##
##ureaucr##
##uriousn##
##usation##
##usiness##
##ussiani##
##varnish##
##ventive##
##venturo##
##versity##
##vertica##
##verting##
##vibrati##
##victual##
##vingnes##
##viousne##
##visuali##
##weeping##
##world-r##
##xchange##
##xhibiti##
##xpansio##
##xpedien##
##xtempor##
##xtermin##
##yllogis##
##ymphoni##
##zygomat##
##-banded##
##-decked##
##-devour##
##-feedin##
##-ground##
##-handle##
##-measur##
##-polish##
##-taught##
##ablishe##
##absorpt##
##accusat##
##acephal##
##adeniti##
##adequat##
##aggrava##
##agistra##
##agnific##
##ailment##
##alcareo##
##allenge##
##angemen##
##anometr##
##anonica##
##another##
##antithe##
##approba##
##arative##
##ardened##
##ariaceo##
##arianiz##
##arnatio##
##ascinat##
##aspirat##
##athogen##
##atinous##
##atising##
##atoscop##
##atrices##
##atricul##
##atrimon##
##atrophy##
##avation##
##babilit##
##bachelo##
##balloon##
##bargain##
##bending##
##bibliot##
##blowing##
##bnormal##
##bromide##
##cabinet##
##calcane##
##candesc##
##captiva##
##castell##
##cellate##
##centenn##
##cervico##
##chester##
##choolma##
##ciliati##
##citable##
##clamati##
##clement##
##clopedi##
##coccyge##
##coheren##
##collaps##
##colonis##
##comical##
##compart##
##computa##
##constra##
##contagi##
##cordant##
##cordial##
##cornere##
##costate##
##countab##
##credita##
##ctivati##
##ctorate##
##cumscri##
##curious##
##cursion##
##darwini##
##declara##
##deflect##
##delinea##
##derogat##
##diffuse##
##disagre##
##discomm##
##dismiss##
##dosperm##
##e-crown##
##e-heart##
##eastern##
##eciativ##
##ectorat##
##ecupera##
##egressi##
##elancho##
##eleolog##
##eleuthe##
##ellaria##
##emascul##
##embling##
##emember##
##emergen##
##encumbe##
##enevole##
##enheart##
##enizati##
##enopter##
##entical##
##entment##
##entrifu##
##equence##
##eraceou##
##eredita##
##erempha##
##eriform##
##erpenti##
##ersburg##
##eservat##
##eservin##
##estinat##
##esumpti##
##eticula##
##evelope##
##excitab##
##factory##
##fascina##
##fecting##
##feeling##
##feminin##
##ffusion##
##financi##
##flutter##
##gatheri##
##gencies##
##gentle-##
##giousne##
##gitated##
##grindin##
##guishab##
##gularit##
##gulatin##
##hagocyt##
##handler##
##headedl##
##hemorrh##
##hesitat##
##hlegmat##
##hnograp##
##hodical##
##hodonti##
##honetic##
##hristen##
##humilia##
##hysteri##
##iamenta##
##ichloro##
##iciform##
##icropho##
##idednes##
##iential##
##ilagino##
##inchoni##
##incline##
##indiffe##
##inemato##
##inerali##
##ingitis##
##inology##
##inspire##
##instinc##
##intesti##
##introsp##
##inventi##
##iometry##
##iphthon##
##iptural##
##ipulati##
##irected##
##issiona##
##issions##
##ithelio##
##ithmeti##
##ittance##
##ittedne##
##jesuiti##
##justice##
##lanchol##
##larizin##
##lectrog##
##lenticu##
##leproof##
##licable##
##lichoce##
##licitat##
##ligatio##
##llaceae##
##llusive##
##loading##
##luoride##
##magistr##
##marking##
##medicat##
##melodra##
##melting##
##meratio##
##mnambul##
##modynam##
##mopolit##
##mpathiz##
##mpromis##
##mptious##
##nacular##
##nappreh##
##ndersto##
##ndingne##
##nectomy##
##nelectr##
##nerator##
##nevolen##
##nfirmat##
##nfluent##
##nformab##
##ngregat##
##nicipal##
##nishabl##
##nochrom##
##nondefi##
##nonpers##
##nonpres##
##nonprop##
##nosperm##
##nothing##
##nounced##
##nscienc##
##nsmissi##
##nstable##
##nstinct##
##nsuming##
##ntastic##
##ntenanc##
##nterjec##
##ntialne##
##ntioned##
##ntransp##
##ntrifug##
##occupat##
##occupie##
##ocracie##
##odontic##
##ogeolog##
##oglyphi##
##ohibiti##
##olaryng##
##olitico##
##olychro##
##omatize##
##ommitte##
##omnambu##
##omograp##
##ompeten##
##onating##
##onducto##
##onephri##
##onfessi##
##onstrai##
##opagand##
##oparasi##
##ophreni##
##ophysia##
##oplankt##
##opportu##
##orange-##
##orporea##
##orrhexi##
##orthopt##
##osculat##
##oskelet##
##ospinal##
##ostemon##
##otheism##
##othorac##
##ovement##
##overabl##
##overgra##
##paraphr##
##pasteur##
##pectrop##
##permati##
##perseve##
##pervers##
##phagocy##
##phanous##
##plantin##
##pleasin##
##poraneo##
##pportun##
##pprobat##
##pseudot##
##psychoa##
##putativ##
##quently##
##radicat##
##ralised##
##rameter##
##ratifie##
##ratoria##
##rcumscr##
##rdering##
##reinsta##
##related##
##remembe##
##renched##
##reorgan##
##reproof##
##respira##
##rientat##
##rincipl##
##rinding##
##rithmet##
##rmaster##
##rodonti##
##roduced##
##roenter##
##rogenet##
##roglyph##
##rognath##
##rognost##
##ropagan##
##ropelle##
##rophile##
##rotropi##
##rotuber##
##rough-s##
##rovable##
##rovocat##
##rpentin##
##rporeal##
##rradiat##
##rrobora##
##rrogati##
##rtifici##
##rtilize##
##sacerdo##
##satiric##
##schizop##
##scillat##
##scintil##
##scorpio##
##secrati##
##senteri##
##senting##
##sinuate##
##sionabl##
##sioning##
##sionles##
##smother##
##somnamb##
##spected##
##sphygmo##
##ssiblen##
##stament##
##steroid##
##stfulne##
##sthesio##
##stinate##
##straddl##
##strait-##
##stropho##
##studded##
##subcont##
##superhe##
##superim##
##surance##
##suscita##
##sweeten##
##synapti##
##t-heade##
##tallurg##
##taphori##
##tendenc##
##tensibl##
##tentacu##
##terchan##
##terject##
##thartic##
##theater##
##thereal##
##therian##
##thermog##
##thochro##
##thodica##
##tialist##
##tillati##
##timeter##
##tivisti##
##tochrom##
##tomizin##
##tonsill##
##tractil##
##trainin##
##transfi##
##transpi##
##trializ##
##trinitr##
##trophob##
##trophor##
##trother##
##ty-four##
##typhoid##
##ualifie##
##ualizin##
##uctiona##
##udicati##
##ulately##
##ulminat##
##umbilic##
##umspect##
##umulate##
##uncemen##
##uncompr##
##underbo##
##underdr##
##undersp##
##unequal##
##unicate##
##unicipa##
##upation##
##uperfic##
##uperimp##
##upholst##
##utilize##
##utocrat##
##valency##
##vegetat##
##venient##
##vercons##
##verinte##
##visible##
##vitamin##
##vituper##
##vocifer##
##volving##
##wice-pr##
##witness##
##world-p##
##xaminat##
##xclusiv##
##xercise##
##y-leave##
##ycloped##
##ypersen##
##ypnotiz##
##ypothec##
##bleness
##ization
##ousness
##tically
##ability
##iveness
##ication
##logical
##ologist
##iferous
##ography
##ingness
##tedness
##atively
##ational
##ibility
##essness
##ishness
##fulness
##graphic
##-shaped
##isation
##ination
##ulation
##tionist
##rically
##dedness
##gically
##calness
##ophobia
##-headed
##ionally
##alizing
##colored
##hically
##nically
##eration
##alistic
##hearted
##ilities
##genesis
##inesses
##-leaved
##ctively
##ometric
##enesses
##-minded
##aphical
##itation
##istical
##ateness
##grapher
##looking
##iaceous
##ogenous
##ulating
##escence
##ologies
##genetic
##mically
##rations
##alities
##ation's
##cations
##ciously
##inating
##tionary
##etrical
##snesses
##eringly
##ntation
##tations
##atingly
##alising
##morphic
##bearing
##manship
##riously
##-footed
##entness
##omatous
##lations
##erating
##therapy
##zations
##ctional
##entally
##icating
##matical
##mouthed
##tration
##erative
##rianism
##tiously
##icative
##berries
##culated
##-tailed
##oration
##redness
##iculate
##tometer
##-winged
##otropic
##torship
##oplasty
##pically
##nations
##logists
##oscopic
##ounding
##plastic
##sthesia
##ephalic
##ariness
##naceous
##ntially
##uration
##ishment
##erously
##ionless
##ialness
##llation
##rometer
##ttering
##mentary
##covered
##minated
##erville
##icality
##tionism
##-backed
##atorial
##-handed
##duction
##esville
##onalism
##onville
##raceous
##-haired
##ssively
##tongued
##trophic
##phagous
##rsville
##inative
##omeness
##phalous
##ifiable
##igerous
##itative
##itively
##ulatory
##ighting
##ivorous
##onistic
##ressive
##antness
##sionist
##-loving
##brained
##dically
##dnesses
##osition
##tnesses
##carpous
##itional
##-legged
##blastic
##orially
##orphism
##philous
##ulative
##nedness
##onality
##phorous
##ression
##crowned
##lically
##nometer
##nsville
##otomies
##lowered
##tropism
##ularity
##cutting
##onizing
##tifying
##tograph
##ciation
##ction's
##ctomies
##culture
##hyllous
##ionable
##itating
##laceous
##station
##taceous
##lection
##lnesses
##ocratic
##-billed
##nalized
##orphous
##emaking
##onalist
##pointed
##pterous
##reading
##rograph
##toothed
##ctivity
##mission
##ndering
##titious
##atching
##ilation
##nchiate
##orously
##ressing
##rrhaphy
##sedness
##-witted
##idation
##igation
##ndingly
##oducing
##riaceae
##anizing
##lighted
##athered
##cularly
##ections
##ledness
##ontidae
##roscope
##stering
##-bodied
##ainable
##elessly
##icolous
##ishable
##osaurus
##raphist
##rmation
##-coated
##forming
##ialized
##pirited
##artedly
##atology
##centric
##inously
##itarian
##ldehyde
##mometer
##omaniac
##osphere
##pressed
##ulously
##usively
##ectable
##ensible
##iations
##nsively
##olution
##raction
##ringing
##welling
##hemical
##igenous
##opathic
##osities
##utation
##angular
##ctation
##opodous
##rescent
##rrhagia
##ssional
##tioning
##version
##faction
##inizing
##lliform
##ophilic
##ptively
##tsville
##bellied
##ikeness
##olithic
##sionary
##sthetic
##thering
##wrought
##-necked
##arizing
##cephaly
##icatory
##lizable
##matosis
##raphies
##reaking
##-voiced
##atorily
##ceptive
##eathing
##endable
##growing
##indedly
##ingered
##iometer
##niaceae
##onation
##ophytic
##romatic
##scribed
##taining
##thiness
##turally
##xillary
##-ridden
##chingly
##ephalus
##erizing
##iparous
##orative
##rliness
##sically
##spotted
##ticness
##togenic
##trating
##uliform
##ception
##cheeked
##elation
##entable
##icizing
##imation
##ionists
##lateral
##lectric
##liation
##nishing
##orizing
##rolling
##ryngeal
##tiality
##ticular
##tricken
##benzene
##empered
##itioned
##ngering
##nianism
##ostatic
##reasted
##setting
##-making
##dynamic
##eaching
##etalous
##eyville
##oriness
##plicate
##ralized
##rogenic
##shingly
##talized
##ultural
##uscular
##working
##-driven
##attered
##clusion
##ductive
##ilizing
##iologic
##ivation
##nograph
##ntingly
##raising
##ralness
##skinned
##-lipped
##atizing
##caceous
##crested
##eatured
##emistry
##ference
##hanging
##iteness
##nathous
##ocation
##onalize
##orating
##ranchia
##rectomy
##tiation
##tologic
##dicated
##fashion
##gations
##iedness
##iformes
##imental
##lescent
##natured
##neously
##ratical
##riation
##testing
##arities
##erately
##flowing
##jointed
##ntative
##onising
##optosis
##ordered
##owering
##rifying
##terable
##tresses
##unction
##-eating
##-spoken
##-tinted
##astical
##atories
##ement's
##essions
##gastric
##icially
##icities
##idities
##jection
##keeping
##omantic
##ophoric
##pelling
##permous
##ractive
##sighted
##spheric
##stingly
##thology
##tlessly
##-formed
##-marked
##-roofed
##ahedron
##anistic
##bearded
##breaker
##clastic
##dential
##florous
##fronted
##idrosis
##imetric
##matized
##methane
##niously
##ricular
##section
##spiring
##utional
##-horned
##dsville
##fically
##hysical
##itorial
##lingual
##nscious
##ortable
##ription
##rtation
##rvation
##sternal
##strated
##torious
##toscope
##visaged
##writing
##-browed
##-yellow
##ainment
##annered
##arrying
##current
##enation
##ficient
##foliate
##hedness
##inatory
##ivities
##lometer
##minable
##nalness
##odontia
##olation
##ologize
##ophonic
##otactic
##peaking
##phyllum
##reathed
##roscopy
##sporous
##tometry
##trative
##tuously
##uilding
##urgical
##-limbed
##-ribbed
##actions
##ageable
##anthous
##cipital
##ctorial
##diously
##emporal
##lifying
##menting
##mycosis
##ochrome
##ophilia
##plasmic
##racting
##seeming
##siology
##stained
##talline
##tership
##therium
##y-faced
##-bright
##-flower
##amental
##anising
##ardness
##bration
##chiness
##dressed
##erproof
##essible
##general
##haunted
##hetical
##hloride
##hydrate
##icalism
##igating
##ilicate
##kinetic
##licated
##mations
##merican
##mitting
##mograph
##nsation
##ogamous
##otation
##reating
##rection
##selling
##taneous
##trained
##uminous
##ylamine
##yllabic
##biology
##blooded
##cardiac
##casting
##central
##daceous
##e-faced
##egation
##ellated
##enville
##eriness
##fruited
##ghtness
##grained
##hnesses
##ileness
##iniform
##llowing
##nifying
##ometers
##rapping
##reeding
##ruction
##serving
##stiness
##stomous
##ticated
##tricity
##ualness
##urement
##-bearer
##-struck
##-tipped
##aration
##blingly
##cribing
##dentate
##ectible
##eliness
##fection
##gration
##idently
##inement
##itously
##jective
##litical
##malacia
##n-proof
##ndation
##nership
##nologic
##noscope
##onaries
##opteran
##protein
##ropical
##thermal
##thermic
##tivated
##tracted
##-topped
##agement
##archies
##burning
##ciently
##clusive
##ellable
##ellidae
##emonger
##ficator
##gnostic
##isement
##kinesis
##logized
##ncement
##nchiata
##ropping
##scented
##seeking
##tenosis
##tionize
##urative
##written
##ynamics
##-veined
##cedness
##cession
##ctually
##dliness
##eflower
##erially
##feeding
##fitting
##formity
##iciency
##ificate
##larized
##leaning
##manlike
##minator
##missive
##netical
##ogistic
##ogizing
##oseness
##ositive
##posable
##raining
##rchical
##rfishes
##ritical
##sarcoma
##sthenia
##stomata
##tanding
##tention
##terlike
##ttingly
##-filled
##-souled
##anation
##angling
##ariidae
##arising
##cranial
##ctylous
##dendron
##diation
##drawing
##filling
##ialised
##inately
##iration
##lective
##lectomy
##llingly
##mulated
##natural
##nescent
##nnesses
##nsional
##ocating
##otrophy
##pending
##porting
##ptional
##raneous
##rmative
##rologic
##saurian
##scently
##stemmed
##tension
##teously
##teritis
##terless
##tionate
##tuality
##tuation
##-rooted
##achable
##anchial
##ciative
##cytosis
##ellular
##ernally
##erology
##ertible
##escency
##ettered
##gedness
##glossal
##gulated
##herical
##ielding
##iograph
##istence
##lerosis
##lishing
##nalised
##nomical
##oristic
##orrhoea
##pendent
##philism
##raphers
##ricated
##rilling
##rnation
##rphosis
##sisting
##tiating
##tmaking
##torical
##trophia
##typical
##ureless
##ureness
##uteness
##uttered
##aceable
##ammatic
##aniacal
##cephala
##charged
##ciating
##dations
##ectasia
##efishes
##estable
##gestion
##gnation
##hipping
##hologic
##idating
##ilating
##inaceae
##iningly
##isingly
##issible
##istance
##istered
##itching
##ition's
##lograph
##metries
##nizable
##nometry
##omizing
##ranched
##rential
##ristian
##rnished
##romancy
##running
##sionism
##striped
##surable
##thylene
##ticized
##tituted
##tomized
##turning
##ualized
##uldered
##vedness
##vouring
##ylation
##-rigged
##-second
##aginous
##agnosis
##ahedral
##andedly
##aringly
##athetic
##copical
##ctingly
##difying
##ducible
##ectedly
##emental
##endence
##endered
##entious
##epalous
##frontal
##hometer
##hunting
##ickness
##idaceae
##inistic
##itizing
##ivalent
##izingly
##larness
##lecting
##monious
##mycetes
##nliness
##ntalist
##nuclear
##ococcus
##ographs
##olizing
##onately
##ophysis
##othorax
##partite
##physial
##ptation
##rimeter
##rizable
##rostomy
##ruption
##shioned
##sianism
##ssingly
##tolysis
##ttiness
##turable
##ularize
##valence
##vations
##velling
##yllable
##agnetic
##arietal
##ascular
##ativity
##borough
##ceiving
##chromic
##enicity
##ensibly
##entesis
##entless
##ernment
##etizing
##fective
##ghtened
##giously
##holding
##horacic
##htening
##imating
##ivating
##lancing
##maceous
##mbering
##n-faced
##ndently
##noscopy
##ntalism
##ntology
##ocarpus
##ointing
##ophical
##opodium
##orbital
##organic
##ostasis
##poiesis
##politan
##quinone
##rdinate
##rinkled
##riptive
##ritable
##rometry
##scopist
##sitions
##sonable
##sticism
##talness
##thfully
##toblast
##tropous
##verable
##-tongue
##acement
##arching
##created
##dectomy
##e-bound
##eaceous
##ealable
##ectness
##egative
##ematous
##endency
##ephalon
##erently
##etation
##fringed
##heistic
##hroated
##ing-out
##ionably
##itution
##landers
##lements
##ll-like
##matidae
##neering
##ntalize
##ntering
##oraceae
##ormable
##ottomed
##ouncing
##pinnate
##pleural
##poietic
##rianize
##ryville
##science
##tending
##terally
##thritis
##tilized
##tuating
##ulators
##umption
##-german
##-giving
##actable
##androus
##anville
##aristic
##arriage
##cracies
##cyanide
##diction
##emented
##eningly
##enoidal
##entered
##ephalia
##figured
##fluence
##gellate
##handled
##iercing
##ignment
##illable
##killing
##lianism
##llating
##melling
##minates
##nalysis
##ntality
##ocardia
##oiditis
##onology
##ophorus
##ormally
##peutics
##phalism
##printed
##romania
##ropathy
##rostral
##rsement
##ructive
##rushing
##sifying
##simeter
##ssion's
##sterial
##stfully
##tomatic
##tomical
##tressed
##trolled
##uctions
##udation
##undable
##undered
##urizing
##utative
##vention
##y-proof
##ysville
##-barred
##-walled
##acities
##binding
##blement
##bosomed
##cements
##chistic
##chology
##cialize
##circled
##denitis
##dership
##eadedly
##earance
##eatable
##eholder
##enching
##enology
##enteric
##eraceae
##erators
##estrial
##exioned
##folious
##gements
##glement
##graphed
##grating
##hanical
##hinking
##icising
##ilingly
##ineness
##inished
##inising
##ionized
##lanting
##latrous
##leasing
##liaceae
##liating
##limbing
##loquent
##lsville
##ltation
##lturist
##mentous
##minally
##ngeable
##nsitive
##nthesis
##oplegia
##otomist
##ounting
##planted
##proving
##ralysis
##reaming
##rialism
##rialize
##riction
##rinking
##rinting
##rophyte
##rounded
##russian
##service
##shiness
##tectomy
##tential
##ternity
##toscopy
##treated
##tructed
##ulently
##umbered
##uncture
##urating
##-banded
##-bitten
##-decked
##-taught
##achment
##actical
##aculate
##ainting
##amation
##anthine
##astness
##atising
##atrices
##builder
##cardial
##ckiness
##dominal
##dontoid
##eheaded
##enchyma
##ersburg
##ffering
##gencies
##gginess
##glottic
##hronous
##icalize
##idental
##iliated
##ingitis
##inology
##iometry
##judging
##kedness
##lasting
##lecular
##leproof
##litting
##llaceae
##lotting
##ltering
##mastoid
##measure
##nectomy
##nogenic
##ntioned
##omising
##omorpha
##onating
##onymous
##ophobic
##osauria
##osphate
##oughted
##painted
##philist
##playing
##quently
##radiate
##ralised
##renched
##rophile
##rossing
##rtebral
##rusting
##rvative
##septate
##shining
##ssiness
##studded
##tchable
##telling
##thought
##tlement
##tliness
##ulately
##uminate
##uralist
##valency
##vicular
##wearing
##-beaten
##-heeled
##-hoofed
##-living
##-nerved
##ailable
##allowed
##archist
##ardened
##ateship
##atorium
##chnical
##ciality
##cologic
##costate
##dlessly
##easured
##ectasis
##elating
##eometer
##eptical
##erapist
##erebral
##essable
##facient
##ffected
##genital
##glacial
##glyphic
##gnition
##hematic
##iciform
##igently
##inarian
##indness
##ingling
##ismatic
##issions
##ivistic
##lankton
##latable
##learned
##leberry
##luoride
##medness
##ngulate
##nophile
##norrhea
##ntively
##ocystic
##oglobin
##olently
##onously
##ophenol
##oratory
##ospinal
##osporic
##otheism
##otional
##phenoid
##pillary
##ppiness
##present
##psychic
##ption's
##racious
##rbonate
##rcement
##rculate
##reation
##resting
##riality
##rnesses
##roduced
##rrhexis
##rsively
##rtingly
##scopies
##sements
##shments
##sioning
##sistent
##skirted
##ssessed
##ssioned
##sternum
##sthesis
##sticate
##sticity
##stively
##thropic
##throsis
##tirring
##trician
##trously
##uations
##udinous
##vaginal
##versive
##volving
##washing
##-master
##-washed
##addling
##ambling
##aminate
##andered
##aniline
##apeutic
##artered
##aryship
##asuring
##atement
##atrical
##bergite
##blished
##blowing
##bromide
##capular
##catcher
##chested
##closing
##clothes
##cretion
##ctomize
##ctories
##cturing
##dencies
##derable
##descent
##dibular
##dicable
##ducated
##ecology
##egotten
##enarian
##enating
##endible
##erality
##eratory
##erboard
##ercular
##erotomy
##etching
##eticism
##eumatic
##fecting
##ferring
##flation
##fyingly
##grading
##gularly
##hership
##ianized
##ibition
##ibution
##iculous
##iderite
##ifiedly
##inities
##inkling
##intment
##ipotent
##irected
##itivity
##ittable
##ldering
##ligible
##ligious
##llionth
##loading
##lossate
##melting
##ndicate
##nerated
##neville
##ngingly
##nounced
##nspired
##nsuming
##nthetic
##ocative
##oidered
##olating
##onidium
##ophagia
##opteris
##ornered
##ostrate
##ouching
##passing
##pective
##perfect
##physics
##pounder
##r-faced
##racking
##ramatic
##rcinoma
##rinated
##rinding
##ripping
##rrowing
##siastic
##sthenic
##talised
##tensive
##tfishes
##thalmia
##thiasis
##tigated
##tinated
##tolytic
##trapped
##ucation
##umbling
##untable
##uringly
##verting
##viation
##viously
##winding
##-capped
##-drying
##-fallen
##-finned
##-framed
##-moving
##-stitch
##alanced
##alatine
##antable
##antlike
##ariform
##atation
##bbiness
##bending
##brating
##chamber
##claimed
##ctioned
##culates
##d-faced
##dlingly
##egating
##emption
##english
##ensions
##eologic
##equency
##erfully
##ergence
##eriform
##eriidae
##eriodic
##eristic
##ersions
##ersonal
##ervical
##estment
##fraught
##gitated
##haceous
##harging
##hogenic
##humeral
##idizing
##inators
##ingless
##inister
##iringly
##istress
##knesses
##ksville
##lavored
##lington
##lmaking
##lobulin
##looming
##loyment
##marking
##masters
##metrist
##moscope
##nathism
##nceable
##nderous
##obation
##obiotic
##ocarpic
##odermic
##oloured
##omerism
##opteron
##phageal
##ppingly
##rdering
##ressure
##retched
##rialist
##riating
##rmatous
##rolysis
##rtioned
##schisis
##sertion
##swollen
##therian
##tialism
##tinized
##tomidae
##topping
##troying
##unching
##uristic
##urously
##utively
##variant
##walking
##yedness
##-beaked
##-bladed
##abolism
##agmatic
##aically
##akingly
##amatory
##anilide
##antship
##arditis
##arreled
##asement
##aticism
##atrophy
##beating
##bically
##bulated
##cardium
##cerated
##chemist
##cialist
##ckering
##closure
##cluding
##counter
##cterium
##ctility
##curring
##derless
##diaceae
##dromous
##eaction
##ector's
##ectoral
##elcosis
##entions
##entment
##erapies
##ermined
##erosity
##esomely
##etallic
##eurosis
##ferable
##flexion
##folding
##formist
##fullest
##gestive
##ghtedly
##glingly
##hension
##hythmic
##icators
##icoline
##ictions
##idified
##ightful
##igraphy
##illions
##imbered
##imistic
##inently
##inerved
##ipation
##isposed
##larised
##lashing
##leading
##lfishes
##lipping
##lisable
##llulose
##lmonary
##logised
##lphuric
##luation
##matised
##mometry
##mpering
##nalizes
##ngement
##ntiated
##nuously
##omatism
##onaceae
##oothing
##orships
##pathies
##pection
##peopled
##perated
##phology
##phrenic
##pulsion
##ramming
##ranging
##rangium
##rasitic
##rator's
##rmality
##rminate
##rtively
##ruptive
##session
##somatic
##spected
##spermic
##sphoric
##stomies
##surance
##t-faced
##tasting
##tchiest
##technic
##tennial
##terical
##teridae
##terment
##timeter
##tizable
##tocracy
##trified
##uential
##uitable
##ulosity
##ulphide
##unctive
##ventral
##vesical
##wheeled
##ymmetry
##ystitis
##-boring
##-broken
##-celled
##-strewn
##-taking
##alified
##amented
##anching
##andular
##aneness
##apsular
##asiatic
##aternal
##atified
##aughter
##aunting
##caudate
##cending
##cessive
##cketing
##ckville
##ctylism
##culator
##dgeable
##diating
##dometer
##earning
##easoned
##ekeeper
##elected
##elizing
##emaster
##enaries
##enerate
##entific
##eralism
##eralize
##erberry
##erences
##eserved
##ettable
##eutical
##factory
##fibroma
##fleshed
##ftiness
##getting
##gnetism
##gnified
##hearing
##hilling
##hograph
##holders
##hooting
##horesis
##hoscope
##hyllite
##ialists
##iatrics
##iberian
##icanism
##idingly
##iencies
##ificial
##ilative
##indling
##inville
##ionment
##ittedly
##ivision
##ixation
##kenness
##liantly
##lieving
##ligence
##lobular
##located
##locking
##locular
##lytical
##manhood
##mmering
##molysis
##morphae
##mounted
##nalists
##nerable
##nfishes
##nlessly
##nmaking
##nnected
##nomancy
##ntarily
##ntional
##obiosis
##ocyanic
##ogation
##ogising
##omorphy
##ophoria
##oracoid
##orology
##othecal
##otomous
##ovement
##patient
##perable
##phagist
##phonous
##physeal
##praised
##presses
##ptivity
##pulated
##pulsive
##quarter
##queness
##racheal
##radical
##rements
##retical
##ribable
##rington
##rlessly
##rmonger
##rtified
##sations
##scences
##senting
##servant
##shafted
##sionate
##smology
##soluble
##stating
##stified
##stology
##strator
##tanical
##teering
##tefully
##terated
##thartic
##through
##tiaceae
##tialize
##trality
##tterers
##tualism
##typhoid
##ublican
##uctible
##ulphate
##uralism
##visible
##ycetous
##ydrated
##yelitis
##-bottom
##abbling
##adiated
##adingly
##ailment
##algesia
##alizers
##aphobia
##armonic
##asmatic
##assable
##attling
##calized
##cephali
##ceville
##changed
##chordal
##cialism
##ciatory
##ciliate
##cinated
##citable
##ctivism
##dealing
##divided
##e-proof
##eatment
##eceptor
##echnics
##eighted
##elastic
##eltered
##ematics
##embling
##enously
##erantly
##erising
##ermanic
##erminal
##ertedly
##esented
##essibly
##estinal
##eteness
##etology
##fensive
##fighter
##flected
##ganized
##geously
##ginated
##glossia
##guarded
##guished
##hensive
##hnology
##icately
##iceable
##ificant
##ighters
##ilatory
##iliform
##illated
##ineless
##ionidae
##isional
##istency
##iterate
##ittered
##kinesia
##laiming
##lastoma
##leville
##liously
##malness
##mmetric
##mologic
##monical
##mpiness
##ncingly
##nderers
##nervate
##nferred
##nflower
##nkingly
##nolysis
##ntained
##ntarian
##ominate
##omycete
##oneural
##ophoran
##oplasma
##orising
##oscopes
##overing
##paneled
##parable
##phonate
##plicity
##portion
##powered
##pressor
##putable
##reality
##recting
##reezing
##reproof
##rheaded
##richous
##rophore
##rotting
##rowning
##rporate
##rseness
##rtained
##sailing
##scriber
##sential
##signing
##smitten
##someter
##ssation
##ssified
##stening
##stratus
##talizes
##tematic
##tencies
##thaceae
##tichous
##ticidal
##timated
##tuosity
##turated
##twardly
##ularian
##uropean
##ustered
##versely
##waisted
##warming
##willing
##wounded
quasi-##
pseudo##
counte##
twice-##
electr##
hetero##
world-##
noncon##
supers##
interc##
circum##
three-##
psycho##
unders##
double##
contra##
cross-##
precon##
self-c##
thermo##
self-d##
gastro##
palaeo##
yellow##
white-##
interp##
interm##
superc##
supera##
superi##
single##
nonpro##
inters##
overco##
quadri##
silver##
crypto##
self-a##
anthro##
well-c##
self-s##
short-##
stereo##
supere##
christ##
interl##
overst##
phosph##
water-##
well-s##
underc##
overpr##
transp##
noncom##
self-r##
sulpho##
interr##
cephal##
self-p##
microc##
uncont##
microp##
predis##
uncomp##
self-e##
self-i##
micros##
chloro##
well-a##
chondr##
nondis##
uncons##
smooth##
spirit##
hemato##
overde##
spring##
chromo##
phyllo##
tricho##
entero##
magnet##
underp##
actino##
nonper##
rough-##
school##
sclero##
thunde##
transf##
winter##
erythr##
hydrop##
ichthy##
multip##
straig##
uninte##
superp##
pneumo##
thick-##
transm##
underb##
bacter##
cardio##
overre##
black-##
hyperc##
intern##
light-##
overin##
biblio##
superf##
arthro##
intera##
antico##
intert##
strong##
pleuro##
dermat##
interf##
small-##
transc##
quarte##
semico##
butter##
gentle##
ornith##
well-d##
trache##
undert##
interv##
sperma##
brachy##
discon##
hydroc##
night-##
overse##
bronch##
nonint##
schizo##
branch##
hyster##
well-p##
commun##
crysta##
half-s##
ophtha##
overex##
quinqu##
spectr##
trans-##
incomp##
weathe##
well-f##
conver##
ground##
heart-##
saccha##
square##
summer##
well-b##
though##
hyperp##
sweet-##
close-##
megalo##
nonsub##
pre-ex##
triple##
tuberc##
underl##
arteri##
comple##
nephro##
xantho##
nontra##
odonto##
sharp-##
tender##
contin##
hypera##
hypers##
round-##
carbon##
nonpre##
nonres##
pharma##
well-r##
cerebr##
commen##
interd##
pharyn##
physio##
underg##
anthra##
chroma##
chryso##
forest##
laryng##
lympho##
middle##
organo##
procto##
subcon##
underf##
german##
microm##
precom##
half-c##
pneuma##
untran##
feathe##
antipa##
broad-##
chrono##
church##
green-##
metall##
physic##
underd##
constr##
genera##
haemat##
hepato##
overdi##
twelve##
conven##
hypoth##
mechan##
nondef##
quick-##
siphon##
tongue##
twenty##
unconc##
undisc##
blood-##
contem##
discom##
flower##
heaven##
hypert##
large-##
machin##
orthop##
photoc##
politi##
repres##
right-##
transi##
unconf##
anglo-##
galvan##
incons##
narrow##
neurop##
nonrep##
person##
sulphu##
superm##
supero##
candle##
direct##
embryo##
enceph##
golden##
nonrec##
presen##
preter##
acanth##
galact##
underr##
ureter##
ventri##
wonder##
horse-##
impres##
nonexp##
polyph##
uncomm##
copper##
glosso##
overla##
partic##
photos##
stone-##
substa##
sulpha##
superv##
underw##
acetyl##
charac##
cranio##
deuter##
extrac##
hyperm##
object##
parall##
priest##
recomp##
self-f##
superd##
unconv##
blasto##
dendro##
finger##
hypere##
multic##
multis##
oversp##
strang##
tempor##
transl##
compli##
first-##
metaph##
overbr##
overca##
overpo##
passio##
sorrow##
concer##
hydros##
kerato##
leathe##
melano##
philos##
photot##
predes##
protoc##
quadra##
seven-##
terror##
thorac##
well-t##
blepha##
dactyl##
hydrom##
master##
purple##
semi-i##
supern##
thorou##
travel##
antimo##
heavy-##
histor##
nonapp##
orange##
perfec##
photog##
recons##
univer##
urethr##
well-e##
compar##
cotton##
death-##
morpho##
nonext##
opisth##
organi##
overha##
prince##
protop##
sesqui##
stiff-##
timber##
append##
argent##
author##
classi##
compre##
cylind##
harmon##
litera##
needle##
paraph##
phanta##
second##
secret##
staphy##
bitter##
breast##
conduc##
homoeo##
improv##
intell##
intran##
nonimp##
overgr##
overso##
photop##
pre-en##
self-o##
shallo##
stomat##
system##
unrepr##
antime##
brachi##
epithe##
hypoph##
lepido##
macroc##
microb##
microg##
multif##
overfa##
plasmo##
rubber##
string##
tetrac##
unappr##
underm##
alkali##
antire##
aristo##
bottle##
chlori##
commis##
evange##
formul##
hydrog##
hyperd##
hypero##
instru##
miscon##
nonpar##
overdr##
profes##
reconc##
respon##
tetras##
unprop##
achrom##
chance##
congre##
discou##
french##
granul##
half-d##
immuno##
impers##
indivi##
intrac##
naphth##
never-##
phalan##
reform##
sangui##
self-t##
spheno##
supert##
termin##
transv##
bright##
collec##
coloni##
consum##
corpor##
disemb##
great-##
initia##
interi##
libera##
lichen##
meteor##
nondep##
nucleo##
photom##
pictur##
simple##
subter##
superg##
superr##
sympat##
theolo##
tropho##
undist##
well-l##
well-m##
amphib##
antiph##
archae##
centri##
cerato##
coffee##
common##
compos##
contro##
expres##
hammer##
imperi##
laparo##
loose-##
multil##
nonacc##
nondec##
overli##
overlo##
overmo##
parasi##
phlebo##
poster##
practi##
proto-##
saddle##
serpen##
sevent##
slende##
steel-##
synchr##
tetrap##
thread##
antipo##
antipr##
catech##
discre##
interg##
mother##
overma##
oversu##
preins##
promis##
quadru##
quanti##
regula##
smoke-##
sphaer##
spleno##
spongi##
subcom##
subjec##
syllab##
symbol##
violet##
well-i##
access##
animal##
battle##
circul##
contri##
decolo##
dehydr##
dextro##
disapp##
disper##
gelati##
half-r##
hyperb##
lympha##
mercur##
methyl##
monopo##
noncor##
overtr##
paper-##
paradi##
platin##
predic##
produc##
protec##
rattle##
revers##
semipr##
superb##
superh##
superl##
thromb##
uncorr##
unpers##
unself##
well-w##
automa##
conser##
consol##
distri##
dodeca##
entomo##
fiddle##
govern##
half-a##
hollow##
hypost##
letter##
little##
marble##
mening##
monoch##
nonass##
noninf##
nonsen##
overfl##
oversa##
parame##
pastor##
pigeon##
polych##
public##
self-b##
stomac##
strait##
theatr##
throug##
trigon##
ultra-##
undera##
unreve##
affect##
ammoni##
amphit##
barbar##
bridge##
button##
centra##
chlora##
consul##
franco##
half-b##
hypoch##
interj##
interw##
martin##
nectar##
orient##
overwe##
polari##
posses##
preven##
prophe##
somato##
trichi##
tympan##
tyrann##
undisp##
unexpe##
unreco##
well-h##
altern##
alumin##
capita##
cyclop##
disent##
experi##
extrav##
gangli##
humani##
indisc##
method##
misapp##
monoph##
nonfor##
oscill##
parent##
periph##
phytop##
planet##
ration##
retran##
script##
self-l##
self-m##
splanc##
still-##
tempes##
thirty##
troubl##
undere##
unprec##
unprov##
well-g##
window##
worse-##
americ##
concep##
consta##
crimin##
critic##
determ##
dispen##
extrap##
fantas##
formal##
macrop##
macros##
membra##
outsta##
overpl##
overth##
overti##
perist##
phreno##
prepar##
propag##
radiot##
reinte##
sancti##
self-w##
semide##
silico##
swift-##
tight-##
uncond##
advent##
antise##
dispos##
echino##
execut##
expedi##
federa##
glycer##
half-f##
hydrot##
hyperi##
import##
infini##
invent##
long-s##
modern##
multit##
orthog##
overac##
overme##
overpa##
oversh##
parthe##
patron##
presby##
preten##
recept##
reconf##
resist##
rhabdo##
self-g##
semina##
semire##
signif##
supple##
temper##
willow##
albumi##
alcoho##
anti-i##
centro##
civili##
clean-##
cloud-##
columb##
consti##
conten##
decomp##
differ##
extra-##
fluori##
incomm##
instit##
intere##
materi##
mercha##
milita##
mounta##
nongra##
nonrev##
observ##
overbo##
overcr##
overfe##
pectin##
period##
phenyl##
pleasa##
pleasu##
popula##
presup##
procur##
pyrami##
recomm##
salpin##
semipa##
specia##
stream##
tobacc##
tradit##
accept##
admini##
anchor##
antima##
backst##
better##
campan##
cellul##
chicke##
comman##
compan##
compla##
countr##
custom##
decarb##
disint##
dispro##
distin##
divers##
endoth##
honey-##
imagin##
insect##
invest##
leucoc##
martyr##
ostrac##
out-of##
overem##
overhe##
oyster##
pancre##
pepper##
perpet##
porphy##
predec##
preexp##
preind##
prepro##
profit##
rabbit##
ready-##
respec##
sabbat##
scratc##
semipe##
southe##
spermo##
spider##
succin##
sulfur##
syphil##
trench##
vaccin##
accomp##
anatom##
arbitr##
benefi##
calori##
carbur##
cholec##
clear-##
diamon##
dragon##
earth-##
esopha##
fracti##
ginger##
hibern##
hyperg##
illumi##
interb##
knight##
legiti##
liquid##
metal-##
minist##
multiv##
northe##
orthod##
overch##
overfr##
overim##
parrot##
plasti##
preacc##
prefer##
prospe##
reconv##
refrac##
saint-##
self-h##
sleep-##
solemn##
street##
subpro##
tranqu##
ultram##
underh##
unpres##
unsati##
unsupp##
vegeta##
woman-##
amphic##
antica##
barrel##
breath##
broken##
cervic##
cincho##
cooper##
cortic##
design##
distra##
duplic##
econom##
expect##
extern##
famili##
half-i##
half-m##
half-p##
hatche##
hydrol##
indige##
inform##
integr##
justic##
malaco##
muscul##
nemato##
nonsyn##
ordina##
philan##
plough##
powder##
precip##
procon##
reticu##
scatte##
schist##
separa##
sermon##
social##
spindl##
spondy##
sugar-##
switch##
theoph##
ultras##
wooden##
antiqu##
antist##
assert##
blackb##
brazen##
canoni##
cement##
chorio##
combin##
compen##
comput##
confer##
crossb##
dispar##
dolich##
dramat##
forty-##
hymeno##
induct##
intrap##
lamell##
mediat##
melodi##
memori##
microt##
neurot##
occipi##
offici##
operat##
overbu##
overcl##
overdo##
overle##
overri##
overta##
parcel##
pearl-##
perito##
petrol##
phenom##
postco##
potent##
proces##
prolog##
proton##
punctu##
reflec##
revolu##
semima##
shovel##
simpli##
steam-##
suppli##
synthe##
techni##
undefe##
undeli##
unprof##
virgin##
analog##
apolog##
apothe##
arseni##
brown-##
calcul##
carcin##
cardia##
cathol##
change##
cheese##
colour##
concre##
consen##
correc##
descen##
descri##
diphth##
disqui##
eccles##
etheri##
fluoro##
gyneco##
homoge##
hospit##
hydrox##
incorp##
inspir##
linear##
monkey##
nation##
neighb##
nonret##
omphal##
overpe##
pacifi##
parado##
perfor##
plagio##
pollin##
progra##
pteryg##
pulver##
relati##
religi##
restri##
rhynch##
scanda##
seismo##
select##
semian##
semidi##
sensat##
splend##
stigma##
suppos##
symphy##
toxico##
transa##
trumpe##
turtle##
uncirc##
unfore##
vesicu##
victor##
vulgar##
weight##
wester##
whole-##
academ##
androg##
antich##
belly-##
carpet##
column##
commer##
demons##
depart##
deprec##
diabol##
encycl##
episco##
fertil##
foresh##
fortun##
gramma##
grapho##
hundre##
intens##
margar##
medica##
nomina##
parson##
phaner##
photoe##
polyme##
presid##
propri##
recogn##
recont##
reinst##
reserv##
scarle##
shadow##
slight##
specif##
speech##
squamo##
sublim##
substr##
sugges##
surfac##
suspen##
tailor##
techno##
teleph##
theori##
throat##
transu##
triang##
vertic##
vulcan##
young-##
ambula##
anomal##
balsam##
brothe##
cardin##
cathar##
chatte##
chemic##
chromi##
concen##
conclu##
concor##
confes##
connec##
crooke##
dacryo##
demoni##
diffus##
dissen##
divert##
episto##
eulogi##
fellow##
femini##
fiery-##
fossil##
full-f##
garden##
half-t##
heathe##
hesper##
hispan##
homolo##
inconc##
incont##
incorr##
involu##
jacobi##
mangan##
minera##
necess##
nonabs##
noninc##
nonmet##
nonspe##
north-##
opposi##
orches##
osteop##
oversl##
papill##
parach##
pauper##
pedicu##
penetr##
perica##
perine##
philip##
phoeni##
ponder##
preach##
prepos##
questi##
record##
redist##
regist##
roentg##
septen##
shield##
signal##
soft-s##
standa##
starch##
strato##
streng##
subsid##
telegr##
thousa##
totali##
turbin##
unacco##
unexpl##
unimpr##
unpred##
unrest##
unsens##
unsupe##
vapour##
veratr##
verteb##
abstra##
amphis##
angeli##
anti-s##
anticl##
articu##
asteri##
auricu##
austra##
ballad##
beaver##
beggar##
calend##
cannon##
catalo##
chrysa##
clavic##
compet##
conjug##
corrup##
cyclos##
depres##
dialog##
discip##
disput##
effect##
except##
extras##
flagel##
frater##
gigant##
graphi##
microf##
monarc##
narcot##
natura##
necrop##
nickel##
ninety##
noncha##
nondet##
nonsec##
nonuni##
oblong##
orchid##
origin##
orthoc##
pentac##
preall##
prefor##
prison##
privat##
progre##
prosec##
prosta##
radiat##
reacti##
retrac##
sarcop##
scapul##
seleno##
semica##
sidero##
sinist##
snake-##
south-##
sterco##
sterno##
subtil##
suburb##
succes##
tabula##
tallow##
tantal##
thalam##
thalas##
transe##
transs##
trinit##
truth-##
under-##
underv##
unifor##
unintr##
unpart##
untemp##
ventro##
viscer##
volcan##
advert##
alphab##
alveol##
amygda##
antira##
archit##
attrac##
basket##
brahma##
calami##
cancel##
capsul##
center##
chaeto##
chambe##
chirop##
cloth-##
commit##
confor##
convol##
defini##
democr##
denatu##
discer##
discri##
emotio##
englis##
factor##
fashio##
fibrin##
formic##
full-b##
functi##
glauco##
hellen##
hypnot##
identi##
illust##
immort##
indian##
indica##
indust##
invert##
island##
journa##
lithop##
melani##
microd##
mispro##
monogr##
nonana##
noncol##
nondel##
nondia##
nonexc##
nonind##
nonins##
nonrea##
nonsta##
nonsup##
obscur##
oophor##
orthos##
overba##
overra##
oversc##
oversi##
panthe##
photod##
platyc##
polypo##
pre-em##
preint##
prerec##
presub##
princi##
protom##
protos##
rhombo##
salmon##
scient##
screen##
splash##
spread##
steepl##
strept##
subtra##
subver##
suprac##
tetrad##
thirst##
thyreo##
trochi##
typhlo##
ultrac##
unchar##
undete##
unstra##
velvet##
vermin##
vindic##
wander##
afters##
all-co##
ankylo##
antero##
anticr##
antith##
arachn##
associ##
basili##
bastar##
blenno##
bloods##
cicatr##
clothe##
coarse##
condit##
consig##
conspi##
corona##
decent##
desert##
dynami##
dynamo##
educat##
emblem##
euphem##
euphon##
examin##
exhibi##
extens##
false-##
fictio##
fright##
frost-##
geomet##
glass-##
globul##
gnatho##
habita##
helico##
heliot##
hepati##
high-s##
hippoc##
impart##
intero##
intros##
jargon##
locali##
magist##
metast##
moment##
myrmec##
neuros##
nitros##
nonequ##
nonthe##
obstru##
onomat##
outstr##
overcu##
overfo##
overge##
overho##
perspi##
persua##
pocket##
poison##
polysy##
positi##
preapp##
predel##
predet##
premed##
probat##
projec##
prolet##
propos##
protes##
protra##
radiol##
republ##
retroc##
schola##
scorpi##
sculpt##
shephe##
sickle##
slippe##
soldie##
squirr##
stimul##
subcla##
tartar##
tetram##
thanat##
therap##
trapez##
uncoll##
unequa##
unforg##
unperf##
unpros##
unrepe##
vapori##
vocali##
warran##
wither##
wrinkl##
actini##
adulte##
amphig##
antife##
antipe##
arithm##
bacill##
benedi##
bristl##
bronze##
bullet##
campho##
cancer##
cataph##
catego##
chalco##
checke##
cherry##
cinema##
climat##
collar##
collat##
colleg##
confid##
consci##
corall##
defect##
develo##
dictyo##
digest##
diplom##
dipter##
disaff##
dissim##
dissol##
duoden##
engine##
equili##
extrat##
feeble##
flame-##
flatte##
fluidi##
fresh-##
geront##
gorgon##
grass-##
half-l##
health##
impass##
impost##
infant##
inquis##
intend##
introd##
italia##
ivory-##
knuckl##
magnif##
mesmer##
metabo##
metrop##
minimi##
modera##
monotr##
multim##
neuroc##
nicoti##
nimble##
nondes##
nonent##
nonref##
nonrel##
nonver##
normal##
overte##
overto##
overwi##
pallad##
patter##
perios##
perisp##
pertur##
phrase##
pistol##
planta##
polyga##
precis##
precol##
prejud##
premon##
prosel##
prosop##
protot##
purpur##
quarre##
refere##
reflex##
romanc##
romant##
rufous##
rustic##
satisf##
schema##
scisso##
screw-##
semise##
sentim##
septem##
simula##
skelet##
sparro##
specta##
specul##
spiral##
sponge##
stabil##
stretc##
supras##
thimbl##
trauma##
tunnel##
unclea##
undefi##
undern##
unreli##
vitali##
whistl##
acclim##
accoun##
anhydr##
antilo##
antitr##
aphori##
assemb##
astrol##
attemp##
baptis##
brass-##
canker##
celebr##
chemos##
colloq##
conden##
contor##
cresce##
crimso##
cuckoo##
delphi##
depend##
destru##
distil##
doctor##
doctri##
epigra##
exempl##
exorci##
explic##
extrem##
fancy-##
fragme##
guaran##
heredi##
hierog##
hybrid##
inconv##
indigo##
infect##
insula##
irrita##
ischio##
kineto##
labyri##
leaden##
legisl##
length##
lithog##
lithot##
lumber##
manife##
manner##
margin##
matric##
microl##
millio##
nephel##
obliga##
orthot##
overne##
oxygen##
pagani##
pathog##
peacoc##
philo-##
predef##
presti##
pretra##
prolif##
protei##
pseuda##
psychi##
puzzle##
raptur##
reappr##
restor##
revere##
ribbon##
severa##
soleno##
sonnet##
spear-##
speckl##
sphygm##
state-##
stern-##
storm-##
subint##
sulphi##
sultan##
sympho##
tariff##
territ##
tonsil##
tormen##
traffi##
tragic##
unappe##
undece##
unimpe##
uninst##
unplea##
unprot##
unresi##
unresp##
unspec##
unstat##
vice-p##
vision##
wreath##
absent##
advers##
aeroph##
anarch##
anesth##
antido##
antino##
appeti##
attain##
autoco##
before##
bishop##
blanke##
canali##
capill##
castel##
chamae##
charge##
chemot##
chlamy##
coagul##
comfor##
compac##
confir##
conjun##
conson##
corres##
cosmop##
creati##
declar##
demono##
deposi##
diagra##
dichro##
disser##
elepha##
epider##
epiphy##
equivo##
expans##
extemp##
extrad##
falcon##
father##
fermen##
foster##
gaster##
granit##
gravel##
gynaec##
half-w##
high-c##
housew##
hypern##
ideali##
inappr##
indent##
inexpe##
influe##
inheri##
irreco##
lamina##
lexico##
marsha##
maxill##
measur##
melanc##
mellow##
metamo##
microe##
modula##
monoth##
morphi##
musico##
nitrog##
noncre##
nonele##
nonobs##
nonsol##
nonsym##
osteoc##
overab##
overgl##
overhu##
oversw##
pantom##
parabo##
patric##
pentad##
peridi##
phenol##
phlegm##
postma##
precor##
preimp##
pressu##
pro-ca##
profan##
pterop##
recipr##
reside##
respir##
restra##
retrog##
rhythm##
romani##
saturn##
scinti##
sectio##
semitr##
seques##
silici##
sophis##
sports##
squire##
steril##
strati##
stroph##
suffra##
symmet##
synony##
tangle##
tellur##
tetrag##
teuton##
thrill##
treasu##
umbell##
uncong##
undiff##
undiss##
unpara##
unstre##
unstri##
unsubs##
venera##
volati##
waterb##
waterl##
xenoph##
##ically##
##ograph##
##bility##
##edness##
##zation##
##izatio##
##leness##
##tional##
##usness##
##ousnes##
##abilit##
##blenes##
##ticall##
##ration##
##ologic##
##ations##
##quasi-##
##tation##
##cation##
##ablene##
##nesses##
##pseudo##
##counte##
##ogical##
##logica##
##ounter##
##nation##
##graphi##
##lation##
##tively##
##veness##
##ivenes##
##icatio##
##ationa##
##aceous##
##cephal##
##logist##
##stical##
##ologis##
##raphic##
##electr##
##ificat##
##ometer##
##ection##
##alness##
##iously##
##metric##
##iousne##
##ficati##
##twice-##
##ferous##
##iferou##
##istica##
##tivene##
##graphy##
##sation##
##lectro##
##ionist##
##atical##
##lizati##
##sville##
##headed##
##ngness##
##tednes##
##tionis##
##ingnes##
##inatio##
##rative##
##omorph##
##ionali##
##ession##
##ibilit##
##ometri##
##mental##
##ssness##
##listic##
##phical##
##shness##
##essnes##
##lessne##
##hetero##
##ativel##
##ulness##
##iation##
##fulnes##
##branch##
##flower##
##trical##
##tingly##
##lizing##
##culate##
##ishnes##
##ulatio##
##ential##
##hearte##
##lities##
##etical##
##lastic##
##rating##
##torial##
##minati##
##-shape##
##earted##
##unders##
##action##
##elling##
##isatio##
##psycho##
##shaped##
##lating##
##tative##
##world-##
##pressi##
##minded##
##noncon##
##alizat##
##alized##
##contra##
##phobia##
##ianism##
##tograp##
##ctiona##
##lement##
##struct##
##aphica##
##eather##
##eratio##
##ophobi##
##circum##
##ifying##
##iologi##
##making##
##morphi##
##ranchi##
##supers##
##anthro##
##interc##
##tering##
##alisti##
##teness##
##icular##
##tabili##
##onally##
##tion's##
##tologi##
##nizati##
##-heade##
##-minde##
##ephalo##
##nthrop##
##oplast##
##ective##
##escent##
##liness##
##matica##
##ulated##
##oscope##
##sively##
##plicat##
##dednes##
##termin##
##iculat##
##ricall##
##script##
##calnes##
##ogenic##
##onalis##
##gicall##
##thermo##
##ticula##
##entati##
##enetic##
##icalne##
##etrica##
##therap##
##three-##
##erable##
##positi##
##double##
##earing##
##genera##
##master##
##sivene##
##ionall##
##mation##
##spirit##
##alizin##
##colore##
##itatio##
##-color##
##gation##
##olored##
##lative##
##nating##
##minate##
##-faced##
##genous##
##nologi##
##nistic##
##nograp##
##rously##
##graphe##
##ringly##
##rologi##
##ocepha##
##hologi##
##phthal##
##nizing##
##chroma##
##acious##
##cross-##
##omania##
##ership##
##essive##
##ationi##
##interp##
##thetic##
##orship##
##christ##
##rizati##
##onical##
##rograp##
##yellow##
##hicall##
##lessly##
##nicall##
##ectomy##
##geneti##
##iaceae##
##morpho##
##othera##
##produc##
##omatic##
##self-c##
##illing##
##dactyl##
##dation##
##oblast##
##otropi##
##phosph##
##riness##
##rousne##
##ionary##
##ephali##
##ntatio##
##precon##
##iblene##
##genesi##
##ntness##
##sional##
##lingly##
##uction##
##ending##
##oscopi##
##sition##
##inated##
##ssiona##
##fishes##
##ncepha##
##cultur##
##culati##
##ometry##
##enceph##
##ermina##
##escenc##
##magnet##
##acteri##
##commun##
##gastro##
##resent##
##tropic##
##cative##
##ention##
##inters##
##hromat##
##rapher##
##interm##
##monger##
##ouble-##
##ension##
##eologi##
##iograp##
##itable##
##roscop##
##rizing##
##strati##
##ighted##
##trophi##
##ativen##
##chondr##
##enesis##
##dition##
##scence##
##tarian##
##entali##
##inable##
##inesse##
##ophili##
##tongue##
##cating##
##itical##
##ressio##
##presen##
##silver##
##-leave##
##ooking##
##ophyll##
##ristic##
##self-d##
##vation##
##itious##
##stitut##
##ulator##
##ilitie##
##matous##
##palaeo##
##tracti##
##icated##
##leaved##
##tiness##
##ishing##
##phyllo##
##transp##
##ogenes##
##prehen##
##tionar##
##lution##
##nville##
##iction##
##scopic##
##supera##
##thropo##
##atenes##
##superc##
##superi##
##anchia##
##licate##
##person##
##tholog##
##handed##
##white-##
##rained##
##sibili##
##ternal##
##ctivel##
##physic##
##cement##
##single##
##centri##
##culari##
##erativ##
##native##
##organi##
##plasti##
##chloro##
##enesse##
##tablen##
##ialize##
##itting##
##ochrom##
##olitic##
##ressiv##
##lising##
##logies##
##nalist##
##ogenet##
##terial##
##nction##
##ogenou##
##anship##
##bacter##
##contin##
##eating##
##ordina##
##carbon##
##ensive##
##interr##
##nonpro##
##ophysi##
##tribut##
##ulatin##
##ematic##
##inatin##
##ommuni##
##rabili##
##lookin##
##minist##
##olutio##
##sulpho##
##tructi##
##conver##
##erated##
##nalize##
##stereo##
##tifica##
##iating##
##nstruc##
##ophtha##
##overco##
##tempor##
##tology##
##izable##
##onable##
##spring##
##syllab##
##tomies##
##-looki##
##active##
##iaceou##
##mentar##
##ositio##
##temper##
##comple##
##itiona##
##odonti##
##ortion##
##quadri##
##rystal##
##amenta##
##centra##
##ermato##
##icator##
##ologie##
##rticul##
##asting##
##crysta##
##hthalm##
##interl##
##ission##
##liform##
##commen##
##crypto##
##ctions##
##elf-co##
##ements##
##ciousn##
##dering##
##imenta##
##gramma##
##micall##
##esthes##
##footed##
##self-s##
##stanti##
##string##
##biliti##
##entric##
##gressi##
##rough-##
##self-a##
##strate##
##tching##
##alised##
##alitie##
##erless##
##etting##
##litera##
##oratio##
##sthesi##
##tioned##
##tivity##
##tizati##
##mpress##
##tratio##
##eograp##
##ialist##
##ingle-##
##libera##
##mentat##
##ndedne##
##niform##
##stomat##
##licati##
##ocrati##
##onaliz##
##opical##
##well-c##
##arthro##
##astica##
##crimin##
##erical##
##micros##
##ation'##
##chromo##
##dermat##
##sclero##
##though##
##ciousl##
##direct##
##dynami##
##hought##
##lighte##
##atolog##
##iology##
##lectri##
##onless##
##orphic##
##oscopy##
##romati##
##school##
##transf##
##atoria##
##essing##
##eville##
##rescen##
##constr##
##short-##
##articu##
##ellow-##
##entero##
##eratin##
##ground##
##natura##
##shment##
##supere##
##classi##
##ionism##
##multip##
##ophore##
##urable##
##chlori##
##cratic##
##inator##
##pharyn##
##politi##
##respon##
##ressed##
##stroph##
##atural##
##chrono##
##icativ##
##lander##
##uation##
##vision##
##esting##
##mother##
##pneumo##
##repres##
##snesse##
##angula##
##cripti##
##easure##
##ecting##
##encies##
##ralize##
##-foote##
##enerat##
##eringl##
##format##
##missio##
##tailed##
##tating##
##uctive##
##aneous##
##onstra##
##smooth##
##static##
##ticism##
##tizing##
##tropho##
##dingly##
##ellate##
##icious##
##ionate##
##perati##
##sement##
##sitive##
##underc##
##voluti##
##aining##
##german##
##ichthy##
##ighten##
##nterco##
##olysis##
##otherm##
##sionis##
##eriali##
##erment##
##lograp##
##ornith##
##overst##
##regula##
##transm##
##water-##
##arious##
##compli##
##compre##
##ectomi##
##erlike##
##ferent##
##hemato##
##oplasm##
##rianis##
##alling##
##bearin##
##cardio##
##identi##
##manshi##
##ochemi##
##talize##
##tricho##
##ttered##
##well-s##
##atingl##
##biolog##
##ctioni##
##eading##
##finger##
##iality##
##ntrans##
##rablen##
##ractio##
##rement##
##self-r##
##ystall##
##alisin##
##consci##
##dicati##
##hospho##
##ishmen##
##nifica##
##ntable##
##omical##
##ominat##
##rimina##
##stable##
##sulphu##
##ulphur##
##utiona##
##cardia##
##emical##
##entral##
##imeter##
##inging##
##intell##
##mouthe##
##overpr##
##physio##
##quarte##
##rammat##
##rialis##
##riform##
##scribe##
##substa##
##uperin##
##atable##
##conven##
##critic##
##lisati##
##mechan##
##microc##
##noncom##
##rother##
##trache##
##tuberc##
##unctio##
##itativ##
##mologi##
##operat##
##reconc##
##rehens##
##bercul##
##bjecti##
##etermi##
##haryng##
##latory##
##llable##
##obranc##
##outhed##
##sperma##
##strict##
##agneti##
##ariani##
##corpor##
##enting##
##eption##
##lowing##
##nising##
##raight##
##straig##
##traigh##
##uratio##
##chemic##
##ensiti##
##erythr##
##microp##
##ntally##
##orious##
##self-p##
##ubercu##
##-hande##
##acanth##
##assion##
##dental##
##ductio##
##erator##
##ipping##
##matize##
##ndable##
##nology##
##nstitu##
##ostati##
##passio##
##phonic##
##predis##
##riousl##
##tially##
##tituti##
##uasi-c##
##ammati##
##determ##
##erries##
##intern##
##isable##
##nomina##
##nterpr##
##ointed##
##parent##
##portio##
##relati##
##rially##
##rising##
##transc##
##uarter##
##ubstan##
##uncont##
##anding##
##change##
##gmatic##
##harmon##
##hemati##
##lf-con##
##self-e##
##self-i##
##tterin##
##uncomp##
##-bound##
##contro##
##ehensi##
##entnes##
##hiness##
##hondro##
##illion##
##isting##
##nderst##
##osperm##
##practi##
##romete##
##sensit##
##utting##
##atured##
##ceptio##
##contem##
##ersion##
##ersona##
##monstr##
##ninter##
##ontemp##
##rminat##
##rogeni##
##unding##
##berrie##
##compos##
##entall##
##eously##
##hunder##
##icatin##
##iminat##
##instru##
##ionabl##
##metall##
##omatou##
##quisit##
##roduct##
##sphere##
##strain##
##terous##
##angeli##
##aryngo##
##eeding##
##expres##
##feathe##
##forest##
##herapy##
##holder##
##idness##
##llatio##
##ospher##
##secret##
##uncons##
##winged##
##xpress##
##arteri##
##breast##
##cologi##
##descen##
##ectric##
##ficien##
##gement##
##light-##
##lusion##
##ngular##
##ningly##
##owered##
##rdinat##
##strong##
##-proof##
##chroni##
##endent##
##evolut##
##geable##
##hyster##
##inking##
##odonto##
##ognath##
##oundin##
##overin##
##perfec##
##well-a##
##breath##
##creati##
##ctable##
##erfect##
##impres##
##ington##
##lectio##
##matolo##
##nalism##
##nondis##
##omancy##
##ophile##
##orical##
##servat##
##statio##
##ularly##
##winter##
##collec##
##eaking##
##educat##
##ervati##
##mantic##
##methyl##
##mograp##
##nality##
##odynam##
##ollect##
##ophagi##
##ounded##
##tantia##
##tender##
##underb##
##acchar##
##esthet##
##normal##
##opathy##
##ostoma##
##propri##
##rville##
##spectr##
##techni##
##thunde##
##underp##
##cerebr##
##conduc##
##iative##
##inativ##
##inting##
##lusive##
##merica##
##nerati##
##onogra##
##ormati##
##photog##
##rifica##
##-flowe##
##arines##
##armoni##
##charge##
##ctiven##
##elf-re##
##ensibl##
##epress##
##ficial##
##hristi##
##hydrop##
##ionize##
##istian##
##istori##
##opathi##
##ophyte##
##otroph##
##plasty##
##ptical##
##saccha##
##superf##
##tified##
##tistic##
##transi##
##unters##
##unting##
##anical##
##bstant##
##eneral##
##gentle##
##hingly##
##inding##
##inguis##
##iterat##
##mulati##
##ndicat##
##ntalis##
##ocking##
##onisti##
##overde##
##pteryg##
##riousn##
##rogram##
##rophil##
##ternat##
##tiousl##
##tomato##
##tomete##
##ulativ##
##-heart##
##apping##
##ceable##
##conten##
##dicate##
##empora##
##fectio##
##histor##
##ionles##
##lifero##
##nously##
##nuncia##
##ologiz##
##popula##
##ratory##
##recons##
##reform##
##thesia##
##torshi##
##ulture##
##-tongu##
##acking##
##bronch##
##chable##
##ctical##
##dendro##
##formed##
##govern##
##hydroc##
##interv##
##nabili##
##potent##
##ractic##
##rentia##
##ricula##
##rowing##
##stheti##
##sticat##
##utatio##
##actino##
##ashing##
##cessio##
##church##
##cident##
##ifiabl##
##interf##
##laryng##
##measur##
##nsible##
##ntermi##
##omanti##
##rednes##
##resses##
##ristia##
##seudo-##
##system##
##tibili##
##-beari##
##ementa##
##emonst##
##entary##
##eproof##
##fiable##
##icultu##
##jectiv##
##latera##
##meness##
##object##
##onomic##
##ontinu##
##ophago##
##orough##
##osophi##
##otical##
##ralist##
##siphon##
##stalli##
##titiou##
##uously##
##ynamic##
##-taile##
##-winge##
##bright##
##climat##
##depend##
##echani##
##erence##
##estion##
##hograp##
##maniac##
##ment's##
##nonper##
##philos##
##respec##
##seness##
##siolog##
##ssible##
##yllabi##
##ashion##
##author##
##backed##
##colour##
##consum##
##erenti##
##establ##
##fashio##
##itaria##
##kiness##
##nephro##
##ogloss##
##ophori##
##overed##
##promis##
##recomp##
##rializ##
##rtedne##
##scular##
##yville##
##cality##
##concer##
##mented##
##minous##
##ogramm##
##olytic##
##opping##
##otogra##
##phoric##
##square##
##stress##
##tentio##
##uousne##
##affect##
##americ##
##aminat##
##biblio##
##commis##
##ctoria##
##ianize##
##icable##
##ilosop##
##inistr##
##losoph##
##motion##
##pleuro##
##resist##
##spheri##
##tiousn##
##turali##
##uninte##
##weight##
##amorph##
##antico##
##brachy##
##eeping##
##eousne##
##indica##
##larity##
##nablen##
##ocentr##
##orrhea##
##posses##
##public##
##recept##
##round-##
##singly##
##superp##
##synthe##
##tening##
##tories##
##tution##
##unter-##
##witted##
##ateral##
##chthyo##
##gerous##
##hiloso##
##ightin##
##illary##
##intera##
##itutio##
##ndedly##
##onform##
##orator##
##osphor##
##ossess##
##ostomy##
##phalic##
##picall##
##rmatio##
##rology##
##rophic##
##social##
##talist##
##thered##
##trophy##
##ulariz##
##ultipl##
##acting##
##butter##
##diness##
##icking##
##itoria##
##lously##
##netica##
##obiolo##
##presse##
##radiat##
##thick-##
##ventio##
##ventur##
##-mouth##
##ailing##
##bridge##
##covere##
##discon##
##ductiv##
##ectrop##
##ghting##
##icalit##
##igraph##
##intert##
##logize##
##ogists##
##onstru##
##parasi##
##pathic##
##pharma##
##ractiv##
##specti##
##vorous##
##blasti##
##capita##
##dispos##
##ealing##
##echnic##
##elf-de##
##gregat##
##harmac##
##hering##
##ialism##
##mmunic##
##munica##
##naceou##
##ormali##
##overre##
##pheric##
##romato##
##scient##
##seudoc##
##ticaln##
##alisat##
##anizat##
##arasit##
##archic##
##black-##
##ciatio##
##eflect##
##efulne##
##hyperc##
##nchiat##
##ntiall##
##ticize##
##uasi-p##
##weathe##
##ateria##
##cellul##
##compen##
##elessn##
##factio##
##gating##
##glossa##
##hetica##
##ignifi##
##ioning##
##istrat##
##loving##
##materi##
##mbling##
##ndered##
##nifero##
##nostic##
##ocardi##
##onious##
##orphis##
##precia##
##second##
##sectio##
##seudos##
##spread##
##summer##
##thorac##
##aesthe##
##ceptiv##
##concil##
##distin##
##enness##
##ensati##
##hemist##
##larize##
##narchi##
##nching##
##nforma##
##onserv##
##ontrac##
##ppress##
##rowned##
##shable##
##umenta##
##undert##
##alizes##
##ambula##
##anting##
##asi-co##
##circul##
##coloni##
##efully##
##elatin##
##ervill##
##fracti##
##gistic##
##haired##
##iently##
##itated##
##migrat##
##milita##
##ntract##
##odacty##
##ontent##
##optero##
##overse##
##ponder##
##seudoa##
##sterin##
##tained##
##tition##
##urious##
##-built##
##-point##
##commod##
##differ##
##ducing##
##erousl##
##fferen##
##glutin##
##humani##
##ialnes##
##mistic##
##night-##
##ntiali##
##oelect##
##orpora##
##partic##
##pathol##
##pectro##
##pointe##
##punctu##
##rectio##
##right-##
##righte##
##sangui##
##ssocia##
##symmet##
##terior##
##versio##
##worker##
##aching##
##ainabl##
##curren##
##entari##
##erolog##
##gative##
##hemica##
##ivorou##
##keeper##
##lescen##
##letter##
##litari##
##narian##
##nterre##
##nventi##
##oducti##
##olling##
##ophora##
##profes##
##reside##
##rities##
##rofess##
##scious##
##siness##
##small-##
##stract##
##theist##
##tometr##
##transl##
##ularit##
##unterp##
##anized##
##anthra##
##cholog##
##connec##
##consol##
##dramat##
##embryo##
##entive##
##esenta##
##fertil##
##gnosti##
##hology##
##imulat##
##incomp##
##machin##
##nately##
##nguish##
##nished##
##nometr##
##oderma##
##onnect##
##onscio##
##ophone##
##perfor##
##semico##
##spirat##
##stered##
##actica##
##anging##
##distri##
##eering##
##experi##
##federa##
##formal##
##identa##
##iffere##
##ishabl##
##kingly##
##legged##
##nature##
##ncontr##
##neumat##
##nister##
##ocatio##
##ochlor##
##ocracy##
##onalit##
##onduct##
##ounder##
##penden##
##pneuma##
##ritual##
##sexual##
##tfulne##
##ymmetr##
##alists##
##ancing##
##atholo##
##brachi##
##center##
##chemis##
##conser##
##dentia##
##ectual##
##eprese##
##espect##
##espond##
##gnific##
##heolog##
##histic##
##hotogr##
##houses##
##indedn##
##ircula##
##jectio##
##latter##
##lousne##
##meteor##
##nderin##
##nstrat##
##olatry##
##permat##
##religi##
##satisf##
##seudop##
##tomize##
##ularia##
##ularis##
##uminat##
##uralis##
##urning##
##well-d##
##ancies##
##athere##
##confor##
##contri##
##domina##
##egener##
##ertain##
##factor##
##galvan##
##ighter##
##nition##
##omenes##
##onvill##
##otheca##
##pophys##
##protec##
##psychi##
##ratica##
##restri##
##rotect##
##schizo##
##siblen##
##sociat##
##spheno##
##tfully##
##thesis##
##uasi-i##
##-backe##
##anguin##
##ctivit##
##culous##
##eparat##
##iabili##
##icness##
##ilitar##
##lingua##
##mmatic##
##nivers##
##nterme##
##observ##
##oncont##
##onized##
##ophilo##
##orable##
##polari##
##ressin##
##stream##
##uasi-e##
##artedn##
##cially##
##condit##
##cylind##
##elatio##
##ennial##
##equent##
##eraliz##
##ercept##
##erness##
##gulate##
##hammer##
##igatio##
##ilver-##
##inform##
##inning##
##nonint##
##noscop##
##ntelle##
##numera##
##optera##
##phenyl##
##pirite##
##quinqu##
##raceou##
##reless##
##rnatio##
##rphism##
##rythro##
##strial##
##tioner##
##tnesse##
##ultura##
##unciat##
##valent##
##emaker##
##ircums##
##isteri##
##naphth##
##onolog##
##orient##
##ouring##
##procto##
##rested##
##rnitho##
##rtedly##
##ssioni##
##stimul##
##therin##
##thogra##
##thread##
##tiform##
##travel##
##trover##
##ualize##
##uasi-s##
##uperse##
##-haire##
##arynge##
##bation##
##chromi##
##cipita##
##design##
##effect##
##entate##
##eralis##
##erline##
##esvill##
##galact##
##hagous##
##irited##
##itions##
##lectiv##
##nement##
##nounce##
##nsciou##
##omolog##
##ongued##
##phagou##
##pposit##
##radica##
##ramati##
##rcular##
##rifero##
##rinkle##
##romant##
##ropism##
##signif##
##sisten##
##somene##
##thalmo##
##toscop##
##underl##
##uplica##
##vocati##
##well-p##
##braine##
##chment##
##common##
##compar##
##eabili##
##edicat##
##eptive##
##half-s##
##halous##
##hydrog##
##igerou##
##improv##
##itudin##
##lifica##
##nconve##
##neumon##
##nuclea##
##ogastr##
##olithi##
##onomet##
##ophoro##
##ophoto##
##oporti##
##opsych##
##orativ##
##ospore##
##overex##
##pering##
##plemen##
##probat##
##rators##
##reason##
##reciat##
##reserv##
##romani##
##rometr##
##rsonal##
##seless##
##sequen##
##ssivel##
##stigat##
##sympat##
##therma##
##tomati##
##torily##
##trans-##
##undere##
##well-f##
##-legge##
##-witte##
##astrop##
##atedne##
##calcul##
##catory##
##cerati##
##chrome##
##cialis##
##ddling##
##eligio##
##erousn##
##gingly##
##imperi##
##mative##
##nousne##
##omycet##
##onizat##
##onside##
##ophoni##
##orrect##
##parall##
##pitali##
##poster##
##priest##
##propor##
##raceae##
##readin##
##reness##
##rhythm##
##ributi##
##rophob##
##roport##
##rsvill##
##specif##
##terate##
##ticate##
##trated##
##tualis##
##uality##
##well-b##
##-house##
##atholi##
##descri##
##egulat##
##erican##
##figure##
##gastri##
##gelati##
##heart-##
##ilatio##
##integr##
##interd##
##itatin##
##metaph##
##naceae##
##ntolog##
##orrhag##
##perate##
##phalou##
##roduci##
##sities##
##smatic##
##sonant##
##sophis##
##specia##
##strang##
##thropi##
##timate##
##timber##
##tising##
##utable##
##xantho##
##-cover##
##-eared##
##angled##
##antnes##
##barbar##
##bricat##
##civili##
##consul##
##corrup##
##derati##
##ellect##
##erance##
##ernati##
##ertili##
##extrac##
##ffecti##
##functi##
##horous##
##hyperp##
##icidal##
##itivel##
##lumina##
##morali##
##nesthe##
##nisati##
##petiti##
##philis##
##photom##
##pre-ex##
##ricate##
##rocess##
##ropica##
##simila##
##sophag##
##spermo##
##terati##
##themat##
##tionab##
##trench##
##triple##
##tropis##
##uasi-d##
##uthori##
##antica##
##antici##
##bodied##
##cializ##
##cities##
##correc##
##custom##
##eablen##
##eature##
##endabl##
##eposit##
##execut##
##fellow##
##ferenc##
##flecti##
##granul##
##hedral##
##idatio##
##initia##
##lowere##
##megalo##
##nomete##
##nserva##
##orting##
##predic##
##rophyl##
##rought##
##sancti##
##sweet-##
##tangle##
##tellec##
##tician##
##tifyin##
##tresse##
##ustrat##
##ventri##
##ympath##
##acetyl##
##achrom##
##antimo##
##arding##
##atchin##
##atheri##
##axilla##
##charac##
##close-##
##consti##
##dently##
##discou##
##ell-co##
##iberat##
##ictori##
##imetri##
##infect##
##intere##
##invest##
##labili##
##mooth-##
##mulate##
##nditio##
##nonsub##
##nsider##
##ntical##
##ochron##
##omatop##
##ompens##
##ontrol##
##orrupt##
##ostomi##
##ostrac##
##otechn##
##otheri##
##pensat##
##proces##
##reacti##
##ructio##
##signat##
##sulfur##
##sychol##
##tactic##
##tentia##
##togene##
##toplas##
##-lovin##
##-nosed##
##-tooth##
##advent##
##alytic##
##aralle##
##athing##
##blasto##
##ciform##
##citati##
##cortic##
##crowne##
##ctible##
##dicall##
##dnesse##
##eation##
##ecepti##
##electi##
##enolog##
##ernali##
##espons##
##examin##
##expect##
##femini##
##hallow##
##hydrat##
##ifical##
##iversi##
##labora##
##latini##
##mption##
##nducti##
##odical##
##ommiss##
##oncert##
##onvers##
##opolit##
##ospect##
##otting##
##romorp##
##roplas##
##stemat##
##sulpha##
##thical##
##tivate##
##underf##
##ureter##
##vement##
##-crown##
##advert##
##alcula##
##arpous##
##asters##
##atedly##
##aughte##
##bitter##
##carpou##
##chical##
##demons##
##develo##
##ectabl##
##ecular##
##employ##
##ercula##
##evelop##
##fficie##
##flagel##
##hilous##
##hypoth##
##ilizat##
##imitat##
##inspir##
##istent##
##italiz##
##itione##
##lympho##
##method##
##microm##
##mpered##
##mprehe##
##naries##
##nconte##
##nontra##
##ntaliz##
##ntativ##
##offici##
##ommend##
##ompreh##
##onarch##
##onizin##
##ospori##
##otrich##
##oulder##
##penetr##
##placen##
##purple##
##rallel##
##rately##
##realis##
##rganiz##
##sentat##
##sharp-##
##stitch##
##strato##
##subjec##
##trichi##
##ubject##
##uggest##
##univer##
##untain##
##yingly##
##accept##
##actyli##
##adedne##
##admini##
##alysis##
##atogra##
##ator's##
##billed##
##clusiv##
##cuttin##
##digest##
##easing##
##ecessi##
##econom##
##ectivi##
##enteri##
##globul##
##heaven##
##hypera##
##hypers##
##import##
##iniste##
##iometr##
##lagell##
##luster##
##ncentr##
##neness##
##ontine##
##onvent##
##oothed##
##oriall##
##persua##
##philou##
##podous##
##pplica##
##raphis##
##reathe##
##recipi##
##saurus##
##sighte##
##spotte##
##talism##
##theolo##
##tinate##
##tinati##
##tionle##
##under-##
##unicat##
##unning##
##verpro##
##aborat##
##adjust##
##ammoni##
##antine##
##aristo##
##candle##
##chance##
##chryso##
##clothe##
##combin##
##consid##
##credit##
##derate##
##diffus##
##diment##
##eacher##
##eaning##
##endenc##
##ender-##
##enogra##
##entime##
##erapeu##
##erchan##
##famili##
##gering##
##gulati##
##hedron##
##hypert##
##iastic##
##iberal##
##icient##
##imagin##
##indust##
##linear##
##llecti##
##nednes##
##nsatio##
##nterpo##
##ocular##
##onatio##
##oncent##
##orthop##
##osauri##
##parous##
##perito##
##phorou##
##pograp##
##porous##
##putati##
##rality##
##ransmi##
##rculat##
##ringin##
##romanc##
##ropria##
##rostat##
##rrhaph##
##rtable##
##spoken##
##ssenti##
##stinct##
##subcon##
##sugges##
##sumpti##
##testin##
##timula##
##traine##
##turing##
##ualist##
##underg##
##vaccin##
##vative##
##vering##
##wice-s##
##-spiri##
##agraph##
##apital##
##append##
##armaco##
##arrow-##
##atcher##
##bearer##
##bottle##
##cienti##
##coated##
##cogniz##
##confid##
##ctuali##
##diogra##
##easant##
##educti##
##enetra##
##enical##
##esiden##
##ginous##
##handle##
##idence##
##ilized##
##lassic##
##licall##
##matism##
##ngling##
##nonpre##
##nonres##
##nsitiv##
##nspiri##
##nsvill##
##nterin##
##ntific##
##olding##
##omplex##
##onditi##
##opatho##
##orousn##
##orphou##
##orrhap##
##otomie##
##otoxin##
##pation##
##pecial##
##period##
##petalo##
##quadra##
##racter##
##raught##
##reflec##
##riment##
##rnment##
##rphous##
##steria##
##taceou##
##throat##
##tlessn##
##ulates##
##versal##
##well-r##
##ycholo##
##arness##
##associ##
##button##
##chanic##
##chiate##
##compan##
##compla##
##concen##
##dresse##
##duplic##
##ecolog##
##eistic##
##elf-di##
##entifi##
##enture##
##eriton##
##esopha##
##featur##
##gnatho##
##haemat##
##herape##
##indivi##
##juncti##
##leathe##
##lectua##
##lender##
##lently##
##lustra##
##mbered##
##metabo##
##middle##
##minato##
##muscul##
##narrow##
##ncompl##
##ndivid##
##ndustr##
##ntious##
##nucleo##
##onists##
##orated##
##organo##
##ought-##
##pecifi##
##praise##
##protei##
##racted##
##rectom##
##revers##
##roduce##
##rproof##
##rrecti##
##semina##
##separa##
##ssions##
##ssiven##
##stabli##
##superv##
##taphyl##
##thalam##
##tifero##
##tility##
##timent##
##tingui##
##tolera##
##tually##
##uinque##
##urally##
##wonder##
##worthy##
##-lined##
##access##
##alizer##
##assert##
##bottom##
##capsul##
##celess##
##compet##
##cterio##
##ctomie##
##cyclop##
##dating##
##dentat##
##eeming##
##elf-in##
##empera##
##erling##
##estati##
##father##
##fluori##
##formin##
##habita##
##hnolog##
##hyllou##
##ibranc##
##illati##
##iption##
##italis##
##itioni##
##laceou##
##lorous##
##manner##
##mediat##
##medica##
##membra##
##monopo##
##nogene##
##ogisti##
##onstit##
##onvert##
##ophist##
##oriali##
##orming##
##otiona##
##otypic##
##pillar##
##posing##
##preter##
##recogn##
##rophor##
##rospec##
##rostom##
##scende##
##seudom##
##specta##
##taneou##
##tement##
##theria##
##thless##
##tingne##
##torian##
##tradit##
##ughter##
##uperco##
##yllous##
##anders##
##anthus##
##arseni##
##asteri##
##attere##
##ction'##
##democr##
##ducati##
##ecious##
##ecogni##
##eferen##
##egatio##
##ellati##
##entabl##
##entiou##
##epithe##
##erebra##
##ersvil##
##ertebr##
##etabol##
##gnathi##
##golden##
##icardi##
##icolou##
##lected##
##llumin##
##lostom##
##mobili##
##modern##
##monarc##
##natory##
##nerali##
##nistra##
##ntenti##
##ondens##
##opolis##
##orange##
##ountai##
##oversi##
##pectin##
##potted##
##precom##
##proach##
##progra##
##prophe##
##rament##
##rapeut##
##recont##
##revolu##
##ritica##
##ropter##
##rporat##
##rrhagi##
##rtment##
##ssembl##
##stabil##
##stheni##
##synchr##
##tionat##
##tricul##
##verteb##
##ynchro##
##ystero##
##aldehy##
##antial##
##apeuti##
##arnish##
##asi-in##
##atomic##
##cathol##
##ciliat##
##comput##
##defini##
##discre##
##discri##
##drogen##
##eadedn##
##embran##
##eometr##
##erizat##
##erogen##
##escrib##
##gather##
##half-c##
##hysiol##
##knowle##
##ldehyd##
##lithic##
##mitted##
##mmetri##
##nerate##
##neurop##
##nfluen##
##ngered##
##nities##
##nitive##
##ntless##
##ntrove##
##ophyti##
##percep##
##phalan##
##phytic##
##piritu##
##ppoint##
##prepar##
##ressib##
##ridden##
##riptio##
##rogene##
##rostra##
##sident##
##sionar##
##sponde##
##stigma##
##tablis##
##thermi##
##toothe##
##uasi-a##
##ultiva##
##untera##
##untran##
##uscula##
##ustria##
##valenc##
##vangel##
##agging##
##appoin##
##argent##
##arized##
##atheti##
##atroph##
##concei##
##conden##
##consta##
##cumula##
##deprec##
##dminis##
##elight##
##emocra##
##evange##
##foliat##
##green-##
##hepato##
##inolog##
##iscrim##
##lamine##
##llectu##
##lnesse##
##ltural##
##matoph##
##nchron##
##nescen##
##nhabit##
##nophil##
##olical##
##ositiv##
##otatio##
##pacifi##
##perime##
##pictur##
##piness##
##pingly##
##reconf##
##rlines##
##rrying##
##rvatio##
##select##
##sifica##
##ssable##
##symbol##
##tainab##
##temati##
##terpre##
##ticipa##
##tilize##
##twenty##
##ypothe##
##-bille##
##-blind##
##ablish##
##agneto##
##albumi##
##alkali##
##antipa##
##archis##
##arming##
##atosis##
##broad-##
##ctatio##
##culato##
##discom##
##e-shap##
##emakin##
##eminat##
##entine##
##epende##
##ermine##
##escrip##
##ethane##
##expedi##
##formul##
##geogra##
##habili##
##hlorid##
##hysica##
##icalis##
##iliate##
##illumi##
##inally##
##inogen##
##invent##
##ivalen##
##judici##
##kinesi##
##llated##
##matist##
##mening##
##moniou##
##mounta##
##necked##
##ntegra##
##ominal##
##orking##
##orolog##
##overdi##
##pecula##
##phylli##
##pondyl##
##provin##
##ptible##
##rcepti##
##rgical##
##rhynch##
##rrupti##
##rubber##
##ructiv##
##salpin##
##scrimi##
##sorrow##
##spondy##
##standa##
##suffic##
##thorou##
##tivati##
##torium##
##trogra##
##underd##
##urethr##
##wester##
##ysical##
##achine##
##ameter##
##aphori##
##aracte##
##blepha##
##border##
##bulate##
##cently##
##copper##
##digita##
##dinate##
##dividu##
##dontid##
##e-mind##
##eliber##
##erabil##
##erably##
##ermani##
##essibl##
##extens##
##glosso##
##hospha##
##hypnot##
##ictive##
##inidae##
##interi##
##ivatio##
##laying##
##lector##
##lephar##
##lipped##
##lister##
##nephri##
##nowled##
##ntidae##
##ntiona##
##ontrad##
##opulat##
##orphyr##
##owledg##
##patter##
##people##
##perica##
##platin##
##porphy##
##preven##
##pterou##
##rebell##
##ricati##
##rtiona##
##russia##
##stance##
##stless##
##supern##
##terlin##
##tholic##
##titude##
##tomous##
##twelve##
##ushing##
##vertib##
##xation##
##agella##
##appreh##
##arboni##
##arizat##
##carcin##
##circle##
##commit##
##cresce##
##disper##
##ealist##
##eforma##
##enable##
##enunci##
##ermous##
##ervice##
##escend##
##estima##
##estria##
##etalli##
##etract##
##gently##
##haract##
##hibiti##
##horoug##
##ializa##
##incons##
##insula##
##istenc##
##itiven##
##litter##
##ll-con##
##maxill##
##mology##
##momete##
##mpensa##
##nemato##
##nlight##
##nondef##
##nother##
##nsibil##
##opriat##
##optery##
##ortabl##
##parati##
##photot##
##pprehe##
##quick-##
##ranspo##
##remedi##
##robati##
##rogati##
##rollin##
##rotomy##
##sednes##
##servic##
##shingl##
##stment##
##storic##
##tatory##
##theatr##
##tophor##
##tracte##
##uasi-r##
##uating##
##uisiti##
##umulat##
##unconc##
##undisc##
##vercon##
##wellin##
##ysiolo##
##ystema##
##amilia##
##anatom##
##animat##
##aphist##
##apophy##
##arable##
##ascula##
##barrel##
##bellie##
##blood-##
##canoni##
##cerato##
##clusio##
##colous##
##cotton##
##courag##
##diagno##
##dictio##
##difica##
##discip##
##e-head##
##eheart##
##empere##
##ersens##
##fessio##
##fortun##
##french##
##hypoph##
##iablen##
##iagnos##
##igator##
##igmati##
##illate##
##inizat##
##ipulat##
##istrib##
##kerato##
##laceae##
##large-##
##lbumin##
##liment##
##liquid##
##llabic##
##manage##
##margin##
##matogr##
##meters##
##ncompa##
##ncreat##
##nctive##
##nsubst##
##ntimon##
##ntradi##
##odynia##
##ommand##
##oncons##
##oninte##
##origin##
##orousl##
##partit##
##patron##
##peutic##
##photoc##
##photos##
##prince##
##provid##
##recomm##
##rhaphy##
##rienta##
##rified##
##ropath##
##rtatio##
##schola##
##ssibil##
##stretc##
##stribu##
##strick##
##terror##
##togeni##
##tretch##
##tricke##
##troubl##
##unconf##
##underw##
##xillar##
##-drive##
##acular##
##agglut##
##altern##
##anglo-##
##artial##
##assing##
##ather-##
##balanc##
##benefi##
##bition##
##calize##
##ccipit##
##chines##
##cience##
##ckling##
##comman##
##compas##
##conclu##
##course##
##dustri##
##easter##
##eculat##
##erinte##
##eserve##
##eterop##
##fectiv##
##fusion##
##giness##
##gitate##
##hrough##
##hydros##
##inized##
##iscipl##
##lepido##
##lumine##
##lutina##
##mbulat##
##melano##
##mercia##
##microg##
##nconce##
##ndingl##
##nonrep##
##nterfe##
##ocarpo##
##odendr##
##oducin##
##ompass##
##onment##
##osauru##
##phenol##
##ptiona##
##ratene##
##rattle##
##regist##
##riacea##
##roller##
##rrespo##
##sabili##
##scapul##
##shadow##
##sioned##
##sophic##
##spongi##
##stella##
##sterna##
##stness##
##street##
##superm##
##supero##
##throug##
##timoni##
##titudi##
##vitali##
##wright##
##ydroge##
##ypnoti##
##-armed##
##-bodie##
##achabl##
##actual##
##aculat##
##aight-##
##anizin##
##antiat##
##arting##
##atched##
##athema##
##broken##
##cancel##
##cantho##
##cciden##
##cessor##
##concep##
##condyl##
##copica##
##ctness##
##dehyde##
##dissol##
##divisi##
##eaming##
##enatio##
##enchym##
##enomen##
##entiat##
##erhead##
##erogra##
##estruc##
##eteroc##
##eumato##
##figura##
##finite##
##gangli##
##ggluti##
##gratio##
##hamber##
##hatche##
##hypere##
##ilitat##
##illage##
##iolate##
##iparou##
##iritua##
##itably##
##judica##
##lacent##
##liatio##
##lished##
##mophil##
##nalise##
##needle##
##nodont##
##nonrec##
##nterna##
##nterst##
##ntment##
##ontida##
##oresce##
##philic##
##pinnat##
##pologi##
##prospe##
##provis##
##rector##
##redisc##
##revent##
##saddle##
##sauria##
##soluti##
##somato##
##sporan##
##staphy##
##tallin##
##tincti##
##tioniz##
##tonian##
##toriou##
##tympan##
##umptio##
##usting##
##voiced##
##alcoho##
##anning##
##antist##
##arking##
##astron##
##automa##
##commer##
##cularl##
##delphi##
##econci##
##elessl##
##emotio##
##equest##
##erates##
##erpret##
##fluenc##
##fluent##
##gmenta##
##heathe##
##igenou##
##imatio##
##inaria##
##indulg##
##lcohol##
##lednes##
##lexion##
##lition##
##lumber##
##mating##
##miliar##
##mogene##
##mplica##
##ncompr##
##ncorpo##
##ncture##
##nforce##
##nstant##
##ntheti##
##ntrali##
##ogress##
##olater##
##omagne##
##oncomp##
##onfide##
##opteri##
##orthod##
##othing##
##overla##
##overti##
##pollin##
##pulati##
##quaint##
##qualif##
##ractor##
##ralism##
##record##
##reinte##
##restor##
##ringed##
##riting##
##scepti##
##search##
##season##
##sphaer##
##steril##
##stones##
##tabula##
##tiatio##
##ticati##
##tionin##
##trator##
##ttable##
##tyrann##
##uasi-f##
##uncomm##
##underr##
##urrent##
##window##
##-white##
##accomp##
##adical##
##ahedro##
##ancell##
##anlike##
##anthin##
##arcino##
##arcoma##
##aterna##
##atized##
##aturat##
##believ##
##bserva##
##catech##
##centen##
##coagul##
##ctroph##
##cumber##
##cution##
##cyclic##
##depres##
##eciati##
##ectrot##
##episco##
##ericar##
##erious##
##erized##
##erotic##
##erring##
##erving##
##erwork##
##eteoro##
##exhaus##
##finish##
##fright##
##harden##
##horse-##
##hythmi##
##ialise##
##ilable##
##ingual##
##instit##
##irrita##
##ividua##
##lament##
##lamina##
##lipper##
##mercur##
##mperat##
##natomi##
##nfinit##
##nformi##
##nishin##
##nocula##
##nonexp##
##nophob##
##nticul##
##ntimen##
##obacte##
##olatio##
##omogen##
##oncept##
##oncili##
##ontolo##
##ophary##
##osteri##
##overpo##
##oxygen##
##paraly##
##planch##
##polyph##
##porang##
##precip##
##prison##
##profit##
##pyrami##
##quare-##
##questi##
##reakin##
##riple-##
##ritori##
##roncho##
##sponsi##
##stone-##
##tensio##
##tomach##
##trativ##
##ttling##
##tualiz##
##turist##
##uperst##
##wenty-##
##wering##
##workin##
##xhaust##
##-brown##
##-coate##
##-produ##
##actylo##
##affirm##
##anchis##
##apprec##
##astici##
##astric##
##atteri##
##bering##
##bstrac##
##chambe##
##corner##
##cranio##
##demoni##
##editat##
##efract##
##ehouse##
##elf-su##
##erland##
##ethodi##
##eumati##
##existe##
##ficato##
##gamous##
##giving##
##glotti##
##glycer##
##icture##
##iliati##
##induct##
##influe##
##ingere##
##iotrop##
##iratio##
##ismati##
##itabil##
##keness##
##lassif##
##limati##
##marked##
##minabl##
##missib##
##mocrat##
##ngelic##
##ngulat##
##occipi##
##ociali##
##ommerc##
##onstan##
##opular##
##oralis##
##orangi##
##orized##
##ostero##
##ourish##
##overca##
##phenom##
##pinion##
##piscop##
##plasmo##
##poetic##
##polyme##
##quanti##
##raditi##
##rasiti##
##reaker##
##refere##
##rehend##
##riatio##
##ricard##
##rinate##
##rogres##
##rophot##
##ryngea##
##sidera##
##spermi##
##suppor##
##tainin##
##tended##
##tinent##
##tocrat##
##totrop##
##transv##
##ulousn##
##upport##
##valuat##
##worthi##
##xtensi##
##yramid##
##-green##
##abstra##
##aditio##
##alance##
##alline##
##artedl##
##atriot##
##auricu##
##baptis##
##ceptor##
##chlora##
##cifica##
##cinati##
##cograp##
##congre##
##conomi##
##deuter##
##dispen##
##divers##
##eachin##
##econce##
##ectrom##
##efinit##
##elines##
##enomin##
##entlem##
##eology##
##ephala##
##estive##
##fected##
##fermen##
##friend##
##glossi##
##gramme##
##hondri##
##hyperm##
##ianist##
##iforme##
##igious##
##illust##
##inousl##
##inter-##
##ituali##
##likene##
##litica##
##manize##
##mascul##
##member##
##microb##
##multis##
##neural##
##nified##
##nscrip##
##nterse##
##nthesi##
##oculat##
##oiling##
##onated##
##onopol##
##ospora##
##patrio##
##piring##
##pithec##
##planta##
##poison##
##ppreci##
##predes##
##raliza##
##ratori##
##rfecti##
##riidae##
##ritici##
##rriage##
##rtific##
##self-f##
##solemn##
##splend##
##ssessi##
##stomac##
##stroke##
##succes##
##sulphi##
##superd##
##surabl##
##taboli##
##thines##
##tialit##
##titute##
##tophob##
##tringe##
##udicat##
##ulousl##
##unconv##
##uricul##
##usivel##
##victor##
##ydrate##
##ythmic##
##-chris##
##agramm##
##approv##
##ariace##
##battle##
##bbling##
##biotic##
##cabili##
##carbur##
##cardin##
##crania##
##create##
##ctedne##
##cultiv##
##delibe##
##distra##
##dulous##
##dventu##
##eberry##
##ectori##
##elegra##
##ellied##
##ellula##
##emphas##
##esente##
##except##
##expans##
##first-##
##fringe##
##fronte##
##ghtful##
##gitati##
##hatter##
##heisti##
##hydrom##
##ice-re##
##igated##
##inates##
##iomete##
##ipoten##
##ispers##
##lelike##
##lichen##
##llifor##
##lumino##
##lympha##
##matosi##
##mingly##
##mporal##
##multic##
##naviga##
##ncilia##
##ncircu##
##ndless##
##ndness##
##necess##
##ngerin##
##nophor##
##nsiona##
##nsiste##
##nsivel##
##nterve##
##oglyph##
##onidae##
##orizat##
##osable##
##oversp##
##oxidiz##
##pastor##
##patria##
##percon##
##philia##
##pirati##
##plasma##
##polish##
##presby##
##propag##
##raisin##
##reated##
##refrac##
##requen##
##revere##
##rnalis##
##rnishe##
##ronomi##
##roofed##
##screen##
##sentia##
##should##
##stimat##
##suppos##
##tantly##
##telegr##
##throne##
##tratin##
##trogen##
##trolog##
##typica##
##ucatio##
##uestio##
##uffici##
##unterr##
##vascul##
##verstr##
##vingly##
##ylindr##
##-sided##
##-stone##
##academ##
##alesce##
##allant##
##animal##
##aphies##
##arbitr##
##arbona##
##arriag##
##atting##
##avored##
##boards##
##cathar##
##cervic##
##ciplin##
##cizing##
##conque##
##dablen##
##destru##
##dinous##
##discer##
##disput##
##dities##
##driven##
##easted##
##eathin##
##eboard##
##eeling##
##egraph##
##egular##
##elemen##
##elf-ex##
##emonia##
##entomo##
##ercuri##
##erform##
##etrans##
##explic##
##freque##
##hepati##
##icates##
##icized##
##ight-s##
##igrati##
##ikenes##
##ilater##
##ilding##
##illian##
##incide##
##inclin##
##inizin##
##isinte##
##knight##
##laught##
##lesome##
##llidae##
##llustr##
##miness##
##mising##
##missiv##
##mizing##
##nherit##
##nianis##
##nitari##
##nomica##
##nscien##
##nsensi##
##ociati##
##omplet##
##ompres##
##orthog##
##orward##
##ositie##
##ourage##
##overbr##
##pathet##
##phalus##
##pholog##
##prefer##
##princi##
##pulate##
##ransfe##
##ransit##
##reatin##
##renche##
##retran##
##rhagia##
##rigina##
##ritabl##
##rrogat##
##rtebra##
##sentim##
##servan##
##siasti##
##silica##
##ssimil##
##strous##
##terost##
##torica##
##usiven##
##ussian##
##vabili##
##veling##
##well-t##
##wreath##
##yngeal##
##ypical##
##-grown##
##-necke##
##ainted##
##aising##
##approp##
##arithm##
##benzen##
##bratio##
##ccessi##
##cerate##
##coming##
##confir##
##consec##
##cratch##
##dectom##
##destin##
##disapp##
##ecific##
##ecipit##
##ectora##
##edient##
##egitim##
##ellige##
##emistr##
##engine##
##ensura##
##ercomm##
##ercons##
##estica##
##estone##
##etitio##
##eutral##
##frater##
##ganize##
##gistra##
##graine##
##hyroid##
##iatory##
##iatric##
##icipat##
##impers##
##infini##
##intens##
##issive##
##ivable##
##iversa##
##lactic##
##lamell##
##legiti##
##locati##
##loquen##
##monial##
##morous##
##mously##
##naliza##
##ndesce##
##neutra##
##nfecti##
##nspira##
##odermi##
##oneuro##
##onfirm##
##ontrib##
##ophosp##
##opisth##
##opodou##
##oprote##
##osphat##
##othora##
##owerin##
##procur##
##protoc##
##protop##
##ractin##
##ranche##
##regati##
##ressur##
##rotest##
##ructur##
##scipli##
##secrat##
##served##
##sesqui##
##settin##
##settle##
##seven-##
##sevent##
##sion's##
##somely##
##specul##
##spirin##
##teleph##
##tellig##
##templa##
##tenant##
##terabl##
##teries##
##terygi##
##terygo##
##thalmi##
##thyroi##
##tinize##
##tleman##
##trolle##
##tterer##
##uasi-m##
##uccess##
##unifor##
##utinat##
##utioni##
##vergen##
##versat##
##vertic##
##wrough##
##xisten##
##ydroph##
##-fashi##
##-voice##
##adable##
##aemato##
##aginat##
##andard##
##apolog##
##arring##
##assign##
##athous##
##aunted##
##berate##
##borate##
##brothe##
##chless##
##chorio##
##ckless##
##defens##
##dentif##
##dinati##
##doctri##
##e-colo##
##ectros##
##eliver##
##ementi##
##eminis##
##enefic##
##enforc##
##enosis##
##eolate##
##ephalu##
##equali##
##erizin##
##ervent##
##eteros##
##etrogr##
##everen##
##finiti##
##franch##
##gellat##
##ggesti##
##gulari##
##hellen##
##henome##
##hoceph##
##icienc##
##ifiers##
##incorp##
##inousn##
##irostr##
##isters##
##istill##
##labial##
##lators##
##lculat##
##leasur##
##liance##
##ligent##
##little##
##lizabl##
##marble##
##marine##
##melodi##
##methan##
##metrop##
##mistry##
##mmerci##
##motive##
##mpassi##
##mpound##
##nclusi##
##ndling##
##niacea##
##nspect##
##ntelli##
##ntiate##
##ntroll##
##nverti##
##ocyani##
##onucle##
##ophica##
##optosi##
##ordere##
##pector##
##perpet##
##persen##
##phrase##
##pistho##
##pleasu##
##ported##
##protes##
##ptivel##
##rances##
##rently##
##retero##
##ricken##
##riving##
##rmativ##
##rophet##
##rouble##
##semi-i##
##severa##
##skelet##
##soundi##
##staine##
##standi##
##stasis##
##stinat##
##strian##
##strike##
##struck##
##suppre##
##tamorp##
##tandar##
##tercom##
##thromb##
##tialis##
##ticity##
##tigate##
##timati##
##tinted##
##tother##
##toxica##
##tricti##
##tructu##
##tsvill##
##tulate##
##uistic##
##uminou##
##unterc##
##uperat##
##uppres##
##urgica##
##varian##
##violet##
##vities##
##vocali##
##welve-##
##wice-r##
##worshi##
##ytical##
##-breas##
##-breat##
##-cutti##
##-gener##
##-laden##
##-spoke##
##adiate##
##agmati##
##alable##
##alping##
##alumin##
##amphib##
##analys##
##ansfer##
##appear##
##aristi##
##arizin##
##arrant##
##asthen##
##atives##
##catter##
##ciativ##
##cinate##
##contes##
##ctione##
##ctivat##
##ctomiz##
##cutter##
##dersta##
##dextro##
##eathed##
##ectors##
##editor##
##elasti##
##ensori##
##entrat##
##enzene##
##equenc##
##erally##
##ercomp##
##erines##
##eriodi##
##ermini##
##ernmen##
##estric##
##eterog##
##geomet##
##gnetic##
##growin##
##heavy-##
##hermal##
##hlorop##
##hyperb##
##ichlor##
##immuni##
##iteral##
##itheli##
##laster##
##lified##
##lining##
##locali##
##minera##
##mitati##
##mizati##
##mpleme##
##mplexi##
##nconse##
##negati##
##nonapp##
##nostom##
##nteres##
##nterla##
##nterli##
##ntiati##
##number##
##octrin##
##omeric##
##ommoda##
##ontest##
##orines##
##orizin##
##orphos##
##ortune##
##otenti##
##overha##
##paraph##
##perist##
##phanta##
##phreni##
##ponden##
##portun##
##pressu##
##purpos##
##ralise##
##reaste##
##rictio##
##rincip##
##risati##
##rolled##
##rovide##
##rterio##
##sarcom##
##sessio##
##setter##
##si-con##
##silico##
##simple##
##sinuat##
##skinne##
##suppli##
##surfac##
##syphil##
##teroid##
##tializ##
##tigmat##
##topped##
##tously##
##traliz##
##trange##
##trigon##
##turbin##
##umatic##
##verted##
##well-e##
##-brain##
##-edged##
##-tempe##
##anisti##
##annere##
##anthop##
##antime##
##artmen##
##atizat##
##breake##
##cademi##
##centro##
##chotom##
##ciable##
##column##
##countr##
##cribed##
##crific##
##death-##
##delive##
##dizing##
##ductor##
##ectasi##
##elepho##
##ellers##
##ephaly##
##eridae##
##ersive##
##ertibl##
##estina##
##etched##
##ethyla##
##eticul##
##founde##
##ginati##
##hangin##
##hantas##
##herapi##
##hnical##
##hospit##
##hotomi##
##imensi##
##inetic##
##ingers##
##inheri##
##inical##
##inment##
##intend##
##intran##
##istres##
##lf-dis##
##linger##
##lingui##
##looded##
##mastic##
##merous##
##mometr##
##mortal##
##mphasi##
##ncemen##
##ndatio##
##ndulge##
##nglish##
##niness##
##nonext##
##nsitiz##
##nsiven##
##nsport##
##nterro##
##oagula##
##ocysti##
##oidean##
##oliate##
##ondylo##
##onspir##
##ormula##
##ortati##
##otheis##
##pectiv##
##pistol##
##plicit##
##porati##
##portab##
##ppropr##
##ransla##
##raphie##
##regene##
##relate##
##riable##
##ritone##
##rophyt##
##rospor##
##rotein##
##rovers##
##rratio##
##sacrif##
##simpli##
##sionat##
##stiff-##
##strait##
##streng##
##stward##
##subscr##
##taking##
##techno##
##terize##
##territ##
##tetrac##
##thogen##
##tiblen##
##tomata##
##tproof##
##tracta##
##turate##
##ubscri##
##underm##
##upervi##
##utomat##
##vercom##
##vidual##
##xpansi##
##-ameri##
##-ridde##
##acrifi##
##ainmen##
##alacto##
##alphab##
##alvano##
##anatio##
##anesth##
##anquil##
##anther##
##antiqu##
##asi-re##
##assemb##
##atitud##
##atogen##
##atoril##
##atrica##
##cchari##
##ccharo##
##celebr##
##cellar##
##cenden##
##certif##
##cillat##
##cology##
##colori##
##confer##
##conspi##
##crosco##
##ctured##
##desert##
##dimens##
##dingne##
##dodeca##
##dolich##
##drosis##
##eccles##
##eciali##
##elativ##
##englis##
##ensual##
##erfish##
##ermati##
##erting##
##esigna##
##exhibi##
##extern##
##fficia##
##firmat##
##gnosis##
##gurati##
##horned##
##hronic##
##hydrol##
##icaliz##
##icizin##
##idable##
##ideali##
##implic##
##indedl##
##inocul##
##inquis##
##irecti##
##iscont##
##ispens##
##iviliz##
##jointe##
##league##
##lectom##
##lights##
##lingne##
##lphabe##
##market##
##memora##
##mperia##
##mplifi##
##mposit##
##mystic##
##nastic##
##nchyma##
##nicity##
##ntribu##
##nversa##
##office##
##oncomm##
##onsign##
##onsoli##
##orific##
##osulph##
##otomic##
##otonic##
##overli##
##overte##
##paradi##
##partme##
##pendic##
##perial##
##perien##
##perine##
##periph##
##phabet##
##photop##
##planet##
##pleura##
##polita##
##preten##
##pterid##
##raneou##
##rchica##
##rching##
##reathi##
##riptiv##
##rochro##
##roject##
##romise##
##ropaga##
##rophon##
##rosper##
##rtical##
##scratc##
##self-o##
##shallo##
##sheath##
##sonabl##
##starch##
##states##
##stiani##
##supple##
##suring##
##talian##
##tamina##
##terpro##
##thenia##
##thusia##
##tigati##
##tinous##
##tivist##
##tradic##
##tulati##
##turall##
##turati##
##uitous##
##ulifor##
##ulphon##
##ulsion##
##ulsive##
##unctur##
##urnish##
##utical##
##vating##
##viscer##
##xhibit##
##ynthet##
##-cheek##
##-finge##
##-germa##
##-joint##
##absorb##
##accent##
##activa##
##ageabl##
##agitat##
##agonal##
##anslat##
##aratio##
##arbari##
##atidae##
##breaki##
##cclesi##
##cheeke##
##chingl##
##declar##
##decora##
##depart##
##dizati##
##dynamo##
##ealous##
##ederat##
##eeking##
##egment##
##elabor##
##empest##
##endant##
##entous##
##eptica##
##ercial##
##essent##
##etamor##
##exuali##
##formab##
##formis##
##forwar##
##heeked##
##hollow##
##homoeo##
##houlde##
##hypost##
##ilated##
##imming##
##ineral##
##iodont##
##istinc##
##italia##
##kineti##
##lanchn##
##lectic##
##liable##
##lutter##
##mentin##
##metamo##
##millen##
##minant##
##mutati##
##ncarna##
##nchial##
##nesque##
##neurot##
##nfiden##
##nicati##
##nonimp##
##nopoli##
##nterce##
##nterde##
##ntered##
##nthrac##
##ntlema##
##nvesti##
##ocarbo##
##ochond##
##ofessi##
##olitan##
##onsecr##
##ontane##
##orbita##
##ortico##
##osarco##
##oscler##
##otacti##
##overgr##
##overso##
##patien##
##pellin##
##pre-en##
##preach##
##propos##
##ptious##
##rachia##
##ranqui##
##rbitra##
##realiz##
##redisp##
##remoni##
##rganic##
##riaceo##
##riarch##
##rrelat##
##rthodo##
##sablen##
##scatte##
##sculat##
##senter##
##sicall##
##sonali##
##spinal##
##splanc##
##talous##
##tatori##
##ticnes##
##tomorp##
##topath##
##tylous##
##ualism##
##uarant##
##ublica##
##uentia##
##undera##
##unrepr##
##wledge##
##ylamin##
##-marke##
##-wheel##
##abolis##
##accord##
##alking##
##allist##
##allow-##
##analog##
##anking##
##anomet##
##applic##
##archit##
##arthen##
##arthri##
##ategor##
##atress##
##attain##
##bdomin##
##bilize##
##catego##
##ceptib##
##colleg##
##conjug##
##cooper##
##cotyle##
##ctedly##
##deposi##
##diphth##
##dverti##
##e-eyed##
##ectroc##
##elicit##
##emonge##
##flatte##
##fluoro##
##fronta##
##geolog##
##ghtene##
##ginate##
##globin##
##gradua##
##hopper##
##hydrot##
##hydrox##
##ializi##
##iformi##
##imonia##
##inhabi##
##innate##
##iscove##
##itator##
##itenes##
##larian##
##lighti##
##locate##
##macroc##
##martin##
##medita##
##miscon##
##mitten##
##morpha##
##mpathi##
##multif##
##nciden##
##nconst##
##ndeter##
##nguine##
##nishme##
##nogram##
##nscrib##
##nseque##
##ntertr##
##nulate##
##oclast##
##olated##
##olicit##
##ooting##
##oretic##
##ospita##
##ousing##
##overdr##
##overfa##
##pithel##
##pleasa##
##plough##
##powder##
##prinkl##
##radict##
##recoll##
##regard##
##riolog##
##ronchi##
##rooted##
##satiri##
##satura##
##scienc##
##servin##
##southe##
##sprink##
##suspen##
##tandin##
##tillat##
##tophag##
##tranqu##
##trocha##
##trong-##
##udging##
##udicia##
##umerat##
##unappr##
##undist##
##untere##
##unterm##
##urface##
##uttere##
##vablen##
##vestig##
##vident##
##volati##
##ynthes##
##-barre##
##-front##
##-lippe##
##-makin##
##-natur##
##abular##
##aggres##
##amatic##
##anchor##
##antire##
##arrang##
##attrac##
##bacill##
##censor##
##channe##
##chante##
##chiest##
##ckness##
##clasti##
##clavic##
##cogita##
##confes##
##ctious##
##ctivis##
##decomp##
##discov##
##dragon##
##easona##
##ebrate##
##ectari##
##editio##
##eeting##
##egativ##
##elf-pr##
##ell-re##
##epharo##
##erarch##
##erimen##
##errito##
##erstan##
##esteri##
##etable##
##etalou##
##extend##
##fantas##
##flowin##
##ggling##
##gotten##
##helmin##
##hensib##
##hilist##
##histle##
##hronis##
##hropom##
##hyperd##
##hypero##
##icrosc##
##ieving##
##iffusi##
##ight-h##
##igurat##
##inabil##
##inemen##
##ionari##
##iosity##
##iptive##
##irable##
##issibl##
##istant##
##itaris##
##itched##
##legrap##
##limina##
##lothes##
##magina##
##meless##
##mmodat##
##mycete##
##nchise##
##nderer##
##neuros##
##never-##
##nnered##
##nonpar##
##nterlo##
##nthron##
##obliga##
##ogeogr##
##ogging##
##ohydro##
##omotor##
##omposi##
##ondera##
##onephr##
##onopho##
##onship##
##oristi##
##orless##
##ossing##
##ostrat##
##otomet##
##ovable##
##overab##
##parame##
##phisti##
##phlebo##
##pigeon##
##plasmi##
##ponent##
##precat##
##prosta##
##ptions##
##ptosis##
##ralnes##
##ranger##
##rdered##
##rdness##
##re-exp##
##reconv##
##rength##
##ressor##
##restra##
##retrac##
##ribbed##
##rimetr##
##rition##
##rivati##
##ronize##
##rounde##
##rstand##
##rtiliz##
##sensib##
##sensua##
##silici##
##simula##
##sistan##
##sister##
##solida##
##ssione##
##stines##
##substi##
##superl##
##tellin##
##tempes##
##terali##
##terers##
##tetras##
##toblas##
##trengt##
##trosco##
##ttract##
##tville##
##ulable##
##unprop##
##urativ##
##urator##
##urbani##
##vegeta##
##warran##
##well-m##
##y-face##
##ycepha##
##-break##
##-sight##
##-water##
##abdomi##
##accumu##
##agemen##
##ampere##
##analyt##
##archae##
##atious##
##atrice##
##bligat##
##bstitu##
##burden##
##caster##
##ccumul##
##centre##
##cheste##
##collar##
##columb##
##consen##
##datory##
##disemb##
##e-leav##
##ecreti##
##eflowe##
##eighbo##
##elmint##
##endere##
##enders##
##ensibi##
##erhood##
##erpent##
##erproo##
##ersati##
##erstri##
##ertine##
##ertion##
##estern##
##estrai##
##etaria##
##eviden##
##eyvill##
##fident##
##formes##
##gaster##
##germin##
##ggress##
##hablen##
##halang##
##half-d##
##hannel##
##herica##
##hfulne##
##hodont##
##ibitio##
##icroco##
##idious##
##ilanth##
##ilicat##
##ilizin##
##imilat##
##immuno##
##inflat##
##ingles##
##interg##
##intrac##
##iscoun##
##iscour##
##istere##
##itchin##
##itness##
##justif##
##keepin##
##kinned##
##laparo##
##lately##
##length##
##ligibl##
##llaria##
##loride##
##lossom##
##lterna##
##ltivat##
##matory##
##mature##
##memori##
##mensio##
##merism##
##monist##
##nament##
##natene##
##nciati##
##nconfi##
##negoti##
##neighb##
##nopter##
##ntagon##
##nterch##
##nterma##
##oating##
##ogenit##
##olicho##
##olitio##
##olymer##
##omatos##
##ompose##
##onceiv##
##onfess##
##onjuga##
##onsens##
##onsent##
##onsequ##
##onsult##
##opposi##
##oratin##
##orches##
##orning##
##ostern##
##ostica##
##otoxic##
##overlo##
##owable##
##pancre##
##philan##
##physis##
##posite##
##progre##
##pteran##
##rabble##
##ragmat##
##ransve##
##rappin##
##redita##
##refine##
##rescri##
##rganis##
##riding##
##rnaliz##
##rodont##
##rritor##
##rtible##
##sative##
##scover##
##seemin##
##self-t##
##semble##
##solute##
##spleno##
##sterio##
##stible##
##subter##
##supert##
##surrec##
##suscep##
##sychop##
##tality##
##tegrat##
##tendin##
##terest##
##tetrap##
##thirst##
##thouse##
##tragic##
##triarc##
##tudina##
##ubrica##
##ubstit##
##untert##
##uperex##
##uridae##
##urrect##
##uscept##
##vagina##
##wallow##
##wice-a##
##wice-p##
##writer##
##ymboli##
##ysteri##
##-belli##
##-horse##
##-light##
##aceabl##
##activi##
##allowe##
##alogic##
##andedn##
##anogra##
##antage##
##ardize##
##arling##
##arrier##
##astero##
##athers##
##austra##
##berati##
##bilita##
##blosso##
##chnica##
##chorda##
##clamat##
##cleros##
##colora##
##conson##
##couple##
##courte##
##ctural##
##cystic##
##dabili##
##dehydr##
##deligh##
##dening##
##diplom##
##distan##
##dontia##
##ducibl##
##dville##
##ecompo##
##ectron##
##egisla##
##eighte##
##einter##
##elated##
##elding##
##ematog##
##emigra##
##enance##
##endors##
##entist##
##epubli##
##erspec##
##ethyle##
##etter-##
##europe##
##evapor##
##eversi##
##extrav##
##fensiv##
##formit##
##gestio##
##gislat##
##great-##
##guaran##
##heater##
##henoid##
##hensiv##
##homoge##
##iddle-##
##igible##
##imorph##
##inance##
##interw##
##iother##
##iplica##
##isappr##
##itcher##
##itrate##
##lanthr##
##ldered##
##legisl##
##lishme##
##lminth##
##lphuri##
##martyr##
##matise##
##mercha##
##mmenda##
##modera##
##multil##
##nalizi##
##nerved##
##netrat##
##ngitis##
##nondep##
##nonsen##
##northe##
##ntaine##
##nterdi##
##ntinen##
##ntingl##
##obscur##
##ocryst##
##odrama##
##omesti##
##ompani##
##onised##
##onlike##
##onscie##
##opinio##
##optimi##
##orifer##
##overth##
##parabl##
##peakin##
##perman##
##perspi##
##pertur##
##porate##
##pregna##
##projec##
##prolif##
##proved##
##quinon##
##racing##
##raciou##
##racker##
##ratern##
##ratifi##
##rawing##
##rected##
##redict##
##reduct##
##reinst##
##republ##
##resbyt##
##retion##
##ribble##
##ricity##
##rnamen##
##sabbat##
##sensat##
##serpen##
##sianis##
##slende##
##slight##
##speaki##
##spiral##
##stence##
##stling##
##stolog##
##sublim##
##superg##
##superr##
##tailor##
##talise##
##taries##
##termit##
##tiated##
##tments##
##tolith##
##tousne##
##unctua##
##uraliz##
##urated##
##usable##
##venien##
##versif##
##vindic##
##virgin##
##visage##
##wardly##
##well-l##
##writin##
##xcepti##
##xperim##
##-beard##
##-black##
##-board##
##-compl##
##-spott##
##accomm##
##actini##
##amphor##
##ancrea##
##anolog##
##antiph##
##antipo##
##appare##
##argina##
##arryin##
##arter-##
##assifi##
##atherm##
##atizin##
##atulat##
##avigat##
##bishop##
##botani##
##bstruc##
##caceou##
##calism##
##carnat##
##cautio##
##ccommo##
##certai##
##circui##
##cision##
##coffee##
##comfor##
##concre##
##counse##
##cracke##
##creste##
##cretio##
##dative##
##dictat##
##dicula##
##e-foot##
##eactio##
##echino##
##ecorat##
##efacti##
##eiform##
##elieve##
##elitis##
##elleni##
##ellite##
##ematiz##
##enthus##
##eracti##
##esisti##
##eutero##
##ficate##
##gibili##
##gister##
##grapho##
##heeled##
##iderat##
##ilment##
##iminal##
##inkled##
##iploma##
##ircuit##
##larise##
##lastom##
##leasan##
##lehead##
##leless##
##leucoc##
##limbed##
##llocat##
##loose-##
##loplas##
##lubric##
##lytica##
##matics##
##merate##
##montan##
##mptive##
##nalyti##
##nappre##
##nathou##
##ncommu##
##ndence##
##ndepen##
##nderli##
##neless##
##nheart##
##nially##
##njunct##
##noidal##
##nonacc##
##nondec##
##nsolid##
##nsonan##
##nterac##
##nterru##
##nterta##
##nthous##
##ntinua##
##ocaliz##
##oister##
##omfort##
##omphal##
##onconf##
##onisin##
##onsubs##
##ontrov##
##oscill##
##osomat##
##ostasi##
##ounsel##
##overfl##
##overle##
##overmo##
##palati##
##pariet##
##pensio##
##phylac##
##porter##
##precis##
##presid##
##privat##
##proto-##
##quadru##
##racies##
##rangle##
##rantly##
##reache##
##reachi##
##reasur##
##redist##
##retche##
##riated##
##rifyin##
##rmaliz##
##rmonic##
##ronica##
##roving##
##rticip##
##scanda##
##segmen##
##septic##
##sonian##
##steel-##
##sticis##
##stingu##
##stipul##
##stulat##
##superh##
##taceae##
##tatica##
##tently##
##terili##
##teriti##
##terolo##
##tershi##
##terwor##
##thylen##
##ticali##
##tochro##
##tophil##
##tracto##
##treasu##
##trices##
##tuatio##
##ulifer##
##umines##
##underh##
##vertis##
##vulgar##
##wander##
##well-i##
##wice-d##
##xperie##
##yllabl##
##-conce##
##-grain##
##acture##
##agogic##
##agogue##
##alveol##
##anched##
##anscri##
##anteri##
##anthem##
##antipr##
##antise##
##ardiac##
##arment##
##artici##
##ascend##
##assist##
##atonic##
##ayable##
##basket##
##bearde##
##better##
##bulati##
##caceae##
##candal##
##capula##
##cataly##
##cented##
##cholec##
##ciated##
##cipati##
##compou##
##corres##
##cremen##
##cteria##
##diabol##
##displa##
##divide##
##dlines##
##e-face##
##ecture##
##edimen##
##ellida##
##ematis##
##emente##
##enticu##
##enumer##
##eremon##
##ergenc##
##ermitt##
##ervant##
##erwort##
##etolog##
##excita##
##fittin##
##flavor##
##fruite##
##gument##
##herman##
##hermos##
##hfully##
##hicken##
##hotome##
##iament##
##icroph##
##icting##
##iednes##
##ificia##
##ight-b##
##ilator##
##illari##
##inisti##
##introd##
##involv##
##irmati##
##ispose##
##lastin##
##lineat##
##lithog##
##llowed##
##ltipli##
##lubber##
##luence##
##lunder##
##monoph##
##nconti##
##ncumbe##
##nderpr##
##ndorse##
##neousl##
##niacal##
##nifest##
##nogeni##
##ntende##
##ntensi##
##ognost##
##olitho##
##omance##
##ombina##
##ompoun##
##on-pro##
##onsona##
##onstri##
##ophagy##
##oraliz##
##ordain##
##orld-c##
##orment##
##ostate##
##overma##
##overne##
##oversu##
##overtr##
##phosis##
##pocket##
##pomorp##
##ppendi##
##preins##
##prejud##
##pright##
##pring-##
##printe##
##prompt##
##prosop##
##punish##
##purcha##
##r-shap##
##ranscr##
##rapped##
##rbital##
##rchite##
##reedin##
##reprov##
##resolv##
##ronted##
##rosity##
##rovert##
##rrange##
##rtness##
##sellin##
##signal##
##smoke-##
##solici##
##sorial##
[...]
