de
que
la
en
se
le
el
no
the
et
to
un
and
los
il
of
con
les
me
por
lo
las
as
su
don
qui
es
si
des
in
del
her
elle
on
she
dans
como
quijote
it
was
une
sancho
yo
he
you
that
son
tait
al
qu
or
dijo
not
mi
is
pas
bien
ne
est
ni
du
sa
para
ce
be
ser
an
all
hab
with
lui
sur
his
avait
porque
for
re
had
una
te
pour
au
but
tan
todo
comme
je
sin
at
respondi
vous
ha
tout
sus
par
plus
pero
have
ses
merced
avec
esto
said
do
pues
vuestra
by
him
todos
dos
mr
pr
so
my
ya
cette
os
they
mais
era
cuando
tre
this
donde
cual
sino
caballero
were
fue
very
elizabeth
este
which
what
esta
quien
aqu
could
ella
from
decir
mal
been
would
entre
dit
tu
ver
your
sans
ora
hacer
muy
them
aunque
dios
if
qu'il
nos
deux
otra
otro
their
ces
mis
ten
are
l'
aquel
dar
will
estaba
there
hay
when
such
sobre
aux
cosa
buen
nous
tal
puis
verdad
any
darcy
oh
has
tanto
c'est
one
ils
tengo
alice
mundo
much
more
luego
must
ma
tiene
cela
hasta
alguna
quand
am
poco
emma
dicho
todas
who
ahora
parte
buena
cosas
vida
can
madame
mrs
monsieur
panza
uno
han
menos
lugar
did
gran
ou
fait
homme
ndole
ndose
bennet
faire
tres
peu
soy
eso
quelque
casa
know
than
aquella
sous
charles
manera
tous
we
digo
tiempo
toda
grande
miss
little
herself
cura
other
how
rien
bingley
fin
puesto
mano
jane
dio
amo
gutenberg
ah
mejor
sea
antes
caballeros
ellos
mucho
mo
chose
dec
should
alg
encore
fuera
otras
otros
dulcinea
visto
ojos
puede
only
leur
before
never
well
point
think
now
tierra
hecho
then
project
fut
moment
some
time
again
may
apr
pod
historia
aun
quiero
hombre
padre
ven
out
donc
vos
haber
autre
cielo
vers
amigo
escudero
though
after
long
vio
about
hizo
saber
camino
porte
estas
parece
yeux
femme
muchas
tener
toute
lleg
rent
soon
mas
podr
taient
trois
manos
desta
cuanto
va
fit
fois
da
place
might
tambi
temps
cuenta
see
chez
dire
mujer
grand
without
cet
dice
tra
cu
most
sister
toujours
mon
alors
caballer
devant
nothing
up
cada
nuestro
s'
mesmo
ans
res
bovary
cabeza
madeleine
toutes
into
punto
first
jour
say
c'
moi
noche
qu'on
sont
make
peut
replic
d'un
fuese
go
jean
rocinante
due
own
veces
parecer
pregunt
vuesa
being
dont
duque
lady
mes
razones
coup
estos
faisait
muchos
tant
wickham
good
ir
caballo
voir
andante
bon
diciendo
every
debe
mil
pie
valjean
despu
gusto
fantine
shall
dear
eran
estar
tulo
duquesa
collins
desde
primero
vez
d'une
its
nombre
mancha
great
thought
two
down
avoir
mucha
voz
duda
mismo
adelante
javert
lydia
modo
estaban
har
leurs
like
qued
venir
way
gobernador
voix
cependant
main
too
barbero
car
ch
maire
man
contre
table
volvi
autres
dieu
hac
homais
non
come
nada
chambre
illustration
ve
vi
work
quite
seg
toboso
j'ai
us
air
andantes
dado
enfin
grandes
hija
made
day
iba
jamais
sido
vie
vuestro
aventura
cap
cuatro
however
pens
suis
voluntad
dejar
deseo
ever
aquellos
gente
hall
heures
quelques
quer
quiso
armas
bas
hace
away
pareci
tales
ventura
alma
cr
family
nunca
tes
tr
entender
went
last
rostro
give
muerte
ores
raz
triste
cuerpo
petite
tanta
viendo
agora
deb
deste
fueron
siempre
ai
camila
dej
doncella
venta
libros
menester
palabra
tienen
bras
nuit
part
soir
jam
moins
castillo
entonces
nuestra
ainsi
chapitre
hermosa
quiere
alguno
aussi
cuales
fort
petit
puso
bonne
father
jusqu
lotario
maison
nadie
ste
suelo
suerte
coraz
fr
many
ninguna
sent
venait
always
avaient
dicen
himself
vino
anselmo
enfant
rey
off
personne
pies
ta
tuvo
voil
volver
young
ca
came
comenz
faut
persona
simo
tus
votre
fernando
mit
mother
over
unos
disait
monde
reprit
catherine
mala
terre
finalmente
mayor
pauvre
replied
sab
voces
d'
entr
entra
hope
just
salir
amor
autour
depuis
est-ce
poner
rodolphe
semblait
sure
caso
enough
felt
causa
contra
fuerza
lit
memoria
trop
algo
cannot
ellas
francs
presque
sol
regard
tom
ait
elles
eut
fond
here
house
l'homme
palabras
parec
pondit
delante
fama
mitad
libro
orden
where
compa
ese
hermosura
mains
oui
posible
room
wish
allait
cierto
jours
letter
loin
looked
pasar
algunos
choses
even
llevar
pu
contento
dem
quatre
quoi
sabe
tomar
friend
nsula
rucio
began
heard
id
sima
till
ventero
vu
arr
gobierno
indeed
n'
nom
qu'elle
saw
casi
derri
nuevo
premi
ville
figura
haya
n'y
chapter
dir
n'avait
sorte
better
dorotea
esp
espada
habr
cried
ello
general
loco
natural
reste
bachiller
beaucoup
heure
nosotros
pouvait
soeur
tantas
bueno
face
fen
maintenant
pass
pena
siendo
th
chemin
done
enga
hora
junto
pl
poder
while
anything
bout
espa
muerto
voyait
boca
buscar
comer
della
does
found
intenci
lui-m
matin
perhaps
silence
take
daba
hermano
love
nde
prit
rue
ana
aquello
chaque
having
hommes
myself
ocasi
pedro
pueblo
really
same
sir
upon
apenas
buenos
dit-il
hombres
ment
once
put
seul
ti
yet
ciudad
hablar
next
partes
peine
pendant
rest
six
tell
carta
comment
cria
lengua
medio
pensamientos
possible
sta
these
unas
cardenio
doute
estado
estoy
often
pourquoi
sali
solo
sucedi
avant
believe
get
gu
hijo
let
manner
n'est
ninguno
paso
pudo
quel
works
bruit
cheval
grimas
luscinda
pays
pobre
tantos
vista
adonde
aller
aventuras
dellos
esa
eu
fille
gardiner
haut
lizzy
assez
eh
entrar
our
pensar
pienso
pleasure
puedo
subject
added
aquellas
buenas
conversation
copyright
creo
famoso
femmes
pharmacien
acompa
cause
feelings
large
mand
oro
petits
seemed
seen
something
why
ciel
consid
diablo
primera
whole
aposento
attention
estra
fe
grands
hubo
mot
viene
whom
brazos
certainly
estando
ll
paris
regardait
sais
both
certain
conmigo
hu
pourtant
still
suyo
teresa
yes
cabo
dando
levant
mari
mira
ailleurs
aunt
cuento
cur
hear
look
mille
pudiera
quisiera
quit
rico
right
serait
terms
asno
charlotte
course
fallait
figure
half
ici
longbourn
milieu
mozo
rather
three
visage
campo
dieron
gens
salle
suele
algunas
back
daughter
far
habiendo
hallar
less
mar
mesma
puerta
real
servir
souvent
speak
trabajo
valor
vuestras
world
autor
few
going
happy
ladies
llegar
monseigneur
pecho
quedar
sac
sentait
tras
batalla
cat
cuya
enfants
eyes
gana
head
jeune
juicio
morning
pueden
ton
vieux
amour
another
because
demanda
digne
effet
find
libertad
mieux
nuevas
ont
querr
cuantos
dormir
electronic
entendimiento
kind
least
llev
minutes
saz
sucesos
vit
left
llaman
madre
nor
present
quiz
sean
tenga
vent
vol
vrai
cont
desgracia
evening
foundation
mois
peligro
pueda
sisters
thing
took
acab
ama
cerca
cheveux
falta
quelle
savait
sort
ur
almost
honra
locura
marido
ndome
pensamiento
quelquefois
received
ronse
seis
tendr
those
told
valeroso
zoraida
agua
brazo
brother
colonel
decin
discreto
each
either
eres
hidalgo
hoy
jardin
magloire
mercedes
misma
opinion
principal
queen
therefore
alla
criado
debajo
fortuna
gone
haza
nimo
presto
use
answer
between
che
everything
fa
gar
hacen
haga
home
hubiera
impossible
nuestros
remedio
side
silencio
suceso
tard
together
vite
andar
jumento
knew
licencia
means
ndola
question
sacar
semejantes
soleil
tandis
vieille
aurait
br
cristiano
deseos
di
happiness
kitty
leave
life
netherfield
people
pi
priesa
pris
tenait
things
voice
chercher
cinq
condici
debout
doncellas
espacio
fuere
king
l'autre
labrador
libre
lucas
mir
others
oy
passait
reino
towards
ante
got
gracias
hicieron
lumi
luz
nature
padres
papier
party
whether
able
coming
creer
cristianos
esperar
gave
llegaron
mind
responder
robe
route
set
soit
uncle
under
affection
ant
arriv
bosque
character
eux
feu
idea
leer
mort
pan
particular
pensaba
qu'un
quisiere
regarda
vestido
amigos
aper
argent
monta
noir
noticia
parti
person
poor
seule
sois
town
woman
ar
discurso
fl
fortune
int
leva
marriage
mayores
ner
occasion
parler
pasado
passed
premier
surprise
suya
tica
counter##
electro##
continu##
encanta##
verdade##
imagina##
determi##
conside##
present##
double-##
princip##
express##
respond##
instant##
self-co##
content##
descubr##
respect##
levanta##
anthrop##
pregunt##
perfect##
single-##
dispara##
underst##
esperan##
gentlem##
satisfa##
travers##
importa##
superin##
histori##
particu##
descend##
entendi##
quasi-c##
contemp##
yellow-##
alcanza##
procura##
interco##
thought##
haciend##
muestra##
enamora##
prosigu##
discret##
represe##
persona##
enemigo##
self-re##
distrib##
persuad##
through##
desdich##
differe##
pharmac##
pseudo-##
delight##
infinit##
informa##
thunder##
acquain##
circums##
escribi##
straigh##
self-de##
suppose##
tranqui##
escucha##
gigante##
passion##
regarde##
contrar##
pseudoc##
ingenio##
quarter##
quasi-p##
concert##
natural##
pseudos##
ignoran##
maravil##
philoso##
cephalo##
communi##
entiend##
immedia##
pseudoa##
bacteri##
comenza##
ichthyo##
entrete##
sentime##
suspens##
pseudop##
travail##
valient##
quasi-i##
recomme##
weather##
connect##
consejo##
noncont##
phospho##
profess##
quasi-e##
rencont##
trouble##
trouvai##
confirm##
consent##
liberal##
silver-##
blanche##
couvert##
especia##
estuvie##
interes##
malheur##
quasi-s##
village##
industr##
questio##
superse##
univers##
grandez##
neighbo##
ophthal##
prometi##
solicit##
conscie##
crystal##
declara##
diligen##
interro##
adverti##
chondro##
commenc##
country##
provide##
sacchar##
concern##
profond##
quasi-d##
corresp##
erythro##
escrito##
escuder##
husband##
llevaba##
conocid##
mention##
sentenc##
servant##
smooth-##
well-co##
certain##
compren##
dermato##
goberna##
observa##
princes##
convers##
ornitho##
renegad##
sustent##
tubercu##
comfort##
convent##
general##
imposib##
probabl##
agradec##
connais##
demanda##
friends##
introdu##
llamaba##
prevent##
quinque##
twice-s##
conserv##
espalda##
intelli##
objecti##
overpro##
provech##
simplic##
account##
behavio##
ejercic##
favouri##
inclina##
possess##
self-di##
spermat##
success##
uninter##
admirad##
conseil##
cualqui##
entenda##
nouveau##
pseudom##
service##
spectro##
superco##
tuviese##
demande##
feather##
hubiese##
interme##
retourn##
self-in##
address##
collect##
instrum##
interru##
labrado##
pharyng##
quasi-a##
quisier##
soldado##
william##
yonvill##
against##
busines##
cabrero##
command##
disposi##
feuille##
justici##
pleasan##
prendre##
antonio##
cautivo##
complim##
curiosi##
domesti##
lheureu##
serpent##
servido##
surpris##
suspend##
transpo##
altisid##
carrasc##
confess##
consola##
disait-##
extraor##
hallado##
imperti##
license##
magneto##
pneumat##
promise##
protect##
quasi-r##
sucedid##
campagn##
castell##
criados##
diferen##
discrec##
existen##
impress##
muchach##
necesid##
oreille##
overcon##
pastora##
personn##
presenc##
remembe##
strange##
yoursel##
conduct##
estrech##
intermi##
justice##
looking##
marchan##
married##
multipl##
parlait##
petites##
relatio##
religio##
seuleme##
situati##
sobrina##
thousan##
vencido##
attenti##
conocer##
cosette##
daughte##
disting##
encerra##
experie##
individ##
licenci##
materia##
mauvais##
negocio##
noncons##
noninte##
occasio##
signifi##
sulphur##
talking##
twenty-##
apothic##
chapeau##
consigo##
emperad##
encepha##
immobil##
montreu##
mostrar##
paroles##
resoluc##
temeros##
tholomy##
transfo##
agravio##
agreeme##
bourgeo##
cuidado##
dineros##
noncomp##
opportu##
passant##
prenait##
protest##
quasi-f##
reflect##
respues##
romance##
carriag##
chromat##
civilit##
compara##
consequ##
guardar##
l'enfan##
overcom##
portait##
pudiese##
quarant##
quedaro##
recolle##
segunda##
square-##
substan##
thoroug##
triple-##
agreeab##
charact##
desvent##
dit-ell##
embarra##
famille##
officer##
souveni##
terribl##
abandon##
acciden##
advanta##
bonheur##
broncho##
contrac##
convinc##
discour##
encamin##
ensuite##
gryphon##
meryton##
nardier##
obligad##
paragra##
picture##
affaire##
affecti##
astonis##
christi##
conform##
costumb##
gracios##
handsom##
improvi##
lendema##
murmura##
origina##
poitrin##
politic##
restait##
untrans##
voiture##
acuerdo##
apercev##
desenca##
estremo##
hystero##
mirando##
pemberl##
self-ex##
self-su##
accompl##
artific##
attenda##
basilio##
constru##
despert##
heteroc##
impatie##
leather##
longtem##
mentira##
montesi##
mouveme##
mujeres##
overstr##
paraiss##
pauvres##
quasi-m##
settled##
sobresa##
subject##
support##
twelve-##
accompa##
autrefo##
blephar##
chercha##
cumplir##
dejando##
directi##
duchess##
entramb##
forward##
frequen##
inconve##
nouvell##
promena##
quelqu'##
quieres##
superst##
twice-r##
acomoda##
acontec##
asimism##
complet##
concept##
confusi##
consult##
donatio##
endeavo##
estudia##
heterop##
hypothe##
mademoi##
paralle##
perform##
returne##
admirab##
chevaux##
commiss##
contrad##
feeling##
hydroph##
l'avoca##
llegand##
nonsens##
ordinar##
regarda##
sacrifi##
several##
trouver##
arterio##
authori##
branchi##
cabello##
capital##
chandel##
complai##
cristia##
environ##
fuerzas##
manners##
milagro##
pesadum##
phantas##
remarqu##
satisfi##
staphyl##
viniese##
appelle##
auberge##
castiga##
circula##
cuadril##
dernier##
evangel##
everybo##
expecte##
harmoni##
interre##
laissai##
miserab##
necesar##
necessa##
nuestra##
observe##
opistho##
pleased##
profund##
rosings##
separat##
servici##
uncontr##
uretero##
acknowl##
anxious##
associa##
aventur##
ceremon##
compani##
constan##
distinc##
donaire##
encoura##
gallard##
imagine##
journal##
l'avait##
literar##
machine##
magnifi##
momento##
noncomm##
pourrai##
prudent##
pusiero##
sometim##
strong-##
sympath##
tradema##
tristes##
venganz##
vestido##
acomete##
albarda##
belleza##
benefic##
brought##
condamn##
consist##
contado##
convict##
disappo##
haemato##
heterog##
hiciese##
lamenta##
laryngo##
mistake##
precons##
pretend##
rappela##
rationa##
remedia##
scarcel##
secreta##
section##
self-pr##
voulait##
attempt##
constit##
contain##
contrai##
descuid##
distres##
escudos##
habitud##
llegado##
microco##
ouverte##
peniten##
promesa##
quieren##
reconna##
serious##
superex##
tuviero##
twice-a##
twice-p##
violent##
voyageu##
well-re##
champma##
commerc##
compreh##
cubiert##
difficu##
entendr##
galacto##
honesti##
indiffe##
interfe##
interpo##
messieu##
narrow-##
pendenc##
preconc##
purpose##
pyramid##
recebir##
sourire##
speakin##
theolog##
transmi##
winter-##
amistad##
archive##
assembl##
believe##
buscand##
charret##
comedia##
complex##
deutero##
discove##
distanc##
douceme##
engaged##
hallaro##
influen##
interna##
interpr##
invitat##
ladyshi##
leonela##
lettres##
llamado##
parasit##
pasaron##
pastore##
quedaba##
repeate##
reprehe##
resolve##
ressemb##
sensati##
sensibl##
slender##
supposi##
suspiro##
synchro##
tuviera##
twice-d##
volvier##
absolut##
alborot##
alterna##
appeare##
bienven##
brusque##
compone##
courage##
discont##
ensembl##
esperab##
further##
hertfor##
heureus##
increas##
interdi##
interst##
interva##
interve##
nonconf##
peregri##
permiss##
quiteri##
recebid##
receive##
referid##
spring-##
termina##
tiempos##
torment##
tournai##
world-c##
aguarda##
appelai##
applica##
arrivai##
atrevid##
averigu##
beautif##
branche##
contrib##
descubi##
dolorid##
donnait##
escondi##
examina##
excelle##
fauteui##
forster##
galvano##
heaven-##
hundred##
intelle##
interla##
interlo##
llegaba##
mejores##
ministr##
neither##
opposit##
plusieu##
poussai##
precomp##
provinc##
regimen##
reprit-##
rodilla##
scandal##
semicon##
sentido##
sepultu##
spectac##
spirit-##
tempest##
twice-c##
unconce##
vuestro##
acantho##
accepte##
aconsej##
adminis##
answere##
attract##
au-dess##
caballe##
cabinet##
corrido##
desespe##
dormous##
entered##
exactly##
explain##
familia##
heteros##
invenci##
juramen##
mechani##
microph##
moments##
montagn##
mostrab##
peligro##
pneumon##
premier##
process##
psychop##
require##
reveren##
rouault##
secreto##
spirits##
trembla##
unconte##
absence##
abundan##
admirac##
anthrac##
approac##
aprovec##
arrange##
childre##
chlorop##
concien##
confide##
conject##
convert##
creatur##
cylindr##
derecha##
deseaba##
encomen##
espanta##
estrell##
extrava##
favorec##
histoir##
horizon##
importu##
interce##
interpe##
laisser##
microsp##
nontran##
plaisir##
poderos##
pouvoir##
practic##
prospec##
purple-##
quisies##
shallow##
souffle##
spiritu##
suggest##
trabajo##
underco##
underpr##
ventana##
afterwa##
alabanz##
archaeo##
baptist##
bonhomm##
celebra##
cerebro##
contine##
contrap##
correct##
couleur##
cuisine##
describ##
dientes##
earnest##
excelen##
flatter##
followe##
golden-##
hablado##
iglesia##
indulge##
journey##
knowled##
lenteme##
llevado##
marquis##
mayordo##
merchan##
passage##
perceiv##
percept##
perpetu##
philips##
pleasur##
pouvant##
predisc##
proprie##
quantit##
reparti##
resolut##
respira##
splanch##
stomach##
themsel##
uniform##
volvies##
whisper##
amiable##
antimon##
appeara##
ausenci##
caminos##
compass##
conozco##
derecho##
dificul##
dislike##
electri##
faisant##
faudrai##
followi##
illumin##
interse##
lorsque##
marchai##
morceau##
out-of-##
pacienc##
precipi##
precont##
qu'est-##
recover##
retrans##
soldier##
sosegad##
stomato##
supersu##
supervi##
thinkin##
tracheo##
trifald##
warrant##
well-de##
world-s##
achroma##
arremet##
attende##
bastant##
camacho##
charman##
clothes##
compues##
corrupt##
d'argen##
defende##
desgrac##
desmaya##
despech##
disparu##
dispens##
dispers##
display##
diversi##
entendu##
fashion##
fatigue##
fitzwil##
galeras##
heterot##
humaine##
indigna##
institu##
intenti##
mettait##
orienta##
parecer##
parthen##
partial##
pensait##
persist##
poursui##
procure##
progres##
proposa##
querido##
respeto##
segundo##
semi-in##
society##
surtout##
transfe##
uncompl##
unconve##
villano##
walking##
whateve##
written##
admirat##
alcohol##
alforja##
amenaza##
anticon##
apparte##
apprehe##
articul##
attendr##
breakfa##
caminan##
cinquan##
conceal##
conditi##
congrat##
corpora##
cuchill##
declare##
engagem##
english##
expecta##
gelatin##
hermoso##
honrado##
hospita##
imagino##
importe##
interli##
magneti##
nonconc##
paradis##
phalang##
porphyr##
prestez##
produce##
profesi##
prudenc##
pseudoe##
rapport##
reconci##
religie##
riqueza##
satisfe##
scratch##
sospech##
special##
superca##
superfi##
supersa##
tenemos##
thoraco##
tobacco##
tolerab##
tongue-##
transve##
vituper##
abomina##
additio##
agradab##
albumin##
already##
argumen##
arrival##
asimesm##
aujourd##
condesa##
confuso##
conveni##
counten##
creyend##
davanta##
discuss##
ejemplo##
entraro##
estamos##
fabrica##
frisson##
gendarm##
haberle##
half-co##
illustr##
imprude##
instruc##
intrans##
knowing##
laquell##
locuras##
magistr##
mancebo##
meeting##
mountai##
obliged##
opinion##
overexp##
parfois##
partici##
pasados##
pecador##
pedazos##
predica##
presbyt##
pseudog##
quadril##
reconnu##
salping##
sanguin##
transit##
underse##
automat##
cabriol##
calcula##
camarad##
caminar##
cardina##
caterpi##
contien##
convien##
diamond##
disinte##
empresa##
encontr##
esophag##
estanci##
facilid##
hacerse##
hallaba##
happene##
heterom##
inquiri##
intertr##
legitim##
mercuri##
monarch##
neglect##
parecen##
provisi##
pseudob##
pseudol##
quadrup##
quarrel##
refract##
scatter##
semipro##
sinistr##
siphono##
solutio##
sorrow-##
sortait##
superio##
thirty-##
three-s##
thrombo##
transcr##
urethro##
vieilla##
world-d##
america##
anybody##
approch##
cholecy##
commend##
compres##
conclud##
contras##
cria-t-##
curious##
decirle##
decirse##
deposit##
desenga##
disagre##
diverti##
entreat##
espanto##
evident##
exhibit##
facilit##
felicit##
formula##
gastrop##
hacerle##
heading##
hearing##
hiciera##
hydroge##
imprimi##
instinc##
intende##
majesta##
malicia##
meaning##
membran##
microme##
mission##
officia##
overhea##
pancrea##
perdido##
ponerse##
proport##
refrane##
respons##
reticul##
revenai##
self-ad##
semaine##
sitting##
specifi##
spondyl##
strengt##
superac##
tender-##
testame##
traditi##
undersh##
violet-##
vivemen##
writing##
adventu##
afrenta##
anatomi##
apporta##
assured##
attribu##
beginni##
boutiqu##
composi##
condesc##
convuls##
cultiva##
d'abord##
demasia##
demonio##
disgrac##
drawing##
encarec##
exceedi##
francia##
habland##
hippoly##
honesta##
humilde##
maladie##
mandado##
maritor##
noncorr##
persuas##
physico##
prepare##
preserv##
proceed##
promete##
pronoun##
propaga##
puntual##
redistr##
riendas##
romanti##
saliero##
sanglot##
self-im##
semejan##
siquier##
soledad##
stereot##
suceder##
summer-##
suppres##
surface##
suspect##
testimo##
visitor##
adviert##
antiguo##
apologi##
appendi##
arbitra##
assista##
attachm##
attitud##
bibliot##
bombard##
central##
certifi##
chicken##
circuns##
compadr##
compagn##
concili##
coucher##
coutait##
cryptog##
cuentan##
dehydro##
dejaron##
derriba##
diamant##
disgust##
doctrin##
ecclesi##
elegant##
encierr##
enterta##
entirel##
envelop##
espejos##
excepti##
explana##
famosos##
flambea##
fractio##
getting##
gregori##
homogen##
improve##
includi##
incompa##
indigen##
infanta##
innocen##
insensi##
interca##
interde##
intersp##
kindnes##
l'ombre##
listene##
lorenzo##
manifes##
marcher##
meilleu##
melanch##
million##
monopol##
multitu##
nonsubs##
occipit##
partida##
peculia##
perturb##
phenome##
planche##
prejudi##
puisque##
pusiese##
recogni##
rhyncho##
scarlet##
siguien##
sosiego##
superpo##
superre##
thermop##
tournan##
transce##
tremble##
twice-b##
tyranni##
underli##
vagabon##
volunta##
younger##
acabado##
accepta##
acostum##
actions##
admirar##
ambrosi##
bibliop##
bouquet##
calidad##
capable##
catholi##
caution##
chamber##
chancel##
competi##
concent##
concord##
conjuga##
cross-b##
croyait##
deserve##
discipl##
displea##
distrac##
embrass##
endothe##
entrada##
escalie##
exclama##
executi##
explica##
flower-##
formali##
forzoso##
fratern##
grosses##
immense##
indicat##
infiern##
l'heure##
lantern##
mangeai##
meneste##
nationa##
naturel##
necessi##
obligat##
palacio##
parecid##
parecie##
partout##
penetra##
phospha##
pintado##
preconf##
product##
program##
protoco##
puestos##
quasi-g##
quasi-t##
regular##
reinter##
repress##
ridicul##
sentimi##
short-s##
suddenl##
thermos##
thimble##
transpa##
uncircu##
uncompa##
ventera##
vesicul##
vosotro##
welcome##
acertad##
aliento##
allowed##
amoureu##
amphith##
antipat##
apartar##
apparen##
arriero##
arrogan##
bastard##
bellaco##
billets##
cabaret##
charmin##
chromop##
circuma##
compasi##
compute##
convena##
dancing##
deliber##
demonst##
depress##
despedi##
detener##
develop##
devenir##
dimanch##
directe##
directl##
dolicho##
douleur##
emotion##
engendr##
entrait##
entrega##
episcop##
escriba##
extreme##
faisaie##
fantasm##
frighte##
galeote##
hombros##
hydrome##
hyperco##
illusio##
imperso##
insolen##
inspect##
l'accus##
l'argen##
lecture##
library##
marcela##
medicin##
meningo##
metalli##
meubles##
necedad##
nonconv##
orchest##
partner##
pensati##
pension##
periton##
pleasin##
predisp##
prevail##
profesa##
prophet##
pseudon##
puertas##
reasona##
request##
residen##
retablo##
revolut##
roentge##
salaman##
saliese##
seventy##
solamen##
souffra##
stretch##
suplico##
tampoco##
telegra##
tendido##
tendres##
transfi##
triumph##
trumpet##
tuvache##
undergr##
unself-##
unsuper##
vertebr##
volvien##
well-in##
wheneve##
adereza##
assuran##
auricul##
banquet##
blachev##
brother##
carcino##
chauffe##
ciencia##
company##
consign##
contact##
cross-f##
cross-s##
curioso##
descrip##
deshonr##
diploma##
douceur##
educati##
establi##
estorba##
expense##
faltaba##
flagell##
gentile##
gobiern##
greater##
habilid##
homolog##
interma##
llegase##
lobster##
menteca##
middle-##
miseric##
narices##
nombres##
nondist##
ofrecim##
oscilla##
overdis##
parents##
parties##
phanero##
photogr##
positio##
psychot##
quadric##
quasi-h##
reforma##
remaine##
removed##
replace##
reserve##
restrai##
retrouv##
rostros##
schisto##
schoolm##
seconde##
semblai##
soulier##
station##
superna##
supplia##
suspici##
testigo##
thalass##
tosilos##
treasur##
treinta##
turning##
uncommo##
underre##
unpleas##
vencedo##
venture##
vestida##
witness##
world-a##
abstrac##
acertar##
actinom##
alphabe##
amygdal##
andaban##
attache##
augment##
barbari##
broken-##
carolin##
casquet##
cheerfu##
cicatri##
cinchon##
classic##
corrien##
cortesa##
denatur##
desnudo##
devenai##
discern##
discrim##
discurs##
dispose##
docteur##
dramati##
encanto##
endormi##
epithel##
escuadr##
experim##
federal##
fiction##
finishe##
fortnig##
functio##
germani##
gratefu##
gratitu##
ground-##
honrada##
houseke##
hyperse##
inquisi##
interch##
intimat##
invalid##
investi##
italian##
legisla##
little-##
lugares##
machina##
maisons##
malades##
manifie##
matrimo##
militar##
monogra##
montait##
muraill##
nondefe##
nondisc##
nonspec##
organis##
ouvrier##
oversta##
persigu##
petit-g##
piernas##
polychr##
pre-exp##
prescri##
private##
prolong##
rebuzna##
referen##
registr##
renvers##
reproac##
restric##
s'appel##
sclerot##
sentado##
silenci##
singula##
soupira##
spindle##
splendi##
standar##
superde##
superma##
synonym##
tercera##
terror-##
toilett##
traidor##
travel-##
twice-t##
ventric##
academi##
adulter##
allaien##
amorosa##
arriver##
attendi##
austral##
avez-vo##
caballo##
carboni##
carreau##
carrera##
comodid##
compris##
console##
controv##
crimina##
cuantas##
dactylo##
decarbo##
derbysh##
destruc##
diablos##
diffici##
documen##
employe##
encubri##
encyclo##
enferme##
entrado##
entranc##
exclaim##
fragmen##
generat##
guardad##
hacerme##
half-in##
hastily##
hironde##
hunsfor##
hurried##
hydroxy##
inciden##
incompl##
incorpo##
indiscr##
inhabit##
inherit##
inquire##
maestre##
malandr##
memoria##
mineral##
moderat##
monoton##
murmure##
noncond##
nonexte##
nonprop##
nonresi##
offende##
onomato##
pantalo##
paradox##
parlant##
philant##
popular##
prairie##
premedi##
priest-##
prosegu##
prosper##
pseudoi##
pseudor##
psychol##
psychos##
pterygo##
rapproc##
rapture##
replica##
republi##
revenir##
self-po##
shepher##
shoulde##
slipper##
souffla##
sphaero##
steeple##
strepto##
succeed##
telepho##
three-c##
tourner##
trichin##
unconst##
velours##
viniere##
virtuos##
visible##
volunte##
well-di##
well-st##
wonder-##
accusat##
affecte##
atrevim##
balance##
balbuti##
bottle-##
brachio##
brighto##
bronchi##
categor##
chappai##
chondri##
circumv##
combina##
comedid##
committ##
complia##
comprom##
condens##
confesa##
confian##
confond##
contrav##
costill##
crescen##
decided##
demeura##
democra##
derivat##
desenvo##
despier##
disappr##
draught##
dreadfu##
enteroc##
estrema##
exemple##
expedit##
ferment##
fertili##
fortale##
hesitat##
heureux##
horribl##
immorta##
inconsi##
instead##
intento##
lastima##
meditat##
megalop##
metallo##
metamor##
methodi##
micomic##
misappr##
mostrad##
narcoti##
nonsupp##
obscure##
occurre##
overpre##
overspe##
parezca##
parient##
pericar##
periost##
pondait##
pondit-##
portrai##
prohibi##
project##
publiqu##
pudiere##
quitado##
reading##
recepti##
recomma##
recompe##
reconfi##
regocij##
remarka##
scintil##
scissor##
sommeil##
sparrow##
squirre##
sucedie##
superab##
symptom##
tomando##
transla##
unequal##
venturo##
vieille##
wretche##
abierto##
acclima##
agricul##
allonge##
anticip##
apriesa##
atmosph##
better-##
bournis##
capitan##
chemise##
christo##
chrysop##
circuit##
comunic##
conclus##
confies##
conjunc##
conocim##
cordial##
courant##
crimson##
crooked##
deceive##
defecti##
deliver##
depende##
dijeron##
disclai##
disputa##
dissent##
dissimu##
distrai##
embuste##
epistol##
expansi##
fortuna##
gallina##
geometr##
good-hu##
gratifi##
honesto##
honneur##
hyperca##
hypocri##
imperia##
initial##
interne##
interpl##
jornada##
juntame##
kitchen##
l'espri##
labyrin##
leucocy##
ligerez##
longues##
manquai##
marble-##
marryin##
mentiro##
meteoro##
monstru##
myrmeco##
ninety-##
nondepr##
nonrepr##
omphalo##
ouvrait##
overrea##
papillo##
parfait##
pasteur##
peacock##
pervers##
philipp##
photoch##
pobreza##
ponerme##
portant##
possibi##
precept##
preside##
proleta##
prostat##
pseudod##
pseudoh##
psychog##
quadrat##
qualifi##
quasi-l##
quasi-n##
receivi##
reconve##
redress##
refresh##
regulat##
restaur##
rideaux##
rubber-##
rufous-##
science##
scienti##
self-op##
siastiq##
sincere##
soberbi##
soixant##
solitud##
songeai##
spanish##
spectat##
stereop##
sublime##
subscri##
supplic##
surveil##
syllabi##
symboli##
tait-ce##
talante##
technic##
tempora##
thanato##
three-p##
tilbury##
timber-##
traffic##
tressai##
unconfi##
unconse##
underca##
undisco##
undoubt##
unexpec##
unrepro##
vulgari##
world-r##
abrazar##
acabada##
accessi##
accroch##
advance##
affirma##
aficion##
anecdot##
animali##
antigua##
appeler##
blancas##
canivet##
cantida##
capilla##
catechi##
cervico##
checker##
circumc##
civilis##
colloqu##
coloqui##
comment##
compact##
compari##
compens##
complic##
conocie##
consint##
contriv##
desemba##
despidi##
diction##
discomm##
distill##
docient##
eagerly##
economi##
efforts##
element##
envidia##
epiderm##
equilib##
escribe##
escusar##
euphemi##
expliqu##
extempo##
extensi##
externa##
extract##
faction##
flutter##
forgive##
franchi##
ganglio##
gentle-##
hermand##
heterod##
hypnoti##
impassi##
incarna##
include##
incompr##
install##
interac##
interje##
intervi##
judgmen##
lancoli##
letters##
literal##
maldici##
maraved##
marches##
mariage##
measure##
metabol##
miniatu##
mouchoi##
musique##
naphtha##
nondefi##
nonpers##
nonpres##
nourric##
obstruc##
orange-##
orthodo##
otherwi##
ouvrage##
overgra##
overint##
paramet##
paraphr##
perdait##
phoenic##
phyllos##
ponerle##
porcela##
positiv##
posteri##
predest##
prenant##
pressur##
prognos##
prononc##
prosely##
pseudot##
pudiera##
punctua##
purchas##
quelque##
raisonn##
recipro##
redingo##
redunda##
rejoice##
riguros##
sacrist##
second-##
sequest##
sociali##
somnamb##
specula##
stabili##
stercor##
strait-##
subcont##
suffrag##
sulphon##
superim##
systema##
tempera##
teniend##
tombait##
trachel##
transmu##
trecien##
tristez##
uncompr##
underdr##
undersp##
underta##
valeros##
ventaja##
vestibu##
viniero##
visorre##
volutio##
voudrai##
vraimen##
well-pr##
world-p##
abdomin##
adelant##
aliment##
allegor##
anesthe##
antagon##
antipar##
antithe##
armoire##
assiett##
barcelo##
brachyc##
capacit##
carbona##
chaleur##
chanson##
circumf##
claudia##
commode##
compart##
concier##
confuse##
consona##
conspir##
constat##
contest##
copper-##
courtes##
creatin##
defensa##
definit##
discord##
disculp##
diversa##
duplica##
ejecuci##
elephan##
eleuthe##
encendi##
encuent##
entrant##
ephemer##
equival##
escrita##
examine##
exhaust##
exposit##
feature##
foreign##
forgott##
franco-##
georgia##
greates##
grenier##
haberse##
hablaba##
hematoc##
hollow-##
hyperme##
hyposta##
identif##
indemni##
inquiet##
insigni##
instanc##
intenci##
interpa##
intrica##
inutile##
lachrym##
leaving##
leisure##
lenguas##
located##
manteau##
manufac##
marshal##
mesmeri##
microgr##
moderni##
mortifi##
municip##
obstina##
ornamen##
papeles##
par-des##
parabol##
pedicul##
perseve##
photoco##
physiol##
platitu##
pontifi##
portion##
potenti##
predict##
pretens##
prunell##
puestas##
quitter##
reconst##
related##
relativ##
rentrai##
reproch##
reprodu##
running##
sacrame##
salario##
sanchic##
schemat##
scrutin##
secular##
self-ac##
sentier##
servait##
simples##
slumber##
socorre##
stigmat##
subcomm##
superel##
superpr##
swallow##
symmetr##
symphon##
theatri##
torrent##
tragedi##
transpl##
traumat##
unappre##
underbu##
unhappy##
unnatur##
unrever##
unwilli##
venaien##
vencimi##
voyez-v##
vulcani##
waiting##
wrinkle##
zaragoz##
accordi##
acudier##
affront##
alcalde##
alexand##
almohad##
anathem##
angusti##
anticom##
appoint##
approba##
aromati##
arthrop##
ashamed##
awkward##
batalla##
bendici##
bertaux##
brazen-##
bright-##
canthar##
captiva##
carriol##
castill##
catalog##
cavalie##
changea##
chantai##
coffee-##
colline##
communa##
complem##
compose##
conduis##
congreg##
congres##
contorn##
corrobo##
cosmopo##
counsel##
critici##
dactyli##
delicad##
denomin##
descans##
desnuda##
dessous##
dialect##
dicipli##
disembo##
disillu##
dissipa##
dogmati##
dormait##
edition##
entende##
enterra##
envoyai##
equally##
estimar##
exclusi##
fabriqu##
fantast##
figuras##
formida##
galvani##
gastroe##
generos##
gouvern##
half-de##
half-re##
heathen##
helleni##
helmint##
hubiera##
hyperac##
hypophy##
indisti##
initiat##
integra##
intitul##
irritat##
izquier##
j'avais##
judicia##
justifi##
knuckle##
licates##
maintai##
melisen##
microsc##
misfort##
nectari##
nonprof##
nonprot##
norther##
notaire##
obedien##
olvidad##
opening##
operati##
overflo##
painful##
palaeog##
palaeon##
parsona##
passaie##
patriar##
pedagog##
pensado##
perdona##
perjuic##
physiog##
pierres##
pleurot##
polygon##
possibl##
preinte##
presupp##
primero##
probabi##
prodigi##
propert##
quedase##
regrett##
relieve##
reliqui##
resentm##
restora##
resurre##
retenti##
retrogr##
reversi##
rheumat##
sacerdo##
schizop##
self-ab##
sevilla##
skeleto##
sophist##
souriai##
souther##
speckle##
stimula##
subcomp##
substit##
superad##
superhe##
tambour##
temiend##
territo##
traslad##
trichop##
trinitr##
unappro##
undercl##
unfortu##
ungener##
ventril##
vicomte##
vindica##
voulez-##
well-be##
well-br##
white-b##
willing##
worship##
accommo##
acordar##
aggluti##
agravia##
amantes##
amarill##
anxiety##
appreci##
arzobis##
atraves##
autores##
benedic##
boulang##
bouleve##
breveda##
butcher##
butterf##
calling##
cansado##
carreta##
catastr##
cervant##
chagrin##
changed##
chatter##
chimney##
chlamyd##
combien##
concret##
condemn##
confede##
consoli##
consuel##
contigo##
cryptoc##
d'aille##
defraud##
desatin##
desmayo##
despojo##
disdain##
dismiss##
disturb##
dix-neu##
effraya##
emporta##
enchant##
entrevo##
escritu##
farther##
fermosa##
fibrino##
fit-ell##
flexion##
forbear##
friendl##
fussent##
gargant##
gastros##
hauteur##
hedgeho##
heredit##
hispani##
hydroly##
hyperdi##
hyperte##
imparti##
imperat##
impreso##
intensi##
interin##
inventi##
jeopard##
l'avons##
laughin##
likewis##
limited##
llamada##
llevase##
mandami##
manipul##
mantele##
microbi##
mientra##
miraban##
moindre##
monochr##
monumen##
neutral##
nonreve##
obligac##
officie##
orgueil##
outside##
overdra##
oversen##
pacific##
palaeot##
palladi##
palpita##
panegyr##
parquet##
patienc##
patriot##
perspec##
plagiar##
polyglo##
predete##
prefere##
prochai##
pseudof##
quebran##
quedado##
reached##
readily##
recueil##
regards##
repetit##
repouss##
resucit##
salutat##
saturda##
scorpio##
self-se##
sixteen##
souhait##
sourian##
sphygmo##
stephan##
subterr##
superbe##
supiese##
suplica##
sweet-s##
tantali##
tendait##
thermom##
thermot##
tranger##
transpi##
triangu##
trigono##
uncomme##
underla##
unprovi##
upright##
vagueme##
victori##
vitriol##
volatil##
water-s##
whistle##
world-w##
xanthop##
aborrec##
absinth##
acceler##
accione##
acometi##
acredit##
agitati##
alcorno##
amalgam##
amuseme##
antipro##
apparai##
archite##
arrived##
arrondi##
article##
artille##
asiento##
assassi##
astrolo##
auparav##
ausente##
authent##
aveugle##
balloon##
benenge##
bestias##
bouleva##
bourdon##
bristle##
burglar##
capitul##
captain##
cerebra##
cerrada##
chambre##
channel##
chargea##
chevelu##
chiffon##
clavile##
commens##
concess##
confect##
confine##
confron##
conquer##
contort##
control##
convale##
cross-p##
crucifi##
cumplid##
d'autre##
decompo##
dedicat##
degener##
delphin##
deshace##
deshora##
despach##
diphtho##
disadva##
disguis##
dishono##
donnera##
durmien##
eighty-##
enantio##
enderez##
epigram##
espadas##
essenti##
euphoni##
excessi##
exploit##
extermi##
finding##
foolish##
foresta##
frictio##
fromage##
generou##
glossop##
grammat##
gregari##
habitue##
halluci##
harvest##
hermano##
hesperi##
hubiere##
humanit##
humilia##
hyperbo##
hyperth##
imperce##
impresa##
inatten##
inconnu##
indepen##
indicio##
inferio##
inscrip##
insurre##
interfi##
intrigu##
l'auber##
leandra##
lesquel##
licheni##
lithoph##
lorsqu'##
lugubre##
lymphan##
maestro##
mechano##
memorab##
miembro##
misunde##
mushroo##
noncirc##
noncoll##
nondisp##
nonexpe##
occupat##
orthogr##
overcap##
overins##
overthr##
parcel-##
paysans##
permitt##
photoph##
phytoph##
piedras##
pintada##
placent##
plafond##
plastic##
platoni##
politen##
pollina##
polypho##
poniend##
populat##
precede##
prepara##
psychoa##
psychom##
pterido##
publica##
quadran##
quadrip##
radiote##
rebuzno##
recogie##
reddish##
regener##
reitera##
rendez-##
reprena##
reprend##
resplan##
restitu##
retomba##
scauffl##
scribbl##
seigneu##
self-ma##
self-st##
sensual##
sergean##
short-c##
simple-##
slaught##
soliloq##
somebod##
sterili##
strateg##
strobil##
subsidi##
suffici##
summari##
supersc##
taberna##
tabliss##
tentati##
terrori##
thick-s##
three-b##
traduci##
twice-e##
uncivil##
uncomfo##
unparti##
unpreci##
unpredi##
unreaso##
unrepre##
upstair##
virtude##
voisine##
water-c##
well-fo##
well-se##
wooden-##
xanthoc##
yellowi##
yesterd##
##ization##
##ousness##
##bleness##
##ability##
##tically##
##ablenes##
##logical##
##counter##
##ication##
##iveness##
##ologica##
##ational##
##ographi##
##graphic##
##ologist##
##ificati##
##iousnes##
##ficatio##
##iferous##
##ination##
##tivenes##
##electro##
##lizatio##
##istical##
##ography##
##tedness##
##ingness##
##ulation##
##present##
##sticall##
##continu##
##essness##
##fulness##
##lessnes##
##atively##
##ibility##
##tionali##
##itation##
##ishness##
##eration##
##isation##
##ometric##
##hearted##
##imiento##
##tionist##
##-shaped##
##tograph##
##alizati##
##aphical##
##raphica##
##etermin##
##determi##
##encanta##
##alistic##
##nizatio##
##ression##
##-minded##
##anthrop##
##-headed##
##cephalo##
##respond##
##onsider##
##conside##
##dedness##
##matical##
##termina##
##ionally##
##rically##
##ophobia##
##calness##
##tabilit##
##gically##
##articul##
##icalnes##
##ntation##
##positio##
##osition##
##sivenes##
##express##
##alizing##
##metrica##
##branchi##
##colored##
##etrical##
##imagina##
##nograph##
##ionalis##
##ocephal##
##looking##
##olution##
##nically##
##content##
##ncantad##
##ogicall##
##pressio##
##rizatio##
##entatio##
##rograph##
##aticall##
##hically##
##rticula##
##genetic##
##rousnes##
##-colore##
##verdade##
##ationis##
##iblenes##
##otherap##
##ez-vous##
##tionall##
##cephali##
##natural##
##mission##
##ncephal##
##perfect##
##sibilit##
##ctional##
##encepha##
##ilities##
##respect##
##communi##
##ographe##
##chromat##
##omorphi##
##princip##
##erdader##
##iograph##
##ativene##
##grapher##
##underst##
##lations##
##minatio##
##differe##
##genesis##
##double-##
##it-elle##
##persona##
##structi##
##cantado##
##ifferen##
##rations##
##tations##
##inesses##
##escence##
##eticall##
##thought##
##nstruct##
##iologic##
##passion##
##ateness##
##nationa##
##collect##
##ranchia##
##-leaved##
##ctively##
##instant##
##tablene##
##cations##
##enesses##
##oration##
##rationa##
##formati##
##histori##
##iculate##
##ishment##
##lection##
##resenta##
##rmation##
##erative##
##ressive##
##ulating##
##contemp##
##ogeneti##
##ogenous##
##scripti##
##descend##
##epresen##
##ontinua##
##represe##
##inating##
##phicall##
##-lookin##
##nthropo##
##ophthal##
##self-co##
##ciousne##
##ogenesi##
##ologies##
##iaceous##
##prehens##
##distrib##
##istribu##
##plicati##
##ticular##
##bilitie##
##tration##
##phthalm##
##resente##
##crystal##
##nations##
##importa##
##alities##
##mically##
##special##
##oscopic##
##raction##
##ristian##
##stribut##
##tificat##
##ontinue##
##ciously##
##ticulat##
##tizatio##
##xpressi##
##rabilit##
##rehensi##
##tionary##
##ectiona##
##eograph##
##esthesi##
##ndednes##
##bacteri##
##onville##
##satisfa##
##connect##
##ation's##
##fferent##
##nsidera##
##aissait##
##descubr##
##dispara##
##levanta##
##llement##
##volutio##
##ception##
##gentlem##
##tributi##
##uration##
##esperan##
##icative##
##pregunt##
##fection##
##duction##
##ilosoph##
##morphic##
##vention##
##ections##
##electri##
##portion##
##single-##
##travers##
##hilosop##
##lisatio##
##philoso##
##station##
##ference##
##snesses##
##tricall##
##ensible##
##itional##
##mentati##
##stituti##
##tologic##
##vantage##
##entendi##
##eringly##
##riously##
##servati##
##bearing##
##general##
##hologic##
##ormatio##
##particu##
##crimina##
##quarter##
##ssement##
##thologi##
##cimient##
##persuad##
##plastic##
##essiona##
##possess##
##circums##
##elation##
##lograph##
##faction##
##liberal##
##manship##
##pharmac##
##atingly##
##delight##
##rablene##
##rection##
##regunta##
##-footed##
##acquain##
##alising##
##cquaint##
##otropic##
##phospho##
##rdadera##
##rystall##
##substan##
##sulphur##
##superin##
##tention##
##culatio##
##erating##
##generat##
##grammat##
##jection##
##profess##
##science##
##through##
##industr##
##mpressi##
##procura##
##ttering##
##esponde##
##politic##
##informa##
##knowled##
##nologic##
##nowledg##
##obranch##
##tubercu##
##ubercul##
##venture##
##discret##
##heureux##
##interco##
##magneti##
##mouthed##
##pharyng##
##straigh##
##traight##
##concert##
##ionaliz##
##unction##
##astical##
##certain##
##entimen##
##interes##
##itative##
##llation##
##nstitut##
##ntiment##
##quasi-c##
##yellow-##
##courage##
##erminat##
##haciend##
##infinit##
##alcanza##
##amiento##
##icating##
##impress##
##sentime##
##ssaient##
##utation##
##atisfac##
##aughter##
##cession##
##chondro##
##encontr##
##entness##
##blement##
##entally##
##feather##
##ndustri##
##onation##
##ounding##
##rologic##
##section##
##command##
##conserv##
##culated##
##materia##
##mentali##
##mportan##
##omatous##
##provide##
##rrespon##
##tendait##
##-handed##
##conduct##
##contrar##
##licatio##
##mmunica##
##muestra##
##ommunic##
##therapy##
##tiously##
##atorial##
##enamora##
##escribi##
##intelli##
##issemen##
##lheureu##
##ndersta##
##ocratic##
##onalist##
##religio##
##sensiti##
##zations##
##christi##
##confirm##
##conform##
##icultur##
##itution##
##matolog##
##ntellig##
##pressed##
##prosigu##
##rammati##
##service##
##stantia##
##commend##
##monstra##
##ranquil##
##rianism##
##titutio##
##tuviese##
##fashion##
##harmoni##
##mograph##
##observa##
##oplasti##
##protect##
##rometer##
##tranqui##
##ministr##
##objecti##
##questio##
##ressing##
##self-re##
##thunder##
##uestion##
##uestras##
##ctivene##
##enemigo##
##mientos##
##onscien##
##ordinat##
##provech##
##tempora##
##-flower##
##centric##
##constru##
##culture##
##erstand##
##imental##
##inative##
##lectric##
##prendre##
##sacchar##
##adverti##
##appoint##
##ciencia##
##ignoran##
##interro##
##mediate##
##onicall##
##riousne##
##signifi##
##suppose##
##tologis##
##ubstant##
##univers##
##bstanti##
##evoluti##
##ionless##
##ollecti##
##onistic##
##rvation##
##tometer##
##torship##
##usement##
##comfort##
##existen##
##hograph##
##hromati##
##nabilit##
##practic##
##william##
##antador##
##conscie##
##convent##
##convers##
##desdich##
##emonstr##
##escubri##
##esdicha##
##liferou##
##nterest##
##pseudo-##
##redness##
##roducti##
##servant##
##solicit##
##ulative##
##-bearin##
##berries##
##concern##
##covered##
##dynamic##
##ingenio##
##mechani##
##nventio##
##ordinar##
##regarde##
##titious##
##-tailed##
##almente##
##arriage##
##connais##
##dermato##
##elf-con##
##hristia##
##multipl##
##namorad##
##rtednes##
##syllabi##
##tationa##
##tuation##
##-tongue##
##agement##
##derstan##
##iration##
##listica##
##owledge##
##sthesia##
##tiousne##
##trouble##
##version##
##-winged##
##eologic##
##ntament##
##self-de##
##tibilit##
##uousnes##
##usnesse##
##ciation##
##compreh##
##estheti##
##mention##
##mprehen##
##nablene##
##omprehe##
##onventi##
##product##
##ssional##
##success##
##support##
##weather##
##central##
##commenc##
##conscio##
##eousnes##
##ficient##
##ionable##
##istance##
##nificat##
##ounter-##
##stratio##
##termine##
##aliente##
##arianis##
##ariness##
##circula##
##consent##
##ichthyo##
##instruc##
##itarian##
##lighted##
##oplasty##
##pically##
##recomme##
##reflect##
##sionist##
##trophic##
##ecommen##
##ellemen##
##erentia##
##ervatio##
##escucha##
##gigante##
##igation##
##lateral##
##ndering##
##obiolog##
##ocation##
##omorpho##
##suspens##
##corresp##
##ctation##
##cubiert##
##elessne##
##entalis##
##entlema##
##ephalic##
##immedia##
##logists##
##ntleman##
##omantic##
##parasit##
##plicate##
##prehend##
##prenait##
##prevent##
##reading##
##ruction##
##ssociat##
##tellige##
##abiliti##
##alisati##
##corpora##
##naceous##
##neighbo##
##netical##
##orrespo##
##pseudoc##
##technic##
##ticalne##
##aterial##
##authori##
##biologi##
##capital##
##commiss##
##contrac##
##criptio##
##cularly##
##efulnes##
##elligen##
##fficien##
##gnifica##
##hosphor##
##ifiable##
##iologis##
##ncement##
##pressiv##
##quasi-p##
##riminat##
##ription##
##ssively##
##tamente##
##aciones##
##anchiat##
##ccident##
##diligen##
##iabilit##
##ighting##
##indicat##
##mmediat##
##ntially##
##oportio##
##percept##
##plement##
##portait##
##probabl##
##proport##
##pseudos##
##trouvai##
##tructio##
##-hearte##
##aravill##
##associa##
##entiend##
##erously##
##hetical##
##maravil##
##mentary##
##nformat##
##niferou##
##nscious##
##nsequen##
##onserva##
##relatio##
##roporti##
##sentati##
##tfulnes##
##anizati##
##country##
##gnostic##
##morphis##
##nsation##
##odactyl##
##onsciou##
##paraiss##
##pendenc##
##pseudoa##
##uasi-co##
##ystalli##
##advanta##
##angular##
##declara##
##dvantag##
##ensatio##
##experie##
##frequen##
##ialness##
##isparat##
##istress##
##ndition##
##odynami##
##onalize##
##ontempl##
##ontract##
##ounterp##
##rativel##
##rificat##
##spheric##
##tifying##
##tractio##
##xperien##
##blanche##
##corrupt##
##disting##
##especia##
##introdu##
##istence##
##istingu##
##ivorous##
##losophi##
##municat##
##onseque##
##promise##
##roscopi##
##spectro##
##village##
##address##
##agradec##
##atologi##
##comenza##
##compens##
##complet##
##domesti##
##ferenti##
##ignific##
##minatin##
##rnation##
##sentenc##
##symmetr##
##tribute##
##amorado##
##atholog##
##consola##
##conveni##
##depende##
##entrete##
##ersonal##
##intelle##
##itorial##
##ortable##
##ounters##
##pointed##
##romanti##
##rospect##
##rouvait##
##travail##
##america##
##araissa##
##complex##
##consejo##
##couvert##
##disposi##
##fession##
##hotogra##
##inclina##
##indedne##
##individ##
##ligence##
##lousnes##
##minated##
##ntellec##
##oelectr##
##onalism##
##otograp##
##patholo##
##perienc##
##photogr##
##pseudop##
##tellect##
##valient##
##account##
##agreeab##
##appelle##
##conditi##
##constan##
##directi##
##dustria##
##erville##
##icality##
##nscienc##
##ntreten##
##operati##
##origina##
##pleasan##
##protest##
##quasi-i##
##raissai##
##siblene##
##spirite##
##anquill##
##artedne##
##attenti##
##consequ##
##constit##
##correct##
##costumb##
##ctionis##
##greeabl##
##husband##
##interru##
##istoria##
##itating##
##ncontra##
##ndividu##
##noncont##
##omaniac##
##omeness##
##onstitu##
##ostumbr##
##pneumat##
##process##
##quasi-e##
##rencont##
##rincipi##
##solutio##
##sthetic##
##subject##
##tionism##
##-backed##
##atching##
##eartedn##
##escript##
##escrito##
##hemical##
##leasant##
##mindedn##
##onditio##
##orphism##
##ostatic##
##pirited##
##raceous##
##ratical##
##regulat##
##residen##
##silver-##
##superse##
##sympath##
##ventura##
##affecti##
##conocid##
##cultura##
##distinc##
##ductive##
##enerati##
##entiall##
##erythro##
##estuvie##
##istinct##
##lementa##
##liberat##
##license##
##malheur##
##nologis##
##nunciat##
##onstrat##
##onstruc##
##ontrari##
##ornitho##
##perform##
##pertine##
##quasi-s##
##spermat##
##utional##
##-haired##
##apprehe##
##chemica##
##confess##
##dramati##
##ertinen##
##esville##
##gressiv##
##idation##
##ilation##
##interpr##
##nishmen##
##ntative##
##ologize##
##peaking##
##phagous##
##portant##
##pprehen##
##preciat##
##prudent##
##quainta##
##ringing##
##rologis##
##sacrifi##
##somenes##
##stablis##
##suggest##
##tionate##
##tongued##
##transpo##
##uaintan##
##actions##
##aintanc##
##antness##
##appelai##
##confide##
##convinc##
##ectable##
##educati##
##entativ##
##ependen##
##erousne##
##grandez##
##igerous##
##issaien##
##onnaiss##
##prometi##
##ractive##
##ramente##
##speakin##
##standin##
##tanding##
##thograp##
##usiness##
##-witted##
##atednes##
##ceptive##
##compara##
##convert##
##eabilit##
##egenera##
##forward##
##inguish##
##intance##
##itively##
##nousnes##
##onograp##
##profond##
##randeza##
##rescent##
##riferou##
##rsville##
##strange##
##tinguis##
##tisfact##
##trument##
##-mouthe##
##adminis##
##brained##
##calcula##
##ccasion##
##compani##
##ditiona##
##dminist##
##escribe##
##eusemen##
##goberna##
##influen##
##instrum##
##intermi##
##laborat##
##llowing##
##mentall##
##nisatio##
##nominat##
##nstrume##
##occasio##
##olation##
##ominati##
##onizati##
##onnecti##
##penetra##
##phalous##
##reeable##
##ropical##
##stomato##
##strumen##
##ulatory##
##compass##
##dential##
##develop##
##ercepti##
##esentat##
##inistra##
##nthropi##
##ntroduc##
##orative##
##oreille##
##propria##
##quasi-d##
##sanguin##
##tablish##
##-legged##
##amental##
##ammatic##
##barrass##
##contrad##
##control##
##eablene##
##ecimien##
##emember##
##ephalou##
##escuder##
##espondi##
##establi##
##forming##
##friends##
##functio##
##incipio##
##justice##
##llevaba##
##nometer##
##ntentio##
##nvenien##
##organiz##
##princes##
##produce##
##psychol##
##ransfor##
##recolle##
##remembe##
##rincipa##
##taining##
##ucation##
##ait-ell##
##aracter##
##aration##
##blastic##
##busines##
##charact##
##clusion##
##diction##
##embarra##
##entenda##
##erialis##
##familia##
##hthalmo##
##interme##
##lificat##
##mbarras##
##measure##
##merican##
##nterrup##
##onvenie##
##respons##
##sdichad##
##sensibl##
##simplic##
##smooth-##
##specifi##
##ssibili##
##suffici##
##surpris##
##terrupt##
##thetica##
##transfo##
##uplicat##
##well-co##
##-loving##
##acrific##
##ainable##
##ansform##
##arrange##
##cidenta##
##compren##
##cutting##
##daughte##
##dically##
##discove##
##dnesses##
##ducatio##
##essivel##
##feature##
##gnorant##
##ishable##
##militar##
##onality##
##oticall##
##paralle##
##picture##
##produci##
##ritical##
##romance##
##romorph##
##satisfi##
##sustent##
##tnesses##
##abandon##
##actical##
##arallel##
##assembl##
##behavio##
##carpous##
##ceremon##
##commerc##
##concept##
##cumstan##
##dividua##
##earance##
##eflecti##
##feuille##
##haracte##
##iligenc##
##inister##
##ircumst##
##iscover##
##literat##
##llusion##
##monarch##
##onizing##
##opathic##
##positiv##
##presenc##
##quinque##
##rcumsta##
##renegad##
##romatic##
##scienti##
##separat##
##tlessne##
##acciden##
##adednes##
##affaire##
##chemist##
##consult##
##dactyli##
##damente##
##demanda##
##demande##
##dicatio##
##ecollec##
##ellectu##
##favouri##
##flagell##
##guardar##
##iculari##
##imposib##
##ivement##
##lectual##
##ntempla##
##ommence##
##orially##
##osphere##
##philous##
##session##
##spiritu##
##suspend##
##tadores##
##talking##
##teriali##
##theolog##
##tionabl##
##transmi##
##tropism##
##ularity##
##ulement##
##welling##
##writing##
##-spirit##
##accompl##
##acknowl##
##cknowle##
##clusive##
##complim##
##concili##
##crowned##
##demonst##
##discour##
##echanic##
##elibera##
##espalda##
##evantar##
##flowere##
##gradeci##
##horizon##
##idental##
##ightene##
##ilizati##
##illumin##
##incipal##
##indulge##
##labilit##
##llamaba##
##llectua##
##mplimen##
##ndation##
##nedness##
##ntendai##
##ntinued##
##ochemic##
##ompensa##
##omplime##
##ophagou##
##ouverte##
##pastora##
##peranza##
##phorous##
##physiol##
##pliment##
##pograph##
##reement##
##rminati##
##speranz##
##tamento##
##twice-s##
##ycholog##
##agreeme##
##alquier##
##approch##
##aturali##
##carriag##
##concent##
##diately##
##dit-ell##
##entious##
##estatio##
##graphis##
##greemen##
##harmaco##
##hysical##
##lically##
##logisti##
##married##
##mentari##
##morphou##
##nsville##
##opicall##
##orphous##
##orrhaph##
##otomies##
##ountain##
##overpro##
##physica##
##rdadero##
##rovecho##
##spositi##
##stering##
##stimula##
##sycholo##
##taceous##
##tionles##
##uvieron##
##xistenc##
##aciendo##
##arrying##
##aventur##
##branche##
##ccompli##
##cientos##
##classic##
##ejercic##
##erament##
##ercicio##
##esophag##
##fertili##
##herapeu##
##jercici##
##leather##
##lowered##
##nservat##
##nsibili##
##ntement##
##oblasti##
##onfiden##
##orousne##
##orporat##
##ossessi##
##ostomat##
##ountera##
##pensati##
##probati##
##reveren##
##rosigui##
##self-di##
##sighted##
##sparate##
##sponden##
##ssivene##
##taneous##
##therape##
##tiferou##
##uninter##
##-covere##
##acterio##
##actiona##
##admirad##
##aordina##
##applica##
##avourit##
##conseil##
##contine##
##ctivity##
##ctomies##
##cualqui##
##econcil##
##ectomie##
##ediatel##
##essions##
##horough##
##hyllous##
##imation##
##ivation##
##laceous##
##minator##
##nouveau##
##nterpre##
##officer##
##opportu##
##periton##
##phyllou##
##portuni##
##ppelait##
##pportun##
##ppositi##
##pseudom##
##raordin##
##recogni##
##reconci##
##retourn##
##roscope##
##self-in##
##settled##
##stonish##
##superco##
##tativel##
##thoroug##
##tingnes##
##tuviero##
##uadrill##
##ualquie##
##written##
##aciousn##
##against##
##anation##
##cationa##
##complai##
##consist##
##contrib##
##ction's##
##ctorial##
##cuidado##
##curiosi##
##eighbou##
##entered##
##environ##
##erapeut##
##ermissi##
##ersvill##
##ertaine##
##evangel##
##feeling##
##ffectio##
##hubiese##
##hysiolo##
##iculati##
##ighbour##
##justici##
##labrado##
##liation##
##metabol##
##monious##
##ndiffer##
##nscript##
##ophilou##
##patient##
##pneumon##
##portanc##
##rapeuti##
##requent##
##sequent##
##siologi##
##stabili##
##synchro##
##tempera##
##ternati##
##tioning##
##turning##
##tuviera##
##uarante##
##vertebr##
##vourite##
##yonvill##
##ysiolog##
##aldehyd##
##artific##
##attenda##
##believe##
##bjectiv##
##castell##
##cultiva##
##discrim##
##eadedne##
##easonab##
##ectivel##
##egation##
##enetica##
##entable##
##eremoni##
##expecte##
##fective##
##headedn##
##hromato##
##hystero##
##ibution##
##ightful##
##imetric##
##isposit##
##ngement##
##ntrover##
##ontinen##
##ontradi##
##ontribu##
##orienta##
##pleased##
##pyramid##
##quasi-a##
##quisier##
##quisiti##
##rdinari##
##ributio##
##soldado##
##ssionis##
##uasi-in##
##vitatio##
##antonio##
##atograp##
##auberge##
##bjectio##
##bservat##
##cabrero##
##cessive##
##cologic##
##condens##
##democra##
##describ##
##endable##
##enegado##
##entiali##
##entiona##
##ersuade##
##gelatin##
##growing##
##ilitari##
##iminati##
##imperti##
##irectio##
##iscrimi##
##lectrop##
##lnesses##
##machine##
##mpertin##
##ncourag##
##ndescen##
##nnaissa##
##ocentri##
##ogistic##
##orrhagi##
##otation##
##otrophi##
##partial##
##program##
##referen##
##scrimin##
##serious##
##serpent##
##sophist##
##stemati##
##stretch##
##tariani##
##tempere##
##tropica##
##trouver##
##ubierto##
##ultural##
##usticia##
##-billed##
##-crowne##
##abrador##
##adventu##
##catholi##
##cautivo##
##civilit##
##e-shape##
##eaching##
##emaking##
##erfecti##
##erizati##
##extraor##
##geograp##
##iberali##
##ibranch##
##icencia##
##illustr##
##improvi##
##inement##
##magneto##
##minativ##
##nalized##
##natured##
##ntadore##
##oducing##
##onstant##
##ositive##
##paragra##
##patriot##
##perceiv##
##porphyr##
##ragraph##
##roducin##
##rofessi##
##servido##
##serving##
##sificat##
##spaldas##
##spondyl##
##themati##
##toothed##
##traordi##
##tructiv##
##ufficie##
##xpected##
##yoursel##
##'argent##
##accompa##
##altisid##
##asonabl##
##astonis##
##athered##
##atholic##
##balance##
##benefic##
##blephar##
##bourgeo##
##carrasc##
##chlorid##
##conceal##
##convict##
##cuderos##
##diferen##
##disait-##
##discipl##
##e-minde##
##ematica##
##enuncia##
##epressi##
##erabili##
##essioni##
##hallado##
##haviour##
##hematic##
##housand##
##increas##
##integra##
##isidora##
##istoric##
##iteness##
##ividual##
##ltisido##
##nistica##
##nstante##
##odontid##
##oncilia##
##passant##
##personn##
##petites##
##pterous##
##quarant##
##quasi-r##
##quement##
##ravilla##
##reserve##
##ristica##
##scudero##
##situati##
##spotted##
##sucedid##
##tension##
##terpret##
##thousan##
##tisidor##
##ucement##
##uniform##
##vangeli##
##-christ##
##aciousl##
##arizati##
##astella##
##atement##
##campagn##
##carboni##
##celebra##
##cesidad##
##chologi##
##citatio##
##contain##
##criados##
##deliber##
##discrec##
##dispose##
##dventur##
##ecesida##
##encerra##
##encoura##
##erfectl##
##expecta##
##franchi##
##heologi##
##hinking##
##hought-##
##imitati##
##inciden##
##interna##
##isaient##
##iscreci##
##iscreta##
##iticall##
##itivene##
##ituatio##
##lcanzar##
##ministe##
##moisell##
##mometer##
##mplemen##
##muchach##
##nconven##
##necesid##
##oiselle##
##oncentr##
##onversa##
##onvince##
##opathol##
##opinion##
##orously##
##ortiona##
##otropis##
##overcon##
##precipi##
##purpose##
##putatio##
##revolut##
##rfectly##
##rogress##
##ropriat##
##sabilit##
##sedness##
##sonable##
##spuesta##
##systema##
##ularize##
##vencido##
##willing##
##ystemat##
##ablemen##
##albumin##
##alculat##
##ampagne##
##antimon##
##apeutic##
##aragrap##
##atisfie##
##compose##
##conocer##
##current##
##demoise##
##deratio##
##diagnos##
##dispens##
##drawing##
##emoisel##
##empered##
##enaient##
##errible##
##estrech##
##eulemen##
##explain##
##habilit##
##hypothe##
##iablene##
##inizati##
##laryngo##
##marchan##
##matogra##
##minable##
##nalisti##
##nchiate##
##ndingly##
##noninte##
##onocido##
##ontenta##
##ourself##
##parlait##
##perador##
##phospha##
##pressib##
##ritable##
##rrhaphy##
##ruption##
##seuleme##
##sobrina##
##stitute##
##stricti##
##strophi##
##suppres##
##thinkin##
##ticipat##
##turally##
##twenty-##
##yllabic##
##'enfant##
##apitali##
##arrasco##
##athetic##
##attract##
##chamber##
##compres##
##cosette##
##crescen##
##ecessar##
##ehaviou##
##elieved##
##emotion##
##enciado##
##eureuse##
##exhaust##
##extensi##
##ferment##
##fluence##
##gratula##
##hydroge##
##immobil##
##institu##
##licenci##
##literar##
##mauvais##
##ncorpor##
##necessa##
##negocio##
##noncons##
##ntribut##
##osaurus##
##overcom##
##pleasur##
##ratenes##
##remedia##
##riaceae##
##riction##
##rtement##
##sequenc##
##stincti##
##tenance##
##terribl##
##tiality##
##toriall##
##tutiona##
##urprise##
##xtraord##
##ymmetri##
##aggluti##
##amiliar##
##anizing##
##apothic##
##astroph##
##chapeau##
##consigo##
##copical##
##donatio##
##ectatio##
##emperad##
##enation##
##eparati##
##esoluci##
##especta##
##flectio##
##gglutin##
##heureus##
##hicaire##
##hypnoti##
##iparous##
##iritual##
##isfacti##
##jective##
##judicia##
##lagella##
##ldehyde##
##membran##
##metalli##
##montreu##
##mostrar##
##mperado##
##observe##
##ommissi##
##ophorou##
##othicai##
##otional##
##paroles##
##petitio##
##placent##
##pothica##
##proprie##
##raphist##
##regular##
##rential##
##resoluc##
##ricular##
##riencia##
##rincesa##
##robable##
##rtation##
##scopica##
##staphyl##
##sventur##
##temeros##
##thicair##
##tholomy##
##tiation##
##titudin##
##torious##
##uppress##
##working##
##-bodied##
##-sur-me##
##absolut##
##acienda##
##adrille##
##agravio##
##alcohol##
##ambulat##
##bration##
##bstract##
##clothes##
##confusi##
##cumulat##
##depress##
##dineros##
##dmirado##
##doctrin##
##dressed##
##elessly##
##endenci##
##enograp##
##entione##
##eologis##
##eprehen##
##espuest##
##essible##
##estruct##
##examina##
##excelle##
##glutina##
##handsom##
##ializat##
##igenous##
##inspect##
##irement##
##keeping##
##ledness##
##lustrat##
##mmissio##
##mologic##
##nometri##
##noncomp##
##ntreuil##
##ofessio##
##ommenda##
##ontidae##
##ontreui##
##ordered##
##permiss##
##pplicat##
##quasi-f##
##raight-##
##ratulat##
##recipit##
##respues##
##scribed##
##secreta##
##sfactio##
##shoulde##
##spectab##
##stancia##
##superst##
##sur-mer##
##tracted##
##transit##
##ughters##
##uspenso##
##-toothe##
##achment##
##alterna##
##andsome##
##angelic##
##anxious##
##apercev##
##approac##
##attered##
##critica##
##definit##
##dificat##
##dispers##
##distanc##
##duchess##
##ectroph##
##english##
##entaliz##
##entions##
##ermined##
##ernatio##
##erologi##
##essenti##
##euil-su##
##ffected##
##fractio##
##hanging##
##houlder##
##ibiliti##
##icolous##
##ikeness##
##il-sur-##
##imagine##
##interfe##
##journal##
##l'enfan##
##l-sur-m##
##likenes##
##linatio##
##lingual##
##lishmen##
##maginar##
##meteoro##
##mpensat##
##ndicati##
##nection##
##nfluenc##
##nishing##
##nnement##
##nterrog##
##ocarpou##
##ochemis##
##officia##
##omplete##
##onfirma##
##opharyn##
##ortunat##
##ourgeoi##
##peculat##
##popular##
##populat##
##pproach##
##provinc##
##pudiese##
##quedaro##
##racious##
##rdinate##
##resolut##
##resolve##
##reuil-s##
##rhythmi##
##rialize##
##riation##
##rnament##
##rophobi##
##rtifici##
##sappoin##
##segunda##
##self-su##
##siderat##
##spectiv##
##sporang##
##square-##
##standar##
##tending##
##tisfied##
##torment##
##traditi##
##trative##
##treuil-##
##triple-##
##uedaron##
##uil-sur##
##urgeois##
##warrant##
##-coated##
##-produc##
##abstrac##
##abundan##
##accommo##
##aginaci##
##appreci##
##arasiti##
##aryngea##
##axillar##
##baptist##
##broncho##
##capable##
##carcino##
##ccommod##
##ceiving##
##cenciad##
##classif##
##cylindr##
##dactylo##
##deposit##
##destruc##
##desvent##
##duplica##
##eather-##
##ehearte##
##endeavo##
##ensibil##
##episcop##
##esventu##
##excepti##
##famille##
##firmati##
##getting##
##gressio##
##hospita##
##ialized##
##iations##
##ionalit##
##issance##
##istrati##
##itabili##
##leasing##
##lective##
##maginac##
##mberley##
##methodi##
##mettait##
##niversa##
##nnectio##
##ntional##
##obacter##
##omplexi##
##ontolog##
##ouvenir##
##peniten##
##pericar##
##pophysi##
##posible##
##pprecia##
##pretend##
##prudenc##
##reaking##
##reasona##
##regarda##
##ropriet##
##ructive##
##simismo##
##sociali##
##souveni##
##tentive##
##ternali##
##thering##
##timulat##
##turalis##
##ulousne##
##uscular##
##venient##
##walking##
##-nature##
##admirab##
##artedly##
##athemat##
##atology##
##attempt##
##bonheur##
##ceeding##
##cephala##
##chondri##
##cograph##
##compagn##
##complis##
##contest##
##economi##
##ellatio##
##encamin##
##ensuite##
##equence##
##esencia##
##estimat##
##exhibit##
##expansi##
##ficator##
##flatter##
##ghtened##
##gnation##
##gracios##
##gration##
##gryphon##
##hydrate##
##ificato##
##impatie##
##inously##
##lectrot##
##magnifi##
##meryton##
##mpatien##
##nardier##
##ndemain##
##neratio##
##ntenanc##
##ntermin##
##obation##
##obligad##
##occipit##
##ophilic##
##pendent##
##piritua##
##ppressi##
##publica##
##quently##
##raditio##
##rationi##
##rogenic##
##rolling##
##rtinent##
##scribir##
##setting##
##spirati##
##supposi##
##tantial##
##tendido##
##transfe##
##ulously##
##unicati##
##urement##
##usively##
##uspicio##
##ustenta##
##violent##
##ynchron##
##-t-elle##
##abitude##
##acantho##
##adition##
##affecte##
##angemen##
##ansport##
##apophys##
##artment##
##atterin##
##auricul##
##commoda##
##ctednes##
##culator##
##deliver##
##emberle##
##emporal##
##endemai##
##ficienc##
##fortuna##
##habitud##
##indiffe##
##iscipli##
##itement##
##judicat##
##lendema##
##lingnes##
##lligenc##
##meditat##
##monopol##
##murmura##
##nomical##
##nsively##
##ochroma##
##ommerci##
##ompress##
##onarchi##
##ophytic##
##opteryg##
##osities##
##partmen##
##poitrin##
##recover##
##refract##
##reprehe##
##rescenc##
##restait##
##resting##
##rophyll##
##rtunate##
##scandal##
##sciplin##
##sociati##
##stingui##
##stringe##
##stumbre##
##telegra##
##thiness##
##tolerab##
##torical##
##ucedido##
##uelleme##
##uggesti##
##untrans##
##urgical##
##voiture##
##ydrogen##
##'est-ce##
##-dessus##
##acuerdo##
##alement##
##allowed##
##atitude##
##autrefo##
##brought##
##castiga##
##chercha##
##composi##
##cratica##
##dablene##
##desenca##
##eartedl##
##ectioni##
##element##
##entrali##
##ertebra##
##essiven##
##estremo##
##haryngo##
##heistic##
##heteroc##
##hologis##
##icularl##
##indness##
##inizing##
##instinc##
##interve##
##isappoi##
##lescent##
##litical##
##lliform##
##mirando##
##ncentra##
##ndencia##
##nonsens##
##nouvell##
##nstinct##
##nsubsta##
##ntioned##
##oitrine##
##olithic##
##ophilis##
##orizati##
##ortunit##
##ouvelle##
##pemberl##
##pension##
##perativ##
##piratio##
##progres##
##qualifi##
##receive##
##recepti##
##rituali##
##rliness##
##rmative##
##rrectio##
##ryngeal##
##self-ex##
##semblai##
##siastic##
##stallin##
##stament##
##tamorph##
##templat##
##theisti##
##timient##
##togenic##
##tradict##
##trefois##
##typical##
##umstanc##
##usivene##
##utrefoi##
##vabilit##
##venesse##
##xcellen##
##-necked##
##-temper##
##acement##
##achroma##
##albarda##
##aminati##
##aternal##
##basilio##
##bresalt##
##carbona##
##competi##
##ctionat##
##despert##
##dientes##
##difficu##
##diograp##
##engaged##
##enomina##
##entendr##
##fficult##
##gations##
##henomen##
##hosphat##
##hydroph##
##ifficul##
##inconve##
##interpo##
##interre##
##iometer##
##lamenta##
##legitim##
##ligenci##
##llectio##
##longtem##
##mathieu##
##mations##
##mentira##
##mmercia##
##montesi##
##morphos##
##mouveme##
##mstance##
##mujeres##
##neutral##
##ngtemps##
##nistrat##
##ntesino##
##ntinent##
##numerat##
##obresal##
##ocardia##
##oductio##
##olerabl##
##ongtemp##
##ontesin##
##ophysic##
##opodous##
##opposit##
##osophic##
##ouvemen##
##overstr##
##patheti##
##pauvres##
##pecific##
##perando##
##permato##
##persuas##
##phenome##
##piscopa##
##predica##
##presbyt##
##pterygi##
##pterygo##
##purchas##
##quasi-m##
##ractica##
##ransfer##
##ranspor##
##reating##
##reciati##
##reforma##
##repress##
##restric##
##retrans##
##risatio##
##roplast##
##rrhagia##
##sements##
##sionary##
##sobresa##
##soundin##
##specula##
##sperand##
##ssentia##
##subscri##
##tainabl##
##tesinos##
##tinente##
##trating##
##twelve-##
##ultivat##
##uvement##
##visible##
##wrought##
##-fashio##
##aginati##
##ainment##
##anatomi##
##assiona##
##cabilit##
##cephalu##
##cluding##
##critici##
##ctionar##
##cularis##
##cumplir##
##dejando##
##disappo##
##discont##
##donnait##
##eathing##
##eligion##
##elqu'un##
##ensitiv##
##entemen##
##entramb##
##erchant##
##erienci##
##ernment##
##ersuasi##
##ervante##
##eserved##
##esident##
##esponsi##
##examine##
##explica##
##gestion##
##gmatica##
##gregati##
##harynge##
##hearing##
##heterop##
##hocepha##
##identif##
##igencia##
##inhabit##
##inousne##
##intende##
##intenti##
##meaning##
##missive##
##mmetric##
##mocrati##
##mpassio##
##mplicat##
##mposibl##
##nctiona##
##ndepend##
##nsforma##
##nsisten##
##ntendit##
##ntologi##
##ongratu##
##onnemen##
##ontroll##
##organis##
##ounterc##
##pearanc##
##pective##
##peratio##
##perpetu##
##portabl##
##promena##
##prophet##
##ptively##
##quelqu'##
##quieren##
##quieres##
##raising##
##ralizat##
##ranchis##
##returne##
##ricardi##
##righten##
##rogramm##
##running##
##russian##
##sensati##
##stances##
##stantly##
##sticate##
##strengt##
##structu##
##surface##
##syllabl##
##tandard##
##tential##
##thyroid##
##tournai##
##transcr##
##trength##
##tructur##
##tsville##
##twice-r##
##uelqu'u##
##uminous##
##uretero##
##uriosit##
##worship##
##'avocat##
##-breast##
##-breath##
##-cuttin##
##-voiced##
##accepte##
##acomoda##
##acontec##
##ademois##
##aesthet##
##agellat##
##agnetic##
##alescen##
##amation##
##arizing##
##asi-con##
##asimism##
##aturale##
##automat##
##bellied##
##benzene##
##bercula##
##chlorop##
##coagula##
##compone##
##conject##
##descrip##
##dinaire##
##dontida##
##ectomiz##
##ehensib##
##emocrat##
##emphasi##
##encanto##
##enchant##
##entific##
##eometri##
##ericard##
##estudia##
##evenait##
##finishe##
##fratern##
##germani##
##graphie##
##hthalmi##
##ibition##
##ilatera##
##illusio##
##improve##
##inished##
##interce##
##itablen##
##iterary##
##iversal##
##knowing##
##legando##
##literal##
##lizable##
##lutiona##
##mademoi##
##manners##
##miserab##
##mizatio##
##momento##
##mprovis##
##ncompre##
##ngering##
##normali##
##nterfer##
##ntiendo##
##nvinced##
##obligat##
##omagnet##
##onsenti##
##opistho##
##ovision##
##owering##
##potenti##
##preserv##
##pressin##
##pronoun##
##punctua##
##reconce##
##resenci##
##ressibl##
##restrai##
##riginal##
##rometid##
##rometri##
##scenden##
##servici##
##spiring##
##ssemble##
##ssimila##
##ssionat##
##stellan##
##stigmat##
##stricke##
##tantiat##
##testing##
##thermal##
##timenta##
##trained##
##transla##
##uential##
##vez-vou##
##viniese##
##vocatio##
##whisper##
##-spoken##
##a-t-ell##
##academi##
##acomete##
##adumbre##
##alheure##
##amorpho##
##antasma##
##appeara##
##appropr##
##arbitra##
##arterio##
##atizati##
##breaker##
##breakin##
##breaste##
##brother##
##cephaly##
##certifi##
##chevaux##
##conclud##
##congrat##
##contrai##
##croscop##
##culatin##
##dichado##
##earnest##
##eferenc##
##eguntar##
##emental##
##ensiona##
##ensitiz##
##eproach##
##escendi##
##esentes##
##estions##
##estrict##
##formula##
##hnologi##
##icatory##
##identia##
##implici##
##ingered##
##inherit##
##investi##
##itioned##
##ivility##
##l'avoca##
##llegand##
##lutinat##
##matosis##
##mercial##
##metamor##
##migrati##
##nalizat##
##neglect##
##neumato##
##nquille##
##nsidere##
##nsitive##
##ntradic##
##oglossa##
##omestic##
##omicall##
##oncerta##
##ontente##
##onverti##
##ophical##
##ophilia##
##ophonic##
##ordinai##
##orizing##
##orrupti##
##otechni##
##parates##
##phantas##
##ppearan##
##pressur##
##protein##
##ptional##
##ranscri##
##raphies##
##rdinair##
##regener##
##regimen##
##replace##
##reproac##
##require##
##robatio##
##scratch##
##sensual##
##sential##
##several##
##simesmo##
##sistenc##
##sociate##
##stomach##
##storias##
##supervi##
##suspect##
##tempest##
##therapi##
##tricken##
##vidence##
##yllable##
##-genera##
##-ridden##
##acchari##
##accharo##
##ahedron##
##alphabe##
##antamen##
##appeare##
##archica##
##atorily##
##barbari##
##beautif##
##cabello##
##cantame##
##chandel##
##ciative##
##civiliz##
##compute##
##conceiv##
##conjuga##
##crement##
##criptiv##
##cristia##
##cticall##
##ctually##
##digesti##
##dimensi##
##dingnes##
##directe##
##discern##
##display##
##distres##
##diversi##
##ecclesi##
##ecologi##
##enchyma##
##enterta##
##eralize##
##ericall##
##ersonas##
##ervicio##
##esadumb##
##esperab##
##estrain##
##evident##
##figurat##
##fingere##
##formali##
##fuerzas##
##galacto##
##haemato##
##hiciese##
##honesti##
##icizing##
##ictoria##
##indedly##
##iometri##
##llaient##
##lphabet##
##milagro##
##mistake##
##mountai##
##ncantam##
##ngratul##
##niaceae##
##njectur##
##nsivene##
##ntercom##
##ntertai##
##ntlemen##
##ntrario##
##obedien##
##oductiv##
##omologi##
##onjectu##
##onnecte##
##onologi##
##ophyllo##
##orescen##
##orthodo##
##partici##
##peciali##
##perturb##
##pesadum##
##ppropri##
##profund##
##propaga##
##racteri##
##raneous##
##relativ##
##remarqu##
##repeate##
##rophoto##
##roviden##
##rration##
##sadumbr##
##salping##
##sarcoma##
##scatter##
##speraba##
##stuvier##
##substit##
##sulphon##
##synthet##
##tements##
##terable##
##teratio##
##tiblene##
##tionize##
##toriali##
##transpa##
##uasi-re##
##ubstitu##
##uliform##
##urament##
##xillary##
##-americ##
##-finger##
##-german##
##-making##
##anesthe##
##anifest##
##anthrac##
##cardina##
##childre##
##chingly##
##chronic##
##cometer##
##contras##
##cretion##
##ctropho##
##cuadril##
##curious##
##dernier##
##discuss##
##dizatio##
##e-heade##
##eathere##
##elastic##
##enumera##
##ephalus##
##erablen##
##erencia##
##erizing##
##erybody##
##esencan##
##etition##
##eturned##
##everybo##
##felicit##
##fensive##
##fferenc##
##flexion##
##flowing##
##fortune##
##galvano##
##hfulnes##
##hibitio##
##imperia##
##incorpo##
##laissai##
##lighten##
##llumina##
##lternat##
##manifes##
##manlike##
##mineral##
##ncident##
##necesar##
##necessi##
##nemigos##
##ntalize##
##ntendre##
##nuestra##
##ogressi##
##omatica##
##oninter##
##ophosph##
##ophysio##
##organic##
##paratio##
##pelling##
##planchn##
##pleasin##
##politan##
##pondera##
##porangi##
##prepare##
##prosper##
##pusiero##
##ranslat##
##rdinati##
##reasted##
##reconna##
##riaceou##
##roduced##
##rofonde##
##rosings##
##rprised##
##sablene##
##secreto##
##seeming##
##sencant##
##sexuali##
##sically##
##sitiona##
##splanch##
##ssembla##
##stracti##
##strong-##
##telepho##
##tertain##
##ticness##
##tiempos##
##tometri##
##tomorph##
##tophobi##
##tractiv##
##tranger##
##treasur##
##tresses##
##tulatio##
##uncontr##
##untenan##
##usieron##
##vertibl##
##verybod##
##accepta##
##accumul##
##achable##
##activat##
##ademark##
##aderame##
##amentar##
##anistic##
##articip##
##assured##
##atherin##
##atrical##
##attribu##
##bligado##
##bronchi##
##categor##
##centrat##
##cerebra##
##changea##
##cheeked##
##cialmen##
##complia##
##daderam##
##declare##
##dentate##
##deramen##
##diploma##
##donaire##
##ecesari##
##ecessit##
##ecialme##
##eformat##
##egiment##
##elf-dis##
##eliness##
##emonger##
##enerate##
##enganza##
##enologi##
##entleme##
##entrait##
##epithel##
##eriment##
##ersuadi##
##estidad##
##estidos##
##etamorp##
##fficial##
##frighte##
##gallard##
##geometr##
##gistrat##
##heading##
##hemistr##
##histoir##
##ializin##
##ialment##
##imensio##
##inocula##
##interva##
##ionists##
##istoire##
##jointed##
##l'avait##
##lamente##
##leasure##
##lectron##
##legisla##
##llegado##
##luminat##
##maxilla##
##mension##
##merchan##
##mercuri##
##microsc##
##mperial##
##narrow-##
##ndicate##
##nestida##
##nianism##
##noncomm##
##nstrati##
##ochondr##
##ometime##
##ominate##
##onestid##
##onsiste##
##onvicti##
##ophylli##
##parable##
##pecialm##
##pectabl##
##perimen##
##phalang##
##pourrai##
##prejudi##
##provisi##
##ptation##
##pticall##
##quantit##
##rademar##
##ralness##
##rchical##
##rejudic##
##resisti##
##riental##
##ronounc##
##rovisio##
##rsonali##
##scarcel##
##sistanc##
##sometim##
##spectac##
##surrect##
##suscept##
##synthes##
##territo##
##tinatio##
##tradema##
##transve##
##tristes##
##vablene##
##venganz##
##vestido##
##xceptio##
##-cheeke##
##abellos##
##adyship##
##annered##
##antical##
##argumen##
##belleza##
##bstitut##
##cabinet##
##carcely##
##ccumula##
##clinati##
##condamn##
##condemn##
##contado##
##ddition##
##deserve##
##diffusi##
##e-color##
##ecipita##
##endence##
##enerali##
##enetrat##
##ensivel##
##entenci##
##epeated##
##eptical##
##erritor##
##ertiliz##
##erwards##
##escenda##
##estable##
##etalous##
##experim##
##extract##
##fabrica##
##foliate##
##fronted##
##hensibl##
##heterog##
##hildren##
##histica##
##hythmic##
##imulati##
##inabili##
##interla##
##intment##
##invitat##
##iserabl##
##itionis##
##kinetic##
##lativel##
##legraph##
##meeting##
##metimes##
##microco##
##mpanion##
##muscula##
##nconver##
##ndulgen##
##nements##
##nnected##
##nophobi##
##ntifica##
##ntinuai##
##ogeogra##
##ognathi##
##olitica##
##olition##
##ollowin##
##ommodat##
##ompanio##
##omplish##
##onomica##
##ontempt##
##oricall##
##oriness##
##osauria##
##petalou##
##phistic##
##pitheli##
##precons##
##radical##
##rangeme##
##rappela##
##rativen##
##reathin##
##respira##
##rgument##
##rialist##
##riptive##
##self-pr##
##siguien##
##sitting##
##soldier##
##sprinkl##
##suspici##
##thropom##
##toblast##
##troscop##
##ubjecti##
##uchacho##
##ultipli##
##urative##
##uricula##
##ustrial##
##utionar##
##vations##
##voulait##
##xperime##
##ycephal##
##-lipped##
##abdomin##
##accessi##
##additio##
##aggress##
##aminate##
##anguine##
##anicall##
##arities##
##avez-vo##
##bandonn##
##blaient##
##cantada##
##channel##
##cialize##
##cinatio##
##circuit##
##clastic##
##company##
##corrido##
##deavour##
##dentali##
##descuid##
##destroy##
##dolicho##
##e-leave##
##ecretar##
##ehensiv##
##elegrap##
##elighte##
##emicall##
##employe##
##enforce##
##erproof##
##escudos##
##executi##
##explana##
##extrava##
##eyville##
##followi##
##fordshi##
##hablene##
##hensive##
##herical##
##hundred##
##ilizing##
##importe##
##interse##
##ircular##
##irculat##
##isement##
##isposed##
##iterate##
##itiousl##
##ladyshi##
##lectrom##
##lepharo##
##lescenc##
##ligible##
##llustra##
##ltation##
##menting##
##mulatio##
##natenes##
##ndeavou##
##nsional##
##ntegrat##
##nterrom##
##nvitati##
##ogramma##
##ointmen##
##omenzar##
##ometido##
##omposit##
##onometr##
##orating##
##ordshir##
##oristic##
##ortance##
##otactic##
##periodi##
##persens##
##playing##
##polymer##
##poussai##
##ppeared##
##promesa##
##psychop##
##pulatio##
##radiate##
##ralized##
##rdshire##
##remonia##
##rodilla##
##romania##
##ronical##
##rtifica##
##shingly##
##similat##
##sionall##
##sitions##
##skinned##
##society##
##sourire##
##superex##
##superfi##
##surance##
##symboli##
##talized##
##tensive##
##terromp##
##terward##
##tomatic##
##tomatou##
##trograp##
##twice-a##
##twice-p##
##tyranni##
##umbling##
##unciati##
##venturo##
##versati##
##voyageu##
##welcome##
##well-re##
##xplanat##
##ympathi##
##yntheti##
##-bellie##
##-driven##
##affirma##
##ampmath##
##anchise##
##andedne##
##ardness##
##bilidad##
##blossom##
##breathi##
##caminar##
##caution##
##champma##
##comedia##
##committ##
##controv##
##counten##
##creatin##
##creatur##
##ctabili##
##cularit##
##culariz##
##dabilit##
##ddresse##
##dicated##
##eatured##
##echnica##
##eflower##
##egislat##
##ekeeper##
##elminth##
##emblaie##
##enefici##
##engagem##
##ensembl##
##entment##
##esolved##
##essieur##
##federat##
##further##
##gagemen##
##gastric##
##gements##
##gibilit##
##ginatio##
##gitatio##
##hampmat##
##homogen##
##iferent##
##importu##
##indigna##
##istiani##
##italize##
##journey##
##lastici##
##laughte##
##lettres##
##lissait##
##mblaien##
##messieu##
##mindedl##
##missibl##
##mmobile##
##motiona##
##mpmathi##
##mportun##
##nalizin##
##nciliat##
##nclinat##
##nfectio##
##nfident##
##ngageme##
##nlighte##
##nsemble##
##nstantl##
##ntalist##
##nterven##
##nthetic##
##ntingly##
##ochlori##
##ogastri##
##ontrove##
##ophisti##
##ountena##
##ounterr##
##ountert##
##passage##
##pmathie##
##preconc##
##prescri##
##procure##
##recebir##
##reeding##
##republi##
##rosigue##
##rtunity##
##scalier##
##scleros##
##sionate##
##slender##
##ssessio##
##ssieurs##
##sterili##
##tachmen##
##tousnes##
##triarch##
##ulphuri##
##volvier##
##wice-re##
##winter-##
##-pointe##
##abomina##
##absence##
##adament##
##ageable##
##amistad##
##analyti##
##answere##
##antable##
##appendi##
##archive##
##atizing##
##atrioti##
##attendr##
##avantag##
##bienven##
##bradora##
##breathe##
##buildin##
##buscand##
##caceous##
##cessary##
##charret##
##chnical##
##cialist##
##complic##
##compues##
##consoli##
##counsel##
##credita##
##crested##
##decorat##
##defende##
##derable##
##deutero##
##distrac##
##dmirabl##
##douceme##
##eaction##
##elabora##
##elegant##
##emistry##
##emperat##
##entence##
##envelop##
##epultur##
##erately##
##eritone##
##ermitte##
##erograp##
##escalie##
##escriba##
##essembl##
##estamen##
##exactly##
##fatigue##
##federal##
##ferente##
##grained##
##hallaro##
##hension##
##icrosco##
##iformes##
##ignatio##
##infecti##
##interdi##
##interli##
##istiana##
##istract##
##italian##
##iterati##
##latitud##
##lectroc##
##leonela##
##llamado##
##maginat##
##mitting##
##mmatica##
##moderat##
##nathous##
##nonconf##
##ochrono##
##odendro##
##odermat##
##omforta##
##ompuest##
##onforma##
##onising##
##opterou##
##ornamen##
##orologi##
##otentia##
##oucemen##
##ountere##
##ourable##
##ourrait##
##oussait##
##pancrea##
##paradis##
##pasaron##
##pastore##
##persist##
##porting##
##project##
##prospec##
##puestas##
##quedaba##
##racting##
##ragmati##
##reactio##
##rectomy##
##reinter##
##ressemb##
##ricultu##
##rifying##
##rotecti##
##rotesta##
##rvative##
##sait-il##
##scrutin##
##segment##
##sepultu##
##serable##
##sticati##
##strativ##
##suspiro##
##tractor##
##tudiant##
##twice-d##
##uilding##
##uisiere##
##uscando##
##-spotte##
##activit##
##aguarda##
##alborot##
##allaron##
##amiable##
##apporta##
##arrivai##
##asserti##
##astores##
##atriarc##
##auteuil##
##breedin##
##brusque##
##bstruct##
##caminan##
##cardiac##
##cendent##
##ciplina##
##climati##
##combina##
##compoun##
##dislike##
##driller##
##ecogniz##
##ecution##
##edition##
##eductio##
##egulati##
##enticul##
##equentl##
##equival##
##eregrin##
##erializ##
##erminab##
##ertford##
##ervativ##
##esignat##
##esperad##
##etourna##
##gnathou##
##helleni##
##hertfor##
##hloride##
##holding##
##hunder-##
##ialisti##
##ibuting##
##iedness##
##ielding##
##ienvenu##
##iliatio##
##innocen##
##interlo##
##interst##
##ismatic##
##ivalent##
##lecting##
##llegaba##
##lytical##
##microph##
##mologis##
##moralis##
##nalytic##
##neously##
##ntempor##
##ntransi##
##ognosti##
##ointing##
##ommande##
##ompassi##
##omplain##
##ompound##
##ondesce##
##ontrast##
##opsycho##
##osarcom##
##ospital##
##ouvrait##
##oyageur##
##patienc##
##peregri##
##poderos##
##pomorph##
##proposa##
##psychic##
##quiteri##
##ramatic##
##reation##
##reature##
##recebid##
##recimie##
##referid##
##reparti##
##retched##
##ributin##
##rmissio##
##scapula##
##scriptu##
##seeking##
##semblan##
##solatio##
##spirits##
##spring-##
##straine##
##tentati##
##terroga##
##tistica##
##toplast##
##ttentio##
##ttribut##
##uminati##
##umption##
##uthoriz##
##ventric##
##viction##
##world-c##
##-bottom##
##-sighte##
##-skinne##
##aconsej##
##admirat##
##advance##
##amentos##
##approba##
##aristic##
##astheni##
##atrevid##
##atrimon##
##attende##
##auvaise##
##averigu##
##blooded##
##borough##
##caballe##
##ceptibl##
##chronis##
##cibilit##
##compact##
##consona##
##convuls##
##crifice##
##culativ##
##dations##
##derecha##
##descubi##
##dolorid##
##ealisti##
##ediment##
##educate##
##egarder##
##elative##
##eligros##
##emblait##
##ensiven##
##eomorph##
##eristic##
##erlines##
##errogat##
##ersonne##
##escondi##
##escubie##
##etaboli##
##ethylen##
##exclusi##
##fauteui##
##favorec##
##fitting##
##fluorid##
##forster##
##furnish##
##ghtness##
##heaven-##
##heteros##
##ificate##
##ificial##
##igurati##
##illatio##
##incarna##
##inistic##
##intimat##
##ipotent##
##juramen##
##justifi##
##kishnes##
##lacemen##
##lassifi##
##lifying##
##linguis##
##loquent##
##lumines##
##lusieur##
##mannere##
##mejores##
##methane##
##mfortab##
##mirable##
##montagn##
##morphol##
##mplexio##
##nchroni##
##ncrease##
##neither##
##ngenios##
##nocepha##
##nswered##
##nterval##
##odontia##
##olorida##
##omprend##
##omycete##
##onducti##
##onformi##
##onishme##
##onopoli##
##onsonan##
##onymous##
##optosis##
##ospheri##
##pending##
##planati##
##plexion##
##plusieu##
##pollina##
##pprobat##
##precomp##
##premier##
##prohibi##
##psychos##
##quarrel##
##r-shape##
##radable##
##raversa##
##related##
##reprit-##
##reprodu##
##rillero##
##rohibit##
##romatop##
##rophili##
##rritori##
##rruptio##
##rtaient##
##rtfords##
##rthodox##
##saturat##
##scubier##
##semicon##
##sentado##
##sentido##
##sidered##
##sisting##
##spirit-##
##stained##
##stingly##
##stresse##
##sumptio##
##superio##
##surable##
##tatical##
##teringl##
##terolog##
##tfordsh##
##theatri##
##thermic##
##thology##
##tinuait##
##tourner##
##transce##
##tressed##
##trovers##
##trovert##
##twice-c##
##uestros##
##ulnesse##
##unconce##
##underpr##
##uperior##
##urchase##
##uscepti##
##usieurs##
##ustrati##
##vimient##
##vituper##
##volunta##
##vuestro##
##witness##
##ynthesi##
##-creste##
##-eating##
##-feathe##
##-marked##
##-tinted##
##aesthes##
##afterwa##
##agistra##
##ambitio##
##amorphi##
##anticip##
##apparen##
##aprovec##
##archaeo##
##assimil##
##atience##
##atories##
##au-dess##
##authent##
##bearded##
##biograp##
##cellent##
##cellula##
##cellulo##
##chanica##
##cholecy##
##cuchill##
##dedicat##
##desespe##
##dicator##
##disgrac##
##disinte##
##distill##
##dogmati##
##dormous##
##eceptio##
##electio##
##ement's##
##endarme##
##enlight##
##entimie##
##entranc##
##entrant##
##eproduc##
##equenti##
##eriodic##
##ernatur##
##esesper##
##estrell##
##etrogra##
##expedit##
##fficers##
##followe##
##fortabl##
##ggressi##
##ginning##
##gistica##
##gulatio##
##handedn##
##hanical##
##heatric##
##hedness##
##hunting##
##icially##
##icities##
##ictiona##
##idectom##
##idently##
##idities##
##igantes##
##ilicate##
##inaceou##
##initial##
##interpe##
##invenci##
##involve##
##iotropi##
##lanthro##
##located##
##magistr##
##mandait##
##margina##
##matized##
##mensura##
##million##
##molecul##
##moments##
##mostrab##
##naissai##
##ncamina##
##ncludin##
##ncontre##
##ntencia##
##ntimien##
##ntinuel##
##ogamous##
##olviese##
##onounce##
##ophoric##
##orifero##
##ormouse##
##osclero##
##ostraba##
##partner##
##peligro##
##perceva##
##permous##
##phenoid##
##pherica##
##pitaliz##
##plaisan##
##pultura##
##ramento##
##rapping##
##rateful##
##realist##
##redistr##
##reserva##
##resista##
##ridicul##
##riosity##
##rminate##
##rouault##
##sationa##
##scubrie##
##secreti##
##shallow##
##silicat##
##sionali##
##sistent##
##souffle##
##spermou##
##sphenoi##
##splendi##
##spondie##
##statica##
##stening##
##sternal##
##talizat##
##tlessly##
##toscope##
##trachea##
##tracheo##
##trembla##
##uarter-##
##uccessi##
##udicial##
##uiteria##
##unconte##
##uralist##
##uthenti##
##vaccina##
##vascula##
##ventaja##
##ventana##
##verigua##
##vesicul##
##vestiga##
##volatil##
##washing##
##-formed##
##-roofed##
##-yellow##
##acteria##
##admirac##
##aissaie##
##ancreat##
##angulat##
##anograp##
##anufact##
##archist##
##archite##
##ardinal##
##arthros##
##astoral##
##austral##
##berculo##
##bilitat##
##burning##
##cerebro##
##certado##
##changed##
##claimed##
##clamati##
##combust##
##concien##
##conquer##
##cordial##
##cussion##
##deceive##
##deseaba##
##dinario##
##disagre##
##diverti##
##dmiraci##
##dmirati##
##dressin##
##ectacle##
##edicati##
##egative##
##eheaded##
##ehensio##
##elebrat##
##emandai##
##encomen##
##ensativ##
##entendu##
##entreat##
##ephalon##
##erceive##
##eriness##
##erpetua##
##errestr##
##ersensi##
##espanta##
##evantad##
##faisant##
##florous##
##germina##
##globuli##
##harmaci##
##honrado##
##ickness##
##idrosis##
##ilement##
##illemen##
##inguist##
##inquant##
##iscount##
##itching##
##itizati##
##junctiv##
##lablene##
##laisser##
##lightin##
##llevado##
##lligent##
##locatio##
##lometer##
##lutioni##
##manufac##
##medicin##
##microsp##
##moderni##
##navigat##
##ncienci##
##ncomend##
##negotia##
##nerativ##
##nhabita##
##nifican##
##niously##
##nontran##
##ntended##
##ntialit##
##nticipa##
##ntolera##
##nutriti##
##ochrome##
##octrina##
##omorpha##
##ompetit##
##omplian##
##oncienc##
##onclude##
##onsulta##
##ontaine##
##ontrans##
##ophotog##
##oppress##
##opulati##
##ovincia##
##photome##
##plaisir##
##pouvoir##
##ppointe##
##punctur##
##purple-##
##quisies##
##rabajos##
##ranspar##
##ransver##
##reachin##
##reconfi##
##registr##
##retenti##
##rganize##
##ritoria##
##rnatura##
##rocessi##
##rovinci##
##sonvill##
##strated##
##superna##
##tativen##
##testame##
##themsel##
##thoraci##
##tivatio##
##tobacco##
##trabajo##
##ttracti##
##uisiese##
##ulifero##
##ultiple##
##umental##
##underco##
##utative##
##velling##
##y-minde##
##'entend##
##-braine##
##-featur##
##-growin##
##-horned##
##-jointe##
##aballer##
##acienci##
##aggerat##
##agramma##
##alabanz##
##angling##
##animate##
##antados##
##apparte##
##arbonat##
##arising##
##armonic##
##arrival##
##artemen##
##artiali##
##ascular##
##audrait##
##autogra##
##ayordom##
##bolical##
##bonhomm##
##breakfa##
##bserved##
##bsolute##
##cclesia##
##ccompan##
##chanter##
##chnolog##
##cipital##
##cologis##
##conclus##
##condesc##
##conspir##
##contami##
##contrap##
##couleur##
##created##
##criptur##
##ctomize##
##cuisine##
##currenc##
##denomin##
##diamond##
##diation##
##dicativ##
##disputa##
##disturb##
##ditions##
##dsville##
##eakfast##
##ectiven##
##elephon##
##ellular##
##emeroso##
##emselve##
##endered##
##enerous##
##enitenc##
##enthusi##
##ertible##
##estique##
##etation##
##eumatic##
##excelen##
##exercis##
##externa##
##facture##
##fically##
##fiction##
##fterwar##
##galvani##
##ganglio##
##golden-##
##gradabl##
##gratefu##
##gratitu##
##hablado##
##hemselv##
##hipping##
##holecys##
##humaine##
##hydroxy##
##iberate##
##iciousl##
##iciousn##
##iculous##
##ificall##
##iglesia##
##ilanthr##
##inarian##
##ing-roo##
##inologi##
##inquiri##
##ionisti##
##iplicat##
##isagree##
##isconti##
##iscopal##
##ispensa##
##kindnes##
##labanza##
##lenteme##
##lez-vou##
##licated##
##lightfu##
##llingly##
##llograp##
##lvieron##
##marchai##
##marquis##
##marshal##
##masters##
##mayordo##
##mestiqu##
##mistres##
##mmendat##
##mselves##
##ndersto##
##ndeterm##
##ndistin##
##neraliz##
##nership##
##nesthes##
##nfusion##
##ng-room##
##nspirat##
##nspirit##
##ntaient##
##ntamina##
##nticula##
##obliged##
##ocarbon##
##oclimat##
##odillas##
##oglobin##
##olecyst##
##ollowed##
##olviero##
##omestiq##
##onsolat##
##ontamin##
##oprotei##
##orchest##
##ormaliz##
##orphyri##
##ospecti##
##ounterm##
##pacienc##
##parthen##
##passing##
##pectacl##
##phabeti##
##philant##
##philips##
##plicabl##
##pouvant##
##predict##
##predisc##
##prinkle##
##prostat##
##quainte##
##quentia##
##radecid##
##ralizin##
##ramenta##
##ratitud##
##rchitec##
##rculate##
##reakfas##
##reathed##
##rements##
##resbyte##
##reticul##
##rodacty##
##rothera##
##rrupted##
##rstandi##
##rticipa##
##sosegad##
##sporous##
##sterial##
##stiness##
##strella##
##tainmen##
##termini##
##thentic##
##thermos##
##thoraco##
##thrombo##
##thusias##
##tomical##
##troduce##
##tuously##
##ualness##
##uctivel##
##urrecti##
##uthorit##
##visaged##
##volvies##
##xpresse##
##y-faced##
##-browed##
##-strick##
##acclima##
##aculate##
##agmatic##
##allegor##
##anspare##
##apologi##
##assista##
##ationar##
##attache##
##attachm##
##attitud##
##audienc##
##ausenci##
##autiful##
##beginni##
##bringin##
##broider##
##caminos##
##capacit##
##capsula##
##casting##
##cclimat##
##celerat##
##chitect##
##chlorin##
##ciently##
##cificat##
##conjunc##
##conozco##
##cotyled##
##daceous##
##dancing##
##defecti##
##defensi##
##derecho##
##descent##
##dificul##
##dliness##
##documen##
##eautifu##
##eceivin##
##eceptiv##
##ecompen##
##eginnin##
##elievin##
##eligiou##
##eptiona##
##eromorp##
##ersever##
##esbyter##
##eteorol##
##etracti##
##exagger##
##extreme##
##facilit##
##faudrai##
##generou##
##governm##
##harming##
##hilanth##
##honesta##
##ificult##
##igating##
##ightnes##
##imistic##
##inablen##
##inatory##
##install##
##inuelle##
##irostra##
##isition##
##istrust##
##ivities##
##l-shape##
##lacenta##
##lationa##
##lectrol##
##lieving##
##ligious##
##lorsque##
##mastoid##
##matrimo##
##melanch##
##microme##
##miliari##
##miratio##
##mitatio##
##morceau##
##mycosis##
##naesthe##
##naissan##
##nalness##
##narcoti##
##ncounte##
##negativ##
##neousne##
##neumono##
##ngulate##
##nitaria##
##noculat##
##nsparen##
##nstance##
##ntercha##
##ntering##
##nthusia##
##ntimate##
##ntrance##
##nvestig##
##nvictio##
##obernar##
##ocument##
##omputer##
##onhomme##
##onjunct##
##opulari##
##orpholo##
##ortatio##
##otyledo##
##out-of-##
##overnme##
##parecer##
##pectati##
##pection##
##perfora##
##perinte##
##philist##
##phyllum##
##plasmic##
##pointme##
##precont##
##preside##
##publish##
##puestos##
##qu'est-##
##querido##
##quilibr##
##radiati##
##ranscen##
##ransiti##
##ravaill##
##recipro##
##rhyncho##
##ringnes##
##rishnes##
##rocepha##
##ropping##
##roscopy##
##rpholog##
##sait-el##
##sclerot##
##segrega##
##sgracia##
##smanshi##
##stereot##
##stipula##
##supersu##
##talline##
##tation'##
##tematic##
##tership##
##thalami##
##ticated##
##tifiabl##
##tinuell##
##tivated##
##tometry##
##transpl##
##tricula##
##trifald##
##trologi##
##trospec##
##trumpet##
##ttachme##
##ttednes##
##ttentiv##
##tyledon##
##u'est-c##
##uisitio##
##uminesc##
##upposit##
##ureless##
##usencia##
##utionis##
##vernmen##
##victori##
##villano##
##vouring##
##well-de##
##world-s##
##xaggera##
##xtravag##
##ylamine##
##yordomo##
##-bright##
##-limbed##
##-manner##
##-ribbed##
##-visage##
##aborate##
##acousti##
##anscend##
##anthous##
##aphrodi##
##arcinom##
##arremet##
##arrogan##
##atrophi##
##bastant##
##bordina##
##bricate##
##camacho##
##chaient##
##chancel##
##charman##
##charmin##
##chiness##
##climato##
##cogniza##
##commode##
##confine##
##consecr##
##conseja##
##consign##
##coustic##
##d'argen##
##degener##
##delicat##
##dentifi##
##depreci##
##derivat##
##desgrac##
##desmaya##
##despech##
##dinatio##
##diously##
##disparu##
##dlessne##
##dwellin##
##e-faced##
##eciproc##
##ectible##
##eculati##
##elicate##
##ell-con##
##emoglob##
##enicall##
##entilat##
##eprecia##
##epublic##
##erially##
##ermanen##
##esgraci##
##estigat##
##eutrali##
##evaluat##
##ficativ##
##fitzwil##
##flation##
##formabl##
##galeras##
##glacial##
##granula##
##gratifi##
##gregate##
##hatever##
##heterot##
##homolog##
##horacic##
##icalism##
##igratio##
##inescen##
##informe##
##iniatur##
##initiat##
##irmatio##
##issible##
##isteria##
##itiousn##
##itzwill##
##lamatio##
##languag##
##leaning##
##lecture##
##liament##
##linesse##
##liograp##
##llectiv##
##lquiera##
##mabilit##
##minesce##
##miniatu##
##monogra##
##mytholo##
##ncorrup##
##nderous##
##nesthet##
##nfinite##
##ngelica##
##nguishe##
##nhearte##
##njuncti##
##nnatura##
##nsecrat##
##nsignif##
##nsonant##
##ntaneou##
##ntented##
##ntermed##
##nticall##
##ntoxica##
##ntracti##
##ntrambo##
##obscure##
##ochromi##
##ocrysta##
##offensi##
##ometers##
##onnaire##
##onsecra##
##onsolid##
##ontempo##
##ortaien##
##ossibil##
##othermi##
##ournait##
##ouverts##
##parteme##
##pensait##
##physici##
##placeme##
##pointin##
##posable##
##positor##
##possibi##
##posteri##
##poursui##
##pragmat##
##prochai##
##pulsive##
##pusiese##
##racioso##
##ractice##
##rapport##
##ratifie##
##reasure##
##recompe##
##reducti##
##respeto##
##ressure##
##reversi##
##ricatio##
##romised##
##rostati##
##rsuaded##
##segundo##
##selling##
##semi-in##
##sentien##
##sespera##
##sinistr##
##siology##
##siphono##
##sitivel##
##spanish##
##spectio##
##ssistan##
##ssnesse##
##strophe##
##subordi##
##surtout##
##taphylo##
##terless##
##terrest##
##therium##
##ticatio##
##tificio##
##tocrati##
##tongue-##
##tonishm##
##toxicat##
##tractin##
##trambos##
##travaga##
##tzwilli##
##ualitie##
##ubordin##
##udieron##
##umulati##
##uncompl##
##unconve##
##uteness##
##uttered##
##ventila##
##whateve##
##xpectat##
##y-heade##
##ytholog##
##zwillia##
##-bearde##
##-bearer##
##accinat##
##activel##
##aggrega##
##alforja##
##amenaza##
##anguage##
##anising##
##antagon##
##anticon##
##appeler##
##arthrit##
##article##
##assuran##
##ategori##
##atisfec##
##avicula##
##bernado##
##bordere##
##brachia##
##brachyc##
##bricati##
##cardiog##
##casiona##
##cinquan##
##coincid##
##complac##
##comprom##
##concord##
##contriv##
##convena##
##cribing##
##dendron##
##disgust##
##draught##
##ducible##
##ectuali##
##edingly##
##edistri##
##editati##
##efender##
##egitima##
##eistica##
##eligieu##
##embryon##
##encemen##
##entaria##
##erience##
##erinten##
##erpilla##
##estimon##
##evapora##
##gallant##
##gardant##
##geologi##
##graciou##
##hacerse##
##harmant##
##haunted##
##helmint##
##hermoso##
##hotomet##
##hropomo##
##iangula##
##icament##
##ichotom##
##iciency##
##iderati##
##ieuseme##
##igraphi##
##ileness##
##imagino##
##indepen##
##indigen##
##ingular##
##inhibit##
##inquisi##
##intensi##
##intrans##
##iplomat##
##irrigat##
##lanatio##
##lectrod##
##lements##
##lerable##
##licates##
##limenta##
##lishnes##
##llegori##
##logizin##
##mathema##
##menceme##
##microgr##
##mmencem##
##moglobi##
##mongeri##
##mphasiz##
##mulativ##
##ncontem##
##nerable##
##nescent##
##niaceou##
##nishnes##
##nominal##
##nonconc##
##nostica##
##nounced##
##nourish##
##nquante##
##nternat##
##nucleat##
##nuellem##
##oagulat##
##obernad##
##ociatio##
##ogizing##
##onablen##
##onclusi##
##ondelle##
##oplasmi##
##opolita##
##ormativ##
##orrecti##
##orrhoea##
##oseness##
##osphori##
##ounterf##
##ounteri##
##paralys##
##permane##
##pervers##
##phologi##
##pinnate##
##ponerse##
##postula##
##ppendic##
##ppointm##
##prenant##
##prestez##
##profesi##
##pseudoe##
##quadrat##
##raining##
##rasitic##
##rcinoma##
##reconnu##
##religie##
##request##
##rimenta##
##rinking##
##riqueza##
##ritorne##
##rlessne##
##rnished##
##rochemi##
##rogenou##
##rpillar##
##rthriti##
##rudence##
##satisfe##
##satisfy##
##scholas##
##scondid##
##scontin##
##scribin##
##scrupul##
##seminat##
##sentimi##
##sertion##
##skeleto##
##slipper##
##sophica##
##sosiego##
##sospech##
##stantes##
##sthenia##
##stomata##
##strator##
##structe##
##superca##
##supersa##
##talizin##
##tatoria##
##tendant##
##tenemos##
##terpill##
##testimo##
##thylene##
##tialize##
##tinctiv##
##tisfech##
##ttendai##
##tualist##
##turatio##
##uainted##
##uasi-pr##
##udgment##
##uncture##
##undersh##
##verable##
##versive##
##viduali##
##viendra##
##vindica##
##xistent##
##y-looki##
##accusat##
##aceable##
##adulter##
##agnetis##
##agradab##
##ailable##
##allocat##
##already##
##announc##
##appened##
##approve##
##aquelle##
##archand##
##arliame##
##armacie##
##arrette##
##asimesm##
##assical##
##astante##
##aujourd##
##babilit##
##bastard##
##biology##
##ccepted##
##ceivabl##
##ceptual##
##charged##
##choceph##
##cholast##
##chromop##
##cientif##
##ciferou##
##ciliate##
##cipitat##
##comodid##
##condesa##
##confuso##
##conomic##
##conteci##
##cranial##
##creativ##
##creyend##
##culturi##
##davanta##
##designa##
##dialect##
##digitat##
##directl##
##dvertid##
##dvertis##
##ealable##
##ectedne##
##efiniti##
##egardan##
##ejemplo##
##elancho##
##elf-com##
##elightf##
##eligibl##
##elimina##
##ellated##
##emander##
##empiric##
##emplati##
##endormi##
##endrait##
##enomena##
##entangl##
##entraro##
##enville##
##ercular##
##erminac##
##erminad##
##estamos##
##euilles##
##ffering##
##filling##
##formida##
##frisson##
##fruited##
##gendarm##
##glandul##
##graduat##
##guarant##
##haberle##
##half-co##
##hantasm##
##hesitat##
##hloroph##
##hnesses##
##holasti##
##humanis##
##humanit##
##iberati##
##ictions##
##ientifi##
##iflorou##
##igieuse##
##ignifie##
##ignment##
##imprude##
##incline##
##includi##
##iniform##
##interde##
##intoxic##
##irectly##
##irritat##
##isait-i##
##istered##
##iversit##
##ivision##
##judgmen##
##lambeau##
##lanches##
##lanchol##
##laquell##
##lassica##
##lasting##
##le-mind##
##lf-cons##
##llected##
##locuras##
##logized##
##loyment##
##malacia##
##mancebo##
##masculi##
##mbering##
##modidad##
##montait##
##mpositi##
##mpresse##
##mpruden##
##naphtha##
##natomic##
##ncipale##
##ncontin##
##ndaient##
##nexpect##
##nfinita##
##nfinito##
##nicatio##
##nifying##
##niversi##
##nscient##
##nsensib##
##ntagoni##
##ntednes##
##nterpro##
##nufactu##
##numerab##
##obstruc##
##ocution##
##olastic##
##olutely##
##omalaci##
##ombusti##
##omising##
##omodida##
##omplace##
##onfigur##
##ongerin##
##onvulsi##
##opercul##
##opomorp##
##oratori##
##orograp##
##ounterb##
##ounting##
##overexp##
##overhea##
##parfois##
##parliam##
##partida##
##pasados##
##pecador##
##pedazos##
##phthong##
##phylact##
##physico##
##pitalis##
##platoni##
##pondenc##
##pseudog##
##quadril##
##quadrup##
##radores##
##ralisti##
##reconst##
##refresh##
##ressant##
##resteza##
##resumpt##
##retical##
##reyendo##
##ributiv##
##rilling##
##riminal##
##rinkled##
##rliamen##
##robiolo##
##ropomor##
##rotecte##
##rporati##
##rticuli##
##sations##
##similar##
##singula##
##spected##
##sponsib##
##ssionar##
##stomous##
##striali##
##studian##
##succeed##
##symptom##
##taminat##
##tangent##
##tempori##
##ternate##
##thermop##
##tigmati##
##trenche##
##treteni##
##trevido##
##tricity##
##trictio##
##trophot##
##ualisti##
##uasi-de##
##ublican##
##ufactur##
##uminate##
##underse##
##upercon##
##upernat##
##urablen##
##urethro##
##uristic##
##valence##
##visitor##
##western##
##xplicat##
##xternal##
##-operat##
##-rooted##
##-struck##
##-tipped##
##acceler##
##acilida##
##aginous##
##agitati##
##alytica##
##andibul##
##aniacal##
##anipula##
##ansvers##
##antigua##
##archies##
##ardiogr##
##arriver##
##artisan##
##asculin##
##astique##
##aterpil##
##augment##
##blingly##
##bombard##
##boutiqu##
##bulator##
##cablene##
##cabriol##
##cademic##
##camarad##
##caterpi##
##cativel##
##centesi##
##cerrado##
##chlamyd##
##chronou##
##ciating##
##cilidad##
##compete##
##contact##
##contien##
##convien##
##coucher##
##creatio##
##cursive##
##decirle##
##demonio##
##diousne##
##dissolv##
##divisio##
##dominat##
##effecti##
##egister##
##egregat##
##eholder##
##eillard##
##ellable##
##eminate##
##empresa##
##enarian##
##endatio##
##endothe##
##eorolog##
##equilib##
##eratene##
##erentes##
##erently##
##erforat##
##erivati##
##ermenta##
##errupti##
##estanci##
##exceedi##
##facilid##
##feeding##
##fidence##
##forgive##
##formity##
##frontal##
##gastrop##
##ggregat##
##guarded##
##guratio##
##hallaba##
##happene##
##heterom##
##honneur##
##hronous##
##icabili##
##iciones##
##icrogra##
##idealis##
##ieillar##
##ierarch##
##imatolo##
##iminate##
##impleme##
##imulate##
##inctive##
##interch##
##intertr##
##invalid##
##ionnair##
##ionship##
##isinter##
##istened##
##isticat##
##istocra##
##itously##
##junctio##
##lantern##
##lcoholi##
##levaban##
##lforjas##
##licativ##
##licious##
##limitat##
##liquida##
##litaria##
##llitera##
##maginab##
##mandibu##
##maniaca##
##manipul##
##mendati##
##mortali##
##mputati##
##n-proof##
##ncircum##
##ncluded##
##ncommun##
##ncontro##
##neumati##
##nfedera##
##nfortun##
##niousne##
##nmental##
##noscope##
##nquisit##
##nscribe##
##nspirin##
##ntangle##
##nteract##
##ntraron##
##nuclear##
##occupat##
##ociated##
##oentgen##
##ogramme##
##oincide##
##ollecte##
##olonial##
##oluntar##
##onaliza##
##onaries##
##onforme##
##oplasma##
##opteran##
##orbital##
##ormidab##
##orphosi##
##osporan##
##ossesse##
##ostroph##
##otected##
##ountabl##
##oxidize##
##pacific##
##paradox##
##parecen##
##partout##
##perseve##
##phthisi##
##plankto##
##ploymen##
##polariz##
##premedi##
##private##
##proceed##
##pseudob##
##pseudol##
##ptivene##
##ransmit##
##rapture##
##rculari##
##rdaient##
##rdiogra##
##rebelli##
##recepto##
##remonst##
##reparat##
##resalto##
##restora##
##rfectio##
##rianize##
##ributed##
##roentge##
##ronomic##
##rostrat##
##roversi##
##rthines##
##samente##
##semipro##
##seudoco##
##sistant##
##sorrow-##
##sortait##
##ssifica##
##stuvies##
##sulphat##
##superab##
##swallow##
##teorolo##
##tereste##
##terogen##
##terrane##
##thermom##
##thicall##
##thirty-##
##three-s##
##thropic##
##tionnel##
##tmental##
##togenou##
##treated##
##triumph##
##ttiness##
##tualize##
##u-dessu##
##ubscrib##
##uitable##
##unterre##
##upation##
##uperint##
##usation##
##utomati##
##utterin##
##valuati##
##vaporat##
##verture##
##vieilla##
##visiona##
##vivemen##
##wledged##
##world-d##
##xceedin##
##ypograp##
##-bloode##
##-comple##
##-fronte##
##-fruite##
##-souled##
##-topped##
##acanthi##
##accusto##
##agabond##
##aissanc##
##aissant##
##alieron##
##anderin##
##anybody##
##arching##
##arecido##
##ariacea##
##asement##
##asional##
##atation##
##atified##
##atulati##
##bdomina##
##cancell##
##capilla##
##capitul##
##capular##
##catechi##
##ccupati##
##ccustom##
##celenci##
##changin##
##chauffe##
##chicken##
##cipales##
##clesias##
##colonia##
##commens##
##comment##
##compuls##
##concret##
##console##
##cording##
##cortico##
##cria-t-##
##cryptog##
##decirse##
##dehydro##
##desenga##
##dinaria##
##eatable##
##ecision##
##ectedly##
##ectivis##
##efactio##
##eferent##
##efranes##
##egistra##
##elencia##
##ellidae##
##ementar##
##emption##
##emunera##
##entenar##
##entless##
##entures##
##ephalom##
##erculat##
##erforma##
##escende##
##espanto##
##esticul##
##estrial##
##everenc##
##ffectiv##
##ffirmat##
##gedness##
##ghtless##
##glossal##
##gregori##
##habitan##
##hacerle##
##hiciera##
##houghts##
##iastica##
##immense##
##implice##
##impregn##
##imprimi##
##inducti##
##inkling##
##inspiri##
##ion-pro##
##iotical##
##isappro##
##ischarg##
##iscours##
##isgrace##
##ispleas##
##ithogra##
##kinesis##
##lankton##
##lastica##
##le-head##
##leading##
##learned##
##leaving##
##lender-##
##lesiast##
##leucocy##
##licable##
##ligatio##
##limited##
##listene##
##lomorph##
##loplast##
##lowerin##
##lubrica##
##mablene##
##machina##
##majesta##
##malicia##
##matopho##
##meningo##
##monolog##
##mplacen##
##mutatio##
##narchic##
##nchiata##
##nconsci##
##neering##
##nisteri##
##ntemper##
##ntiatio##
##ocating##
##ocative##
##offende##
##olently##
##ologise##
##omycosi##
##on-proo##
##ongeait##
##ontagne##
##opening##
##ophyllu##
##opriate##
##optimis##
##orializ##
##ornithi##
##oscilla##
##ospecha##
##ourhood##
##ournant##
##ovement##
##pacious##
##parecid##
##parents##
##pectora##
##peculia##
##perdido##
##perspec##
##phoenic##
##plicato##
##pposite##
##pprocha##
##prevail##
##propell##
##psychot##
##pulsion##
##quiesce##
##quisite##
##ranspla##
##rcharge##
##rdinary##
##reditab##
##refrane##
##regatio##
##registe##
##remblai##
##remiers##
##remuner##
##repetit##
##resembl##
##revenai##
##rgotten##
##ricalne##
##ritativ##
##robably##
##rounded##
##rovided##
##rrivait##
##rsement##
##sacerdo##
##scendai##
##scented##
##sciousn##
##scubrir##
##secular##
##self-ad##
##semaine##
##siderab##
##simulat##
##sincere##
##ssuranc##
##stellat##
##stigati##
##stockin##
##sulfuri##
##summer-##
##superac##
##supplic##
##synonym##
##tanical##
##tender-##
##tenosis##
##terfere##
##terlike##
##termitt##
##testabl##
##threate##
##tiating##
##togenet##
##tombait##
##torines##
##tournan##
##tractab##
##tremble##
##trimoni##
##trusive##
##tuality##
##turalez##
##tympani##
##ubricat##
##unctive##
##underli##
##upervis##
##upposed##
##urabili##
##uraient##
##uraleza##
##ureness##
##utinati##
##vagabon##
##venienc##
##violet-##
##vulgari##
##waiting##
##worthin##
##xcelenc##
##ynamics##
##ystallo##
##'esprit##
##-haunte##
##-stitch##
##-veined##
##-wrough##
##abilida##
##ablando##
##achieve##
##actable##
##afrenta##
##agricul##
##aintain##
##alogica##
##anchial##
##arietal##
##asi-com##
##astrono##
##atistic##
##atitudi##
##avement##
##bedient##
##blishme##
##bourhoo##
##cedness##
##centena##
##challen##
##cheerfu##
##chromic##
##cinchon##
##ciproca##
##clerica##
##conceit##
##concess##
##concurr##
##configu##
##confuse##
##cortica##
##cracker##
##cretari##
##crimson##
##ctibili##
##cupatio##
##d'abord##
##decided##
##demasia##
##depreca##
##devenir##
##dhearte##
##dimanch##
##dischar##
##displea##
##dissolu##
##distort##
##eatrica##
##eceptor##
##eculiar##
##eedingl##
##emasiad##
##embling##
##encarec##
##ensurab##
##entiate##
##eptible##
##equisit##
##erednes##
##erested##
##erostom##
##esented##
##esistan##
##esomene##
##esperta##
##ettered##
##eucocyt##
##evidenc##
##exclama##
##expense##
##exploit##
##ferenci##
##ffaires##
##filtrat##
##flower-##
##foolish##
##foreign##
##foresta##
##forgott##
##francia##
##ghbourh##
##ghtenin##
##glyceri##
##gnoranc##
##gregari##
##gricult##
##habland##
##halleng##
##hangeab##
##harrett##
##hbourho##
##heerful##
##hippoly##
##hreaten##
##htening##
##humilde##
##humilia##
##hypocri##
##hypophy##
##icalize##
##icipati##
##ighteni##
##imating##
##immorta##
##imperso##
##inction##
##infanta##
##insolen##
##interca##
##intersp##
##iomorph##
##ippolyt##
##iquiera##
##irected##
##issions##
##itualis##
##jecture##
##keleton##
##laminat##
##lancing##
##larizat##
##larized##
##lculate##
##licitat##
##lishing##
##lithogr##
##lorenzo##
##maintai##
##maladie##
##mancipa##
##mandado##
##maritor##
##marriag##
##matizat##
##memoria##
##mentous##
##mistica##
##mperson##
##mpetiti##
##multitu##
##municip##
##musical##
##n-heade##
##namente##
##nconfor##
##nderstr##
##neglige##
##nematog##
##nharmon##
##nnounce##
##noncorr##
##ntabili##
##nterlin##
##nterpol##
##ntimoni##
##oaching##
##obabili##
##occurre##
##oclasti##
##odramat##
##oecious##
##ognatho##
##olatili##
##olicita##
##omechan##
##omogene##
##omposed##
##onalise##
##onately##
##onfessi##
##onseill##
##opsychi##
##orgotte##
##oriousl##
##orophyl##
##oroscop##
##ostulat##
##osynthe##
##oursuiv##
##outique##
##patriar##
##persecu##
##personi##
##phrenic##
##pishnes##
##pondent##
##probabi##
##profita##
##prolong##
##promete##
##propiti##
##provabl##
##proving##
##puntual##
##quivale##
##ranchio##
##raterni##
##ravagan##
##reasing##
##recontr##
##reconve##
##removed##
##requisi##
##revenir##
##rfishes##
##riendas##
##rimeter##
##riologi##
##rmidabl##
##rminabl##
##rnalize##
##robabil##
##rophore##
##rossing##
##rovecha##
##rporate##
##rrelati##
##rremeti##
##rrestri##
##rsensit##
##rsonnes##
##rtmenta##
##rudente##
##saliero##
##sanglot##
##saurian##
##scarlet##
##schemat##
##self-im##
##semejan##
##sensibi##
##siquier##
##sograph##
##soledad##
##ssessed##
##statist##
##sticula##
##stigate##
##suceder##
##sulphid##
##sumptiv##
##sustain##
##tarines##
##technol##
##telling##
##tendres##
##tennial##
##testant##
##tialnes##
##timents##
##tinctio##
##tionari##
##tishnes##
##tlement##
##togenes##
##toplasm##
##tortion##
##transfi##
##tributo##
##trician##
##trophia##
##tructed##
##ttendan##
##ttingly##
##tuousne##
##turable##
##ualizat##
##uchilla##
##udiante##
##ulphure##
##utograp##
##venaien##
##vigilan##
##villain##
##yticall##
##zabilit##
##-consci##
##-filled##
##-graine##
##-seemin##
##-soundi##
##acquisi##
##actylou##
##admissi##
##adviert##
##afflict##
##agnific##
##agnosti##
##aisaien##
##aliment##
##alpingo##
##ambrosi##
##aminant##
##amoureu##
##aneousl##
##antiguo##
##apprais##
##aptisti##
##ariidae##
##aristoc##
##aritorn##
##arteria##
##atmosph##
##atorshi##
##avoured##
##believi##
##benevol##
##bibliot##
##bligati##
##briolet##
##brutali##
##bservan##
##canonic##
##carolin##
##carryin##
##ccessio##
##cesario##
##chronol##
##circuns##
##citizen##
##cogitat##
##collegi##
##comorph##
##compadr##
##compris##
##corpore##
##correla##
##corrien##
##corrobo##
##coutait##
##crutini##
##ctioniz##
##ctorshi##
##ctylous##
##cuentan##
##cyclope##
##dejaron##
##derriba##
##dessous##
##diagram##
##diamant##
##dicatin##
##discurs##
##ditatio##
##dreadfu##
##e-looki##
##easurab##
##ecially##
##econnai##
##ectness##
##ectrica##
##edicate##
##eilleur##
##elf-rep##
##elopmen##
##ematize##
##embrass##
##emophil##
##encierr##
##endorse##
##enester##
##entirel##
##entrica##
##enturer##
##eparate##
##ercuria##
##erebral##
##eriousl##
##erminal##
##erpreta##
##erturba##
##esiasti##
##esigned##
##esoluti##
##espejos##
##factori##
##famosos##
##ffensiv##
##fibrill##
##finitiv##
##flambea##
##gelical##
##gentile##
##gitimat##
##glomera##
##gradati##
##grosses##
##gulated##
##hepherd##
##honical##
##humaniz##
##hurried##
##ialised##
##icardia##
##ilating##
##illenni##
##imethyl##
##imoniou##
##inately##
##incompa##
##inifero##
##inistre##
##insensi##
##inspire##
##inventi##
##ionatel##
##iphenyl##
##iquidat##
##iscoura##
##isyllab##
##itornes##
##itousne##
##ivative##
##jectivi##
##l'ombre##
##l-minde##
##lariace##
##latrous##
##lectomy##
##lecular##
##lerical##
##lerosis##
##liaceou##
##limatol##
##litaris##
##lobular##
##lopment##
##lunteer##
##lusivel##
##lusiven##
##manding##
##marcher##
##marryin##
##meilleu##
##meliora##
##membere##
##metapho##
##millenn##
##mobiliz##
##modulat##
##moraliz##
##mortgag##
##mortifi##
##mothera##
##mousnes##
##mulated##
##nativel##
##naturel##
##ncarnat##
##ncreati##
##ncumber##
##ndibula##
##ndieron##
##netrati##
##ngeable##
##ningnes##
##nivorou##
##nizable##
##nliness##
##nnesses##
##nnocent##
##nogenes##
##nonsubs##
##ntercon##
##ntermit##
##nthesis##
##ntirely##
##ocialis##
##of-the-##
##olament##
##olatrou##
##oldados##
##olecula##
##oluntee##
##olymeri##
##omatosi##
##ombinat##
##ometeor##
##ompadre##
##omphalo##
##omplica##
##ompromi##
##oncerne##
##onfeder##
##onjugat##
##ontesta##
##ontinuo##
##ophagis##
##ophysis##
##opograp##
##ormable##
##orrelat##
##orrobor##
##orthine##
##ortrait##
##ostasis##
##othermo##
##othorax##
##otrophy##
##ouldere##
##ournali##
##parison##
##partite##
##patroni##
##payment##
##peciall##
##pensive##
##periost##
##picious##
##pictori##
##pirator##
##planche##
##pliance##
##poratio##
##portrai##
##possibl##
##preadin##
##predisp##
##prepara##
##printed##
##proviso##
##puisque##
##raphers##
##rchestr##
##readful##
##rentiat##
##rfulnes##
##rganiza##
##rialise##
##riginat##
##rincipl##
##ristocr##
##rminaci##
##rminado##
##rondell##
##ronolog##
##rrangem##
##rsation##
##rthogra##
##ructure##
##sanctif##
##scently##
##sequest##
##shepher##
##signati##
##siphona##
##slander##
##slaught##
##smiling##
##solutel##
##speckle##
##spiciou##
##stemmed##
##stenosi##
##strepto##
##stronom##
##subsist##
##superpo##
##superre##
##syllogi##
##symphon##
##tatious##
##tentiou##
##teously##
##terical##
##teritis##
##timonio##
##tivitie##
##tmaking##
##tocking##
##tothera##
##trachel##
##transmu##
##troduct##
##ttended##
##turaliz##
##twice-b##
##typogra##
##ubierta##
##uivalen##
##umptive##
##untable##
##uspiros##
##uvaient##
##velopme##
##ventera##
##ventral##
##viation##
##volunte##
##vulcani##
##xecutio##
##xhausti##
##ylindri##
##ymologi##
##younger##
##-branch##
##-of-the##
##-seekin##
##ablishe##
##ablishm##
##abriole##
##acabado##
##acerdot##
##acostum##
##addling##
##adiogra##
##admirar##
##affilia##
##ahedral##
##ajestad##
##amalgam##
##ambeaux##
##amphith##
##andardi##
##andelle##
##anglion##
##antatio##
##apitula##
##archait##
##archant##
##arrasse##
##artheno##
##ascerta##
##atrices##
##aturate##
##aunting##
##autorit##
##avorece##
##balleri##
##bibliop##
##bouquet##
##bulatio##
##calidad##
##captiva##
##carboxy##
##ccipita##
##cements##
##cending##
##cerning##
##chambre##
##chement##
##chistic##
##cholest##
##cleroti##
##closure##
##coloure##
##compari##
##congest##
##cquisit##
##cross-b##
##croyait##
##cunstan##
##cushion##
##cytosis##
##dacious##
##daderas##
##decompo##
##dictive##
##difying##
##dimenta##
##disguis##
##ditione##
##dominal##
##douleur##
##e-hande##
##eberrie##
##ecebido##
##echnolo##
##ecializ##
##ectabil##
##ectures##
##editate##
##efficie##
##efracti##
##endible##
##endingl##
##enevole##
##enseign##
##ensions##
##entionn##
##entrada##
##eprecat##
##erebell##
##erestin##
##ernaliz##
##ernally##
##erology##
##erstood##
##escency##
##escentl##
##esteros##
##ethnolo##
##europea##
##evision##
##exation##
##exposit##
##extingu##
##factory##
##finding##
##forzoso##
##fragmen##
##ganizat##
##gationa##
##gellate##
##giously##
##glement##
##gumenta##
##hemoglo##
##hepatic##
##hingnes##
##hometer##
##hondrom##
##hronolo##
##hyposta##
##ibratio##
##ibutive##
##icientl##
##idement##
##ificant##
##igmatic##
##ilingua##
##ilitate##
##imanche##
##immuniz##
##include##
##indemni##
##inednes##
##infiern##
##intervi##
##ircunst##
##isclaim##
##isectio##
##isfecho##
##itednes##
##itencia##
##ivating##
##killing##
##l'heure##
##lanchno##
##larynge##
##lationi##
##lectros##
##liating##
##library##
##lientes##
##llifero##
##luminou##
##lviendo##
##mangeai##
##mantici##
##markabl##
##meneste##
##mestica##
##meubles##
##mirados##
##mmortal##
##mospher##
##mplissa##
##mpregna##
##mptuous##
##murmure##
##nalised##
##narchis##
##narines##
##ncerned##
##ncertad##
##nciatio##
##nclusiv##
##ncurren##
##ncyclop##
##ndicula##
##ndiendo##
##nervous##
##nevolen##
##nexpres##
##nfierno##
##nfirmat##
##nformal##
##nformed##
##nicipal##
##nitenci##
##nogenic##
##nombres##
##nomenal##
##nomorph##
##nothera##
##nquilli##
##nsiblen##
##nsinuat##
##nsitize##
##nsolida##
##nstrict##
##nterior##
##ntiende##
##ntionne##
##ntraliz##
##nversat##
##obenzen##
##obstina##
##occupie##
##ociolog##
##ocytosi##
##odicall##
##ofessor##
##ogation##
##olviend##
##oncessi##
##onfusio##
##ongrega##
##onianis##
##oniousl##
##onogram##
##onsensi##
##onstrue##
##ophetic##
##orbicul##
##ormalis##
##ormalit##
##orthogr##
##ortifie##
##ortione##
##osotros##
##osphate##
##ostrate##
##ouliers##
##ounterd##
##oureuse##
##overing##
##palacio##
##palatin##
##parecie##
##parties##
##partiti##
##pecting##
##perator##
##perfici##
##pernatu##
##philism##
##pintado##
##postati##
##pportai##
##precept##
##preconf##
##printin##
##problem##
##protoco##
##pseudon##
##puertas##
##quasi-g##
##quasi-t##
##radiogr##
##ragment##
##ranched##
##rcunsta##
##reaming##
##reative##
##recient##
##redisco##
##redress##
##reventi##
##riangul##
##ricated##
##riculat##
##rifaldi##
##rillian##
##rimetri##
##rinting##
##ripping##
##riticis##
##roblast##
##rochant##
##rofesso##
##ropheti##
##roposal##
##rphosis##
##rushing##
##rusting##
##scendin##
##scertai##
##scissor##
##selecti##
##sentmen##
##shioned##
##short-s##
##sionism##
##sociolo##
##solamen##
##solidat##
##soluble##
##sparrow##
##spirato##
##steeple##
##sterous##
##sthenic##
##sticism##
##stimate##
##stimati##
##stimoni##
##storica##
##stracte##
##strateg##
##striped##
##submiss##
##suddenl##
##suffrag##
##supplia##
##syndica##
##tabular##
##talisti##
##teresti##
##teriliz##
##thimble##
##thnolog##
##tholici##
##thopter##
##thropop##
##timatio##
##tipulat##
##tisatio##
##tituted##
##tonical##
##triangu##
##uctions##
##uctiven##
##uddenly##
##udience##
##udinous##
##ulgence##
##umerabl##
##umiliat##
##uncircu##
##uncompa##
##undergr##
##unicipa##
##upporta##
##uropean##
##versifi##
##vertise##
##vicular##
##viscera##
##volvien##
##vosotro##
##well-in##
##whistle##
##xercise##
##xtingui##
##y-color##
##-border##
##-breaki##
##-flowin##
##-in-law##
##-letter##
##-should##
##-stemme##
##-stripe##
##abyrint##
##accorda##
##acertad##
##actioni##
##actuali##
##ailleur##
##ainting##
##aliento##
##allucin##
##amantes##
##amygdal##
##anarchi##
##androus##
##animati##
##ansplan##
##antipat##
##anville##
##apartar##
##aphthal##
##apostol##
##arative##
##arecerl##
##arnishe##
##aromati##
##arriero##
##atifica##
##bellaco##
##billets##
##binding##
##blished##
##bolshev##
##bundant##
##byrinth##
##cabaret##
##calling##
##calvini##
##captain##
##caustic##
##ccelera##
##cension##
##chillad##
##ciologi##
##cionado##
##circuma##
##cogniti##
##colloqu##
##coloniz##
##comedid##
##compasi##
##complem##
##confede##
##constri##
##consumi##
##converg##
##creasin##
##ctingly##
##ctitiou##
##ctrical##
##cularia##
##cylinde##
##decahed##
##decepti##
##delegat##
##derstoo##
##despedi##
##detener##
##diaboli##
##dibilit##
##digital##
##directo##
##dishnes##
##distant##
##ditoria##
##e-foote##
##eatment##
##ecedent##
##ecompos##
##ectasia##
##ectrosc##
##ederati##
##effectu##
##efishes##
##ejudice##
##elephan##
##ellulos##
##emarkab##
##employm##
##emporan##
##encyclo##
##endance##
##endency##
##enerabl##
##enerall##
##engendr##
##enience##
##ensibly##
##ensuali##
##ensuous##
##entomol##
##entrega##
##enzaron##
##epetiti##
##ephalia##
##ephemer##
##equestr##
##equivoc##
##erapist##
##erboard##
##ericani##
##ermatop##
##ernalis##
##errupte##
##erythri##
##esentab##
##esenter##
##estitut##
##estrian##
##ethical##
##etizing##
##eutical##
##excessi##
##exchang##
##faisaie##
##fantasm##
##feminis##
##feudali##
##ffectua##
##ffended##
##ffiliat##
##flutter##
##founder##
##freight##
##friendl##
##galeote##
##gastros##
##genical##
##genioso##
##genital##
##gervais##
##glyphic##
##gnition##
##governe##
##habitat##
##halluci##
##handell##
##harvest##
##hastily##
##henever##
##hevelle##
##hierarc##
##hilling##
##hlessne##
##holeste##
##hombros##
##honrada##
##hydrome##
##hyperbo##
##hyperco##
##idating##
##iderabl##
##iloquen##
##imonial##
##impassi##
##inaceae##
##inciple##
##iningly##
##initive##
##inquire##
##insiste##
##insular##
##interma##
##intuiti##
##ionarie##
##iothera##
##ircumsp##
##isingly##
##issante##
##istaken##
##istolog##
##ition's##
##ivalenc##
##judging##
##l'accus##
##l'argen##
##labyrin##
##latable##
##lf-cont##
##liturgi##
##lliance##
##locutio##
##lomerat##
##losophe##
##lostoma##
##ltivate##
##marcela##
##memorat##
##mendabl##
##menzaro##
##mesmeri##
##metallo##
##metaphy##
##metries##
##mmering##
##mplianc##
##mployme##
##mporane##
##nciones##
##nclusio##
##ndament##
##ndirect##
##necedad##
##nergeti##
##nescenc##
##nflamma##
##nipulat##
##nometry##
##nonconv##
##norante##
##norrhea##
##nrepres##
##nscende##
##nstrate##
##ntained##
##ntalism##
##ntendid##
##nterloc##
##nthrall##
##ntialis##
##ntivene##
##nvertib##
##ocarcin##
##ocellul##
##ociento##
##oculate##
##okinesi##
##olichoc##
##ologizi##
##olshevi##
##ometabo##
##omizing##
##ommunis##
##ompleme##
##omponen##
##oncurre##
##onsubst##
##onversi##
##operito##
##oralize##
##orialis##
##ostenos##
##otherma##
##otypica##
##ouble-s##
##ouncing##
##pansion##
##paramet##
##parente##
##parieta##
##pellent##
##periali##
##phthale##
##phthali##
##plendid##
##pleural##
##potheca##
##ppartem##
##pproche##
##precede##
##prefere##
##profesa##
##prolifi##
##provoca##
##quadric##
##quinone##
##quivoca##
##rachyce##
##rcement##
##reacher##
##reclaim##
##redesti##
##rehendi##
##remaine##
##remarka##
##repenti##
##replica##
##reproof##
##retablo##
##retende##
##retract##
##rheumat##
##rialism##
##riodont##
##roachin##
##rocurar##
##rogativ##
##romancy##
##ronogra##
##rophysi##
##rrogati##
##rseness##
##salaman##
##saliese##
##scopist##
##scourag##
##scuchan##
##seconde##
##sensuou##
##seventy##
##shelter##
##silveri##
##sitiven##
##souffra##
##sperado##
##spindle##
##spreadi##
##squemen##
##ssingly##
##stified##
##stinati##
##stumbra##
##suplico##
##swollen##
##syphili##
##t-minde##
##tampoco##
##tantali##
##tastrop##
##tection##
##tellano##
##tercomm##
##terline##
##thfulne##
##thmical##
##thorize##
##ticized##
##tomized##
##traffic##
##treason##
##tretche##
##trichin##
##tudinou##
##tuvache##
##ualized##
##udation##
##uldered##
##ultatio##
##ulturis##
##umentat##
##uncommo##
##undable##
##underta##
##unicate##
##unself-##
##unsuper##
##unterin##
##unterpr##
##uperind##
##urednes##
##urizati##
##utabili##
##utritio##
##valesce##
##variant##
##vedness##
##versali##
##vibrati##
##vitaliz##
##wardnes##
##wheneve##
##wrinkle##
##xpansio##
##ylation##
##ylinder##
##zealous##
##-gervai##
##-humour##
##-master##
##-rigged##
##-scente##
##-second##
##abricat##
##accentu##
##achevel##
##achroni##
##achycep##
##acramen##
##acteris##
##actinom##
##adereza##
##african##
##agnetiz##
##agnosis##
##agraphi##
##ambling##
##ancipat##
##anction##
##andaban##
##andedly##
##angeait##
##animali##
##animous##
##apillar##
##aringly##
##arsenic##
##ascinat##
##aspirat##
##assion-##
##astigat##
##astness##
##astrolo##
##athedra##
##atorium##
##attendi##
##aturall##
##aturati##
##autious##
##banquet##
##benefit##
##blachev##
##blastom##
##bottome##
##builder##
##bundanc##
##cardial##
##casquet##
##catalog##
##cathedr##
##ccessor##
##cerrada##
##chevell##
##chyceph##
##cicatri##
##cipline##
##circumv##
##clerosi##
##consume##
##contagi##
##courant##
##courtes##
##crament##
##crospor##
##cross-f##
##cross-s##
##ctrosco##
##curioso##
##cyanide##
##denatur##
##departm##
##dership##
##deshonr##
##devenai##
##dicione##
##dicular##
##disappr##
##discoun##
##dismiss##
##dissent##
##dissipa##
##distrai##
##dormait##
##doubted##
##douceur##
##ducated##
##e-tongu##
##eagerly##
##ecahedr##
##ectoral##
##ectroly##
##ectrome##
##edestin##
##ednesse##
##egligen##
##egotiat##
##eighbor##
##emaster##
##ematogr##
##embered##
##embrace##
##encedor##
##enching##
##engthen##
##enounce##
##entecat##
##enteric##
##enteroc##
##entrati##
##entricu##
##eontolo##
##epalous##
##epartme##
##epositi##
##equally##
##ercevai##
##ercharg##
##ergence##
##ergetic##
##ericord##
##ernacul##
##ernador##
##erogene##
##ertific##
##erventi##
##erweigh##
##eservin##
##esidenc##
##esmayad##
##espacio##
##estorba##
##estward##
##etching##
##etitive##
##exemple##
##explosi##
##faltaba##
##fascina##
##ferable##
##fervesc##
##ficiall##
##floccul##
##floweri##
##formist##
##frecimi##
##fulfill##
##geaient##
##gesticu##
##gestive##
##ghteous##
##gobiern##
##greater##
##guistic##
##gularit##
##habilid##
##habitua##
##herapis##
##heredit##
##herwise##
##houseke##
##huissie##
##hycepha##
##ialisin##
##idaceae##
##idering##
##ighteou##
##igorous##
##imentar##
##imentat##
##imparti##
##ingling##
##insinua##
##ipation##
##isait-e##
##iserico##
##isieres##
##isitive##
##istenin##
##italist##
##itarist##
##itizing##
##itudini##
##itudino##
##izingly##
##kedness##
##lacheve##
##lachrym##
##larness##
##lashing##
##latiniz##
##lephant##
##lepidop##
##liabili##
##licitud##
##ligieus##
##lindric##
##ll-like##
##llating##
##llegase##
##lobster##
##looming##
##ltering##
##malades##
##mbroide##
##mediati##
##mentabl##
##menteca##
##methyla##
##micomic##
##microbi##
##middle-##
##miseric##
##mmensur##
##monoton##
##mulatin##
##mycetes##
##n-color##
##n-faced##
##n-shape##
##nadores##
##narices##
##ncommon##
##ncompas##
##ncomple##
##ndently##
##nductiv##
##nestero##
##nfessio##
##nguisti##
##nicotin##
##nipoten##
##nondist##
##noplast##
##nquirie##
##nsativo##
##nsplant##
##nstanti##
##nsuppor##
##nsurabl##
##ntrical##
##ochromo##
##ococcus##
##odiagno##
##oecolog##
##ofrecim##
##ographs##
##olicall##
##olizing##
##ollegia##
##oloured##
##ominabl##
##ommanda##
##ompeten##
##oncerti##
##oncontr##
##ondensa##
##onomato##
##onstric##
##onviene##
##ophotom##
##opoliti##
##opteris##
##oralist##
##ospondy##
##osporou##
##ostilla##
##otestan##
##otheist##
##ouvrier##
##overdis##
##ovidenc##
##oxygena##
##papillo##
##parient##
##parochi##
##percuss##
##phanero##
##phlegma##
##phonica##
##physial##
##piniona##
##pondyli##
##pondylo##
##portati##
##pparent##
##ppolyte##
##pposing##
##prairie##
##pressor##
##presump##
##proacha##
##prognos##
##proleta##
##prosecu##
##prosely##
##ptibili##
##pulmona##
##quasi-h##
##quiries##
##ractabl##
##ragemen##
##raighte##
##rbicula##
##rbonate##
##rceptio##
##reached##
##receivi##
##renchym##
##rescrip##
##resurre##
##retrouv##
##revente##
##ributor##
##righteo##
##rivativ##
##rizable##
##roachab##
##roborat##
##rogatio##
##rolific##
##romenad##
##romesas##
##rosecut##
##rostomy##
##rostros##
##rotechn##
##rotherm##
##rtition##
##ruptive##
##sacrame##
##sanctio##
##sceptib##
##schisto##
##schoolm##
##scutell##
##sepalou##
##sericor##
##sianism##
##solvabl##
##sophago##
##soulier##
##soupira##
##souther##
##spicion##
##stednes##
##stirrin##
##suasion##
##sublime##
##t-gerva##
##t-shape##
##tationi##
##tatisti##
##tenesse##
##teriori##
##testati##
##testigo##
##teutoni##
##thalass##
##thearte##
##thfully##
##ticizin##
##tirring##
##tleman-##
##tliness##
##tocepha##
##tologie##
##tolysis##
##tomolog##
##tosilos##
##tralize##
##traumat##
##treinta##
##triotic##
##trolled##
##trusion##
##tumbrad##
##ualifie##
##uasi-ex##
##ucleate##
##udencia##
##uisitiv##
##uissier##
##ularnes##
##umerati##
##undered##
##underre##
##unequal##
##unpleas##
##uperfic##
##upersen##
##upplica##
##upright##
##uralize##
##urrence##
##ustrate##
##vencedo##
##verness##
##vestida##
##vincial##
##winding##
##world-a##
##wreathe##
##xaminat##
##xanthin##
##xcessiv##
##xhibiti##
##yptogra##
##zoologi##
##'appell##
##-ground##
##-inspir##
##-string##
##-though##
##-throat##
##acertar##
##acilita##
##adation##
##admitte##
##alified##
##allianc##
##allonge##
##aluatio##
##analyze##
##angeabl##
##anifies##
##annibal##
##antidad##
##antique##
##aphysic##
##applaud##
##arthrop##
##artitio##
##ashione##
##ativity##
##avalier##
##berculi##
##bitable##
##brillia##
##broken-##
##bscribe##
##carious##
##cathart##
##cautiou##
##ccipito##
##celesti##
##cendait##
##censure##
##chablen##
##charita##
##chemati##
##christe##
##chromos##
##chronog##
##cizatio##
##claimer##
##cleanin##
##cognize##
##commemo##
##compell##
##confian##
##congreg##
##coopera##
##coralli##
##cortesa##
##cosmopo##
##crograp##
##d-heade##
##d-looki##
##dectomi##
##delinea##
##desnudo##
##diaphan##
##dichoto##
##diphthe##
##divided##
##docteur##
##dontoid##
##e-bound##
##eachabl##
##eadable##
##easured##
##ecifica##
##ection'##
##ectivit##
##eculari##
##ecutive##
##edicina##
##edulous##
##egmenta##
##egulate##
##elating##
##ellipti##
##emained##
##emblanc##
##emediar##
##emejant##
##emented##
##encuent##
##endicul##
##endocri##
##energet##
##engross##
##enicity##
##eniente##
##ensione##
##entesis##
##entgeno##
##enthral##
##entiros##
##entrado##
##enturas##
##erables##
##eractiv##
##eraient##
##eralist##
##eranzas##
##erences##
##erpower##
##errompi##
##ersatio##
##ersecut##
##escuadr##
##escuido##
##esentme##
##eservat##
##eshonra##
##especho##
##estical##
##etarian##
##ethodic##
##etit-ge##
##euphoni##
##evelopm##
##evented##
##eventy-##
##exclaim##
##execute##
##expliqu##
##extermi##
##fantast##
##ffusion##
##fortifi##
##fortnig##
##frictio##
##generic##
##genicit##
##gitated##
##gnified##
##gorical##
##granulo##
##grating##
##gravita##
##ground-##
##guardad##
##guished##
##handedl##
##hispani##
##horribl##
##husiast##
##hyperse##
##iagnosi##
##icitous##
##iendrai##
##iercing##
##iglotti##
##ilitati##
##illiont##
##inclusi##
##incompl##
##incompr##
##inconsi##
##ing-out##
##inistro##
##ionably##
##iosidad##
##iphther##
##it-gerv##
##itrogen##
##ivistic##
##jaculat##
##jealous##
##jeopard##
##l-heade##
##lanting##
##leheart##
##lenesse##
##licatin##
##licidad##
##licitou##
##lighter##
##liminat##
##lington##
##little-##
##llennia##
##llionth##
##lliptic##
##llowish##
##lometri##
##loratio##
##lorimet##
##ltiplic##
##lturist##
##luation##
##lugares##
##maceous##
##maisons##
##manifie##
##manteau##
##mantica##
##marking##
##matizin##
##mbellis##
##mejante##
##melling##
##midable##
##miferou##
##mnation##
##monical##
##mplicit##
##mposure##
##mpromis##
##munerat##
##muraill##
##ncerrad##
##ncierra##
##ncommen##
##ncuentr##
##ndigest##
##ndresse##
##neologi##
##nephrit##
##nerally##
##neumoni##
##ngulari##
##nherita##
##nificen##
##nifiest##
##noblast##
##nogenet##
##nondefe##
##nondisc##
##nonspec##
##noscopy##
##nspecte##
##nternal##
##ntestin##
##ntology##
##ntricul##
##o-opera##
##obscuri##
##ocarpus##
##odontoi##
##oflagel##
##oilette##
##olester##
##olicitu##
##olizati##
##omatoph##
##omenade##
##ommemor##
##onabili##
##onceive##
##onceptu##
##onconte##
##opodium##
##oraneou##
##ortesan##
##ortnigh##
##osament##
##osophis##
##ospermi##
##ospermo##
##ostraca##
##ostraci##
##otrichi##
##ouble-b##
##ouching##
##ousekee##
##ouvertu##
##ouvrage##
##oversta##
##painful##
##painted##
##pantalo##
##parabol##
##paravan##
##parenta##
##pasteur##
##pedagog##
##pendicu##
##persigu##
##petit-g##
##petitiv##
##philipp##
##phoneti##
##phyllos##
##piercin##
##piernas##
##platitu##
##plissai##
##plomati##
##plurali##
##poiesis##
##poietic##
##polychr##
##pplicab##
##pre-exp##
##primiti##
##provoke##
##proxima##
##ptistin##
##puritan##
##putable##
##quelles##
##raiment##
##ranches##
##ransmut##
##rchange##
##reatmen##
##rebuzna##
##recerle##
##regrett##
##rejoice##
##relieve##
##renceph##
##renvers##
##reograp##
##repared##
##reposit##
##resenti##
##resentm##
##rializa##
##rinatio##
##rissonn##
##rmanent##
##rniture##
##rodynam##
##roelect##
##rogenes##
##rojecti##
##romagne##
##rometry##
##roselyt##
##rowning##
##royalis##
##rtebral##
##rtified##
##rtnight##
##rumenta##
##rusquem##
##s'appel##
##salicyl##
##scintil##
##sconten##
##self-po##
##shments##
##sicknes##
##silenci##
##slumber##
##souffla##
##ssiness##
##ssioned##
##stalliz##
##stershi##
##sticize##
##stinate##
##strolog##
##subsidi##
##superde##
##superma##
##talness##
##tangula##
##taphysi##
##tellate##
##tendenc##
##tercera##
##termedi##
##ternall##
##terror-##
##therwis##
##thritis##
##thropol##
##tifical##
##tigatio##
##tionnai##
##tistine##
##tit-ger##
##toilett##
##topping##
##totroph##
##totropi##
##traidor##
##traitor##
##travel-##
##treatme##
##tretene##
##tropous##
##ttement##
##ttlemen##
##ttsvill##
##tuating##
##tudinar##
##tuviere##
##twice-t##
##tymolog##
##ubmissi##
##uissant##
##ularise##
##ulators##
##umbered##
##unctuat##
##underin##
##unsford##
##uraille##
##uriousl##
##urnishe##
##usekeep##
##uspende##
##usqueme##
##uvertur##
##vaginal##
##valuabl##
##vourabl##
##xtermin##
##yperbol##
##ypophys##
##aballos##
##accroch##
##activen##
##aggrava##
##alizabl##
##alkalin##
##allaien##
##alveola##
##alvinis##
##ameless##
##amorosa##
##anachro##
##analogi##
##analysi##
##ancemen##
##aneousn##
##angioma##
##anisati##
##annihil##
##anologi##
##antasti##
##anthace##
##anthoph##
##antiati##
##aphoris##
##apporte##
##aptivat##
##aralysi##
##arboxyl##
##ariousn##
##ashamed##
##assaien##
##assment##
##asurabl##
##asyllab##
##atabili##
##atulate##
##auditor##
##autolog##
##avourab##
##byshire##
##caballo##
##calizat##
##careful##
##carnati##
##carreau##
##carrera##
##ccentua##
##ccessib##
##ccessiv##
##ccompag##
##ccusati##
##chatter##
##chemise##
##ciliati##
##cintill##
##circumc##
##comenda##
##commodi##
##commuta##
##congres##
##conical##
##consump##
##contort##
##contrav##
##coverin##
##crooked##
##ctifica##
##ctualis##
##cuantas##
##culptur##
##decarbo##
##dectomy##
##deferen##
##dentall##
##derbysh##
##destina##
##diablos##
##dicable##
##diffici##
##diffuse##
##diminis##
##disclai##
##discord##
##dissimu##
##dresser##
##e-taile##
##eaceous##
##ebellio##
##eceived##
##ecessio##
##ecomman##
##editabl##
##eficien##
##egmatic##
##elf-pro##
##ematous##
##embelli##
##emblant##
##embroid##
##emigrat##
##eminati##
##emisphe##
##emonial##
##empest-##
##encount##
##encubri##
##endress##
##endroit##
##enferme##
##enlarge##
##enoidal##
##ensable##
##entacul##
##enteros##
##entiati##
##envoyai##
##eorgani##
##ephalis##
##ephriti##
##epiderm##
##epistol##
##eposses##
##erators##
##erbyshi##
##erminis##
##erophil##
##erprodu##
##estment##
##estorat##
##esumpti##
##esurrec##
##etallic##
##etaphys##
##etologi##
##euphemi##
##expedie##
##falling##
##fatigab##
##favorab##
##favoura##
##fighter##
##figured##
##financi##
##finemen##
##fluores##
##fringed##
##gginess##
##ghtedne##
##gmentat##
##guiente##
##gulatin##
##hacerme##
##halangi##
##half-in##
##heathen##
##hentica##
##heterod##
##hironde##
##hlorina##
##honesto##
##honogra##
##houghtf##
##hroated##
##hrough-##
##htednes##
##hunsfor##
##hydroch##
##hydroly##
##iagraph##
##ialitie##
##ibrilla##
##icablen##
##icephal##
##ichroma##
##icising##
##ifficil##
##ightedn##
##iguient##
##ilencie##
##ilingly##
##illable##
##illeurs##
##imilati##
##iminish##
##inaugur##
##incrust##
##indiscr##
##ineness##
##inently##
##inflati##
##inoscop##
##intenci##
##interac##
##interne##
##intrica##
##ipinnat##
##irector##
##irondel##
##isadvan##
##iscient##
##iscreto##
##iscussi##
##isomeri##
##issimul##
##itionar##
##ittance##
##itudina##
##izabili##
##lamella##
##landers##
##leisure##
##lencieu##
##limbing##
##litting##
##loading##
##lobulin##
##lorophy##
##lymphan##
##maestre##
##malandr##
##malicio##
##mastica##
##matidae##
##mblance##
##merable##
##merical##
##migrate##
##mispher##
##mometri##
##morphin##
##mpagnie##
##mphatic##
##mplifie##
##nalisin##
##nalysis##
##nceptua##
##nconstr##
##nctions##
##ndardiz##
##ndescri##
##ndiscri##
##nductor##
##neficia##
##neville##
##nexhaus##
##nfidenc##
##nflower##
##nicalne##
##niformi##
##nitroge##
##nobserv##
##noncond##
##nonexte##
##nonprop##
##nonresi##
##notable##
##nsolati##
##nstrain##
##nsultat##
##nsumpti##
##ntarian##
##ntarily##
##ntecato##
##ntencio##
##ntertra##
##ntrolle##
##obiotic##
##ocerati##
##ohibiti##
##okineti##
##ollinat##
##omatolo##
##ommitte##
##ompagni##
##omprena##
##onalizi##
##oncepti##
##ondense##
##oneural##
##onology##
##onomete##
##onsumpt##
##ontagio##
##ontrair##
##ooperat##
##opologi##
##opulate##
##oraceae##
##oraceou##
##orhynch##
##orizont##
##oscopis##
##osensit##
##osibili##
##osmopol##
##ostomou##
##otrache##
##ottomed##
##overnor##
##overthr##
##oxidati##
##pabilit##
##palatal##
##parlant##
##pattern##
##periphe##
##phasize##
##physiog##
##plagiar##
##plaster##
##polaris##
##polygon##
##ponerle##
##postero##
##postoli##
##ppiness##
##ppresse##
##precati##
##predest##
##priest-##
##privile##
##prosegu##
##pseudoi##
##pseudor##
##ptograp##
##puissan##
##pulveri##
##quality##
##quiring##
##quirrel##
##quitter##
##rapproc##
##ratoire##
##raverse##
##ravitat##
##rbyshir##
##rdering##
##reactiv##
##recomma##
##regorio##
##rehouse##
##reilles##
##reporte##
##reposse##
##ricordi##
##rochrom##
##rocurab##
##rofesse##
##rogator##
##rognost##
##roidere##
##roletar##
##romatis##
##ropolog##
##rostral##
##rproduc##
##rregula##
##rrobora##
##rrompit##
##rsonage##
##rtinenc##
##rumento##
##ryville##
##scendan##
##scended##
##scharge##
##scriban##
##scribbl##
##sculptu##
##secrate##
##senting##
##sepulch##
##sidenti##
##siderin##
##simeter##
##simplif##
##smatica##
##smopoli##
##solemni##
##solidif##
##somatic##
##sparent##
##sphaero##
##squamos##
##squette##
##squirre##
##stifica##
##stratin##
##t-foote##
##tagonis##
##teacher##
##tefully##
##tencion##
##teousne##
##terally##
##terling##
##terment##
##terrori##
##thalmia##
##thanato##
##thesize##
##three-c##
##throate##
##tificia##
##tilized##
##tillion##
##tion-pr##
##tivatin##
##tochemi##
##tolerat##
##tomania##
##torture##
##trigono##
##tringen##
##uations##
##uctible##
##umspect##
##unconst##
##undatio##
##underbu##
##usionis##
##variabl##
##velours##
##verting##
##vexatio##
##viniere##
##virtuos##
##vitalis##
##vocativ##
##volcani##
##volving##
##well-di##
##well-st##
##whisker##
##wonder-##
##wretche##
##xclusiv##
##xpedien##
##xygenat##
##yieldin##
##ympathe##
##ymphang##
##ythmica##
##bleness
##ousness
##ization
##tically
##ability
##iveness
##ication
##logical
##ologist
##iferous
##ography
##ingness
##tedness
##ational
##atively
##ibility
##ination
##essness
##fulness
##isation
##ishness
##graphic
##-shaped
##ulation
##tionist
##ionally
##itation
##rically
##dedness
##gically
##calness
##-headed
##ophobia
##eration
##alizing
##colored
##imiento
##nically
##looking
##hically
##ez-vous
##ilities
##alistic
##hearted
##it-elle
##rations
##tations
##genesis
##inesses
##-leaved
##ctively
##lations
##cations
##enesses
##ometric
##-minded
##aphical
##escence
##ntation
##ateness
##istical
##ulating
##grapher
##ologies
##iaceous
##ogenous
##nations
##alities
##mically
##genetic
##ciously
##ation's
##inating
##osition
##tionary
##onville
##aissait
##llement
##ression
##ections
##etrical
##snesses
##eringly
##riously
##ishment
##atingly
##bearing
##alising
##morphic
##rmation
##heureux
##mission
##manship
##oration
##erating
##ssaient
##tration
##entally
##-footed
##entness
##omatous
##tiously
##icating
##therapy
##zations
##ctional
##tendait
##matical
##mouthed
##olution
##culated
##uestras
##uration
##erative
##icative
##mientos
##rianism
##ference
##prendre
##pressed
##blement
##duction
##berries
##ensible
##lection
##science
##-tailed
##almente
##amiento
##covered
##redness
##ssement
##iculate
##tometer
##-winged
##ounding
##usement
##otropic
##torship
##ttering
##ciencia
##rometer
##oplasty
##pically
##faction
##logists
##oscopic
##plastic
##sthesia
##ephalic
##cularly
##ssively
##tamente
##aciones
##ariness
##portait
##prenait
##erously
##naceous
##ntially
##tuviese
##william
##ionless
##llation
##mentary
##culture
##lighted
##ialness
##reading
##ressing
##vantage
##istance
##tuation
##itional
##minated
##erville
##rouvait
##atorial
##icality
##tionism
##-backed
##-handed
##station
##tifying
##esville
##onalism
##pointed
##raceous
##through
##-haired
##actions
##ifiable
##ressive
##tongued
##trophic
##itative
##itively
##phagous
##rsville
##antness
##ctation
##fferent
##ighting
##inative
##omeness
##phalous
##ulatory
##agement
##igerous
##ramente
##ivorous
##llowing
##ndering
##onistic
##ionable
##peaking
##sionist
##-loving
##atching
##brained
##ception
##dically
##dnesses
##ligence
##raction
##tnesses
##carpous
##intance
##iration
##ncement
##-legged
##blastic
##ciation
##damente
##ectable
##itating
##ivement
##onality
##orially
##orphism
##ortable
##philous
##ringing
##tadores
##ulative
##utation
##crowned
##forming
##nedness
##phorous
##reeable
##ularity
##ulement
##cutting
##diately
##istence
##lically
##nometer
##nsville
##otomies
##uvieron
##aciendo
##aliente
##cientos
##igation
##lowered
##ntinued
##tropism
##essions
##married
##onizing
##taining
##tograph
##usiness
##written
##amorado
##arriage
##ction's
##ctomies
##hyllous
##laceous
##ppelait
##reement
##suppose
##talking
##against
##ctivity
##respect
##taceous
##antonio
##country
##idation
##ilation
##lnesses
##ocratic
##service
##settled
##tanding
##vourite
##writing
##-billed
##jection
##nalized
##oducing
##orphous
##portant
##randeza
##spaldas
##travers
##turning
##version
##arrying
##cuderos
##emaking
##entered
##growing
##incipio
##isidora
##onalist
##pterous
##quement
##rograph
##rvation
##toothed
##welling
##criados
##llamaba
##orously
##rfectly
##titious
##consejo
##earance
##enemigo
##license
##nchiate
##ndingly
##parlait
##petites
##pleased
##rection
##rrhaphy
##sedness
##tioning
##turally
##-witted
##arrasco
##athered
##cantado
##cosette
##isaient
##ourself
##resente
##riaceae
##section
##tiality
##anizing
##appelle
##consigo
##enaient
##enegado
##esoluci
##friends
##hicaire
##iteness
##paroles
##respond
##tholomy
##ucement
##cuidado
##dineros
##elation
##elessly
##enciado
##hallado
##ishable
##justice
##ledness
##ontidae
##pirited
##roscope
##rovecho
##sobrina
##stering
##sur-mer
##tention
##'enfant
##-bodied
##ainable
##aration
##clusion
##dressed
##elieved
##entions
##ficient
##hubiese
##icolous
##osaurus
##raphist
##scribed
##tuviera
##uedaron
##-coated
##auberge
##centric
##cesidad
##escrito
##feeling
##haviour
##hinking
##ialized
##iations
##imation
##mberley
##mettait
##simismo
##ughters
##artedly
##atology
##eaching
##ensuite
##gigante
##inously
##instant
##itarian
##ldehyde
##liation
##meryton
##mometer
##nardier
##ntement
##oiselle
##omaniac
##ordered
##osphere
##quently
##ription
##ulously
##usively
##-t-elle
##acienda
##ceiving
##courage
##gryphon
##husband
##ikeness
##inement
##iscreci
##nsively
##olation
##osities
##restait
##vencido
##xpected
##'argent
##ampagne
##entable
##ercicio
##hemical
##igenous
##keeping
##ndemain
##ntioned
##opathic
##ouverte
##rincesa
##trefois
##village
##'est-ce
##-dessus
##angular
##attered
##basilio
##dientes
##ermined
##esencia
##gations
##getting
##mathieu
##mirando
##mujeres
##natured
##ngtemps
##opodous
##pauvres
##perando
##rescent
##rrhagia
##segunda
##ssional
##tamento
##tesinos
##acuerdo
##alement
##dejando
##donnait
##errible
##erstand
##guardar
##inizing
##lliform
##mations
##onation
##ophilic
##passant
##ptively
##quieren
##quieres
##rdadera
##reaking
##rosigui
##sements
##serving
##stances
##stantly
##thering
##tsville
##ubierto
##atement
##bellied
##chapeau
##elqu'un
##empered
##fashion
##ghtened
##hanging
##indness
##itement
##legando
##olithic
##rdadero
##riencia
##ruction
##sionary
##sonable
##spuesta
##sthetic
##tionate
##tisfied
##ucedido
##walking
##wrought
##'avocat
##-necked
##arizing
##brought
##cephaly
##eathing
##endable
##engaged
##esentes
##icatory
##iterary
##ivility
##lizable
##manners
##matosis
##negocio
##ntendit
##oitrine
##ontinua
##parates
##raphies
##reating
##servido
##simesmo
##storias
##usticia
##-voiced
##achment
##allowed
##atorily
##bonheur
##capable
##ceptive
##cluding
##ctually
##ersonas
##estions
##fuerzas
##indedly
##ingered
##inished
##iometer
##leasing
##llaient
##minable
##niaceae
##ntiendo
##ophytic
##passion
##romatic
##ruption
##setting
##tements
##tending
##thiness
##xillary
##-making
##-ridden
##cabrero
##chevaux
##chingly
##conocer
##ephalus
##erizing
##erybody
##eturned
##evenait
##hearing
##iparous
##nemigos
##ngement
##ngering
##nishing
##nouveau
##ocation
##onocido
##orative
##orizing
##rliness
##rosings
##sically
##spotted
##tendido
##ticness
##tiempos
##togenic
##trating
##tresses
##trouble
##uliform
##usieron
##account
##adumbre
##atitude
##cheeked
##entrait
##estidos
##icizing
##ingenio
##ionists
##itioned
##ivation
##l'avait
##lateral
##lectric
##nsation
##owledge
##perador
##raising
##roduced
##rolling
##running
##ryngeal
##tenance
##ticular
##tricken
##urement
##working
##abellos
##benzene
##carcely
##cautivo
##cometer
##cumplir
##duchess
##erwards
##essible
##ffected
##ibution
##metimes
##muestra
##nements
##nianism
##ntative
##nvinced
##ostatic
##reasted
##ritable
##rprised
##testing
##uvement
##vations
##adyship
##aginaci
##albarda
##arities
##blaient
##blanche
##ductive
##dynamic
##escudos
##estidad
##estremo
##etalous
##eyville
##issance
##llegado
##ntendre
##ntleman
##onsider
##oriness
##peranza
##plicate
##ppeared
##ralized
##ralness
##rdshire
##rogenic
##shingly
##sitions
##talized
##tinente
##travail
##ultural
##urgeois
##uscular
##-driven
##acement
##anation
##equence
##gements
##gnation
##hildren
##hysical
##ilizing
##iologic
##istress
##lescent
##lettres
##lissait
##ndation
##nograph
##nstante
##ntingly
##omantic
##playing
##pudiese
##resting
##riation
##rtation
##skinned
##ssieurs
##tiation
##-lipped
##ademark
##ainment
##atizing
##belleza
##caceous
##cession
##content
##crested
##dicated
##dichado
##eatured
##emistry
##erately
##eureuse
##exactly
##flowing
##forward
##fronted
##heading
##lcanzar
##leonela
##llevaba
##nathous
##nnement
##ometido
##onalize
##orating
##ortance
##ourrait
##oussait
##pasaron
##puestas
##ranchia
##rectomy
##rtunity
##sait-il
##sourire
##tologic
##unction
##uscando
##voulait
##allaron
##cessary
##contado
##famille
##fluence
##hiciese
##ibuting
##iedness
##iformes
##ightful
##imental
##neously
##nsemble
##ntlemen
##ologize
##ouvrait
##owering
##ratical
##scribir
##terable
##tribute
##venture
##absence
##amistad
##astores
##dations
##dential
##dinaire
##emember
##endence
##enganza
##irement
##jointed
##knowing
##liberal
##llamado
##mejores
##neither
##nscious
##nswered
##onising
##optosis
##pelling
##posible
##reeding
##rifying
##ritical
##rtaient
##scalier
##sighted
##sitting
##society
##spirits
##stingly
##tracted
##uestros
##usieurs
##-eating
##-marked
##-spoken
##-tinted
##abitude
##affaire
##agravio
##amiable
##andsome
##astical
##atories
##current
##dernier
##eliness
##emblait
##ement's
##erencia
##gastric
##icially
##icities
##idently
##idities
##ienvenu
##ntiment
##ophoric
##ormouse
##permous
##ractive
##robable
##rouault
##seeking
##spheric
##spiring
##thology
##tlessly
##ucation
##uilding
##uiteria
##vidence
##voiture
##-formed
##-roofed
##ahedron
##amentos
##anistic
##annered
##antador
##archive
##ardness
##bearded
##bration
##breaker
##clastic
##dmiraci
##entment
##escribe
##eserved
##esolved
##fection
##fficers
##florous
##forster
##hedness
##idrosis
##igencia
##imagine
##imetric
##importe
##iscreta
##manlike
##matized
##menting
##methane
##niously
##ntrario
##ointing
##perfect
##pouvoir
##ricular
##riosity
##seeming
##servant
##session
##sidered
##stumbre
##tourner
##trained
##utional
##-horned
##antados
##assured
##audrait
##cantada
##claimed
##ditions
##dsville
##endered
##express
##faisant
##fically
##intment
##istoire
##itorial
##lecting
##lingual
##llingly
##located
##lvieron
##mandait
##mentira
##moments
##mselves
##ntaient
##nterest
##odillas
##ollowed
##ourable
##ouvenir
##reathed
##receive
##rements
##stancia
##sternal
##strated
##torious
##toscope
##trative
##tuously
##visaged
##-browed
##-yellow
##atience
##caminos
##ciently
##conozco
##derable
##donaire
##egarder
##enation
##encanto
##entrant
##fective
##foliate
##ielding
##iglesia
##inatory
##itution
##ivities
##lometer
##lorsque
##meeting
##mitting
##nalness
##obation
##odontia
##olorida
##onhomme
##ophonic
##otactic
##pending
##phyllum
##puestos
##purpose
##ragraph
##romance
##roscopy
##rtement
##speraba
##sporous
##stained
##talline
##tometry
##tressed
##urgical
##yordomo
##-limbed
##-ribbed
##ageable
##anthous
##arising
##arrival
##bserved
##camacho
##chaient
##changed
##cipital
##comfort
##conduct
##created
##ctorial
##cuisine
##delight
##diously
##emporal
##epeated
##erially
##galeras
##hatever
##horizon
##housand
##istiana
##lifying
##lquiera
##mycosis
##ndencia
##ng-room
##nnected
##obliged
##ochrome
##ophilia
##ostraba
##ournait
##ouverts
##plasmic
##querido
##rabajos
##racting
##romised
##rosigue
##siology
##taneous
##tership
##therium
##trambos
##trouver
##udieron
##uttered
##viniese
##y-faced
##-bright
##-flower
##amental
##anising
##antable
##anxious
##appeler
##bligado
##bradora
##caminar
##central
##chiness
##company
##concern
##cribing
##edingly
##erproof
##estable
##gardant
##general
##gestion
##ghtness
##ginning
##hacerse
##haunted
##hetical
##hloride
##holding
##hydrate
##icalism
##iciency
##igating
##ilement
##ilicate
##isement
##isposed
##kinetic
##lements
##licated
##mention
##merican
##mograph
##natural
##ogamous
##ogizing
##oreille
##ositive
##otation
##ponerse
##porting
##pultura
##radable
##selling
##sisting
##soldado
##stantes
##surtout
##tenemos
##tinuait
##uminous
##visible
##ylamine
##yllabic
##yllable
##alquier
##already
##appened
##aquelle
##auvaise
##biology
##blooded
##cardiac
##casting
##certado
##clusive
##daceous
##dancing
##diction
##drawing
##dustria
##e-faced
##egation
##ellated
##enville
##eriness
##estamos
##euilles
##fruited
##grained
##hension
##hnesses
##humaine
##ictions
##ileness
##imagino
##iniform
##irectly
##istered
##llevado
##locuras
##logized
##ltation
##meaning
##montait
##ndaient
##nifying
##ntering
##olutely
##ometers
##ouvelle
##parfois
##pasados
##patient
##pedazos
##pendent
##philips
##profesi
##ptation
##quedaba
##rapping
##related
##resteza
##reyendo
##ropical
##rtunate
##sations
##serious
##stiness
##stomous
##ticated
##tivated
##tricity
##ualness
##usencia
##velling
##-bearer
##-struck
##-tipped
##blingly
##burning
##ccepted
##charged
##cilidad
##clothes
##dentate
##ectible
##ekeeper
##endrait
##erentes
##erently
##etermin
##gration
##hunting
##iciones
##igantes
##istened
##itously
##jective
##lamente
##lanches
##levaban
##lforjas
##ligible
##litical
##malacia
##n-proof
##nership
##nologic
##noscope
##nounced
##ntended
##ntraron
##onaries
##opteran
##parecen
##plaisir
##prehend
##protein
##radores
##rdaient
##rsuaded
##segundo
##sentado
##sortait
##sosiego
##stening
##thermal
##thermic
##treated
##uarante
##vention
##viction
##vouring
##-topped
##aissant
##alieron
##archies
##armacie
##bilidad
##cellent
##cipales
##couleur
##couvert
##curious
##decirse
##deseaba
##desenga
##ectedly
##efranes
##ellable
##ellidae
##emeroso
##emonger
##entence
##ervante
##ficator
##formity
##further
##gnostic
##kinesis
##laisser
##leaning
##leasant
##mmobile
##nchiata
##ncluded
##ociated
##olently
##partout
##passing
##prenant
##racious
##ributed
##riginal
##rmative
##robably
##ropping
##rrivait
##samente
##scented
##several
##surance
##tenosis
##tension
##termine
##tionize
##tombait
##tranger
##tuality
##uainted
##uraleza
##urative
##ventana
##willing
##ynamics
##-veined
##ablando
##address
##arecido
##atified
##auteuil
##autiful
##cedness
##condesa
##coucher
##d'abord
##derecho
##devenir
##dliness
##dmirado
##eflower
##eligion
##etourna
##evantar
##feeding
##ffaires
##filling
##fitting
##francia
##harming
##honneur
##houghts
##ificate
##implice
##iquiera
##larized
##llegaba
##lorenzo
##malheur
##mancebo
##mandado
##minator
##missive
##momento
##nection
##netical
##obernar
##ogistic
##olviese
##onately
##oseness
##otected
##ourhood
##parents
##posable
##present
##provide
##raining
##rchical
##rdinary
##recebir
##rfishes
##rgotten
##riendas
##rnation
##rpillar
##sarcoma
##serable
##sthenia
##stomata
##terlike
##timents
##tionnel
##ttingly
##upposed
##uraient
##uteness
##wledged
##'esprit
##-filled
##-rooted
##-souled
##achable
##amation
##angling
##anybody
##ariidae
##coutait
##cranial
##ctylous
##cuentan
##dejaron
##dendron
##dessous
##diation
##ecially
##entendu
##ervicio
##esented
##espejos
##famosos
##gnorant
##gulated
##haberle
##ialised
##ickness
##inately
##issions
##itornes
##l'ombre
##lancing
##leaving
##lective
##lectomy
##lieving
##monious
##mulated
##ndieron
##nescent
##nnesses
##nsional
##ntirely
##ocating
##oldados
##ondelle
##ongeait
##onstant
##otrophy
##ournant
##parable
##portion
##printed
##ptional
##puisque
##raneous
##remiers
##respeto
##retched
##ristian
##rologic
##rovided
##rsonnes
##rudence
##saurian
##scently
##spected
##stemmed
##teously
##teritis
##terless
##ttended
##uisiese
##ureness
##uspiros
##uvaient
##ajestad
##ambeaux
##anchial
##archait
##athetic
##atrices
##cements
##ciating
##ciative
##cytosis
##daderas
##decirle
##derecha
##elencia
##ellular
##emander
##english
##ensions
##ernally
##erology
##ertible
##escency
##ettered
##fficult
##fidence
##forzoso
##gedness
##giously
##glossal
##guarded
##hacerle
##herical
##honesta
##iograph
##irected
##itching
##lerable
##lerosis
##lientes
##lishing
##llusion
##lviendo
##meubles
##mirados
##modidad
##nalised
##ndiendo
##nfusion
##nombres
##nomical
##opening
##oristic
##orrhoea
##osotros
##ounting
##philism
##pliment
##promise
##puertas
##raphers
##regarde
##removed
##resalto
##ricated
##rifaldi
##rilling
##rinking
##rminado
##rnished
##rphosis
##support
##telling
##tendant
##tiating
##tituted
##tmaking
##torical
##trophia
##typical
##uchacho
##uctions
##uddenly
##ureless
##uspenso
##ventera
##villano
##waiting
##younger
##acabado
##aceable
##aginous
##ammatic
##aniacal
##autorit
##blished
##cephala
##confuso
##dinario
##ectasia
##efishes
##egative
##eillard
##endency
##ensibly
##entious
##enzaron
##ernment
##erstood
##genioso
##gervais
##hastily
##henever
##hipping
##hologic
##hombros
##idating
##idement
##idental
##ilating
##inaceae
##infanta
##iningly
##isingly
##issible
##ition's
##ivalent
##ivating
##l'heure
##lograph
##loquent
##marcela
##mbering
##metries
##nciones
##nfierno
##nizable
##nometry
##omizing
##ompadre
##ovision
##partida
##ramento
##ranched
##reasing
##rential
##retablo
##revenir
##rminaci
##romancy
##rrupted
##secreto
##sionism
##ssingly
##striped
##suplico
##surable
##tampoco
##tentive
##thylene
##ticized
##tificio
##tomized
##ttiness
##tuvache
##ualized
##uldered
##umption
##uperior
##vedness
##ventura
##violent
##ylation
##-in-law
##-rigged
##-second
##agnosis
##ahedral
##ailable
##amantes
##andaban
##andedly
##angeait
##aringly
##attempt
##billets
##borough
##cabinet
##calidad
##copical
##croyait
##ctingly
##difying
##dormait
##ducible
##eagerly
##embered
##emental
##empresa
##epalous
##equally
##ffering
##frontal
##geaient
##greater
##hablado
##hevelle
##hometer
##honrado
##htening
##idaceae
##imating
##inistic
##isieres
##itizing
##izingly
##journey
##larness
##library
##llected
##malades
##marcher
##measure
##mediate
##mostrar
##mycetes
##narices
##ndently
##nerable
##nformed
##nliness
##nsativo
##ntalist
##nuclear
##ococcus
##ographs
##olizing
##ophysis
##othorax
##ouliers
##partite
##physial
##picture
##plement
##ppolyte
##profond
##racioso
##reached
##rimeter
##rizable
##romesas
##rostomy
##rostros
##shioned
##sianism
##thfully
##tolysis
##tosilos
##treinta
##turable
##ularize
##valence
##agnetic
##aliento
##antidad
##anville
##arching
##arietal
##ascular
##ativity
##cendait
##chromic
##consent
##desnudo
##e-bound
##egiment
##eheaded
##elating
##emained
##encontr
##enicity
##entendi
##entesis
##entless
##enturas
##erables
##eraient
##eranzas
##erences
##especho
##etation
##etizing
##evented
##evident
##fatigue
##finding
##grosses
##hallaba
##herwise
##hiciera
##horacic
##ibition
##ionably
##ionship
##iosidad
##istaken
##lasting
##liating
##lugares
##maceous
##maginar
##maisons
##mejante
##milagro
##mposure
##n-faced
##nadores
##neering
##nerally
##noscopy
##ntalism
##ntology
##oaching
##ocarpus
##omising
##onviene
##onymous
##ophical
##opodium
##orbital
##organic
##ostasis
##ouncing
##ovement
##overing
##oyageur
##passage
##pective
##piernas
##poiesis
##politan
##pposing
##prudent
##quarter
##quelles
##quinone
##rdinate
##reation
##riction
##rinkled
##riptive
##rometry
##rsement
##scopist
##shments
##ssessed
##sticism
##talness
##tistine
##toblast
##tropous
##tuating
##umbling
##unsford
##verable
##welcome
##-tongue
##aballos
##actable
##archand
##astique
##byshire
##calling
##conseil
##cretion
##cuantas
##dectomy
##diablos
##dislike
##docteur
##eaceous
##ealable
##ecommen
##ectness
##ectures
##ematous
##entrada
##entrado
##ephalon
##ersonal
##ffended
##flexion
##fringed
##glacial
##hacerme
##heistic
##hermoso
##honrada
##hroated
##ilingly
##illeurs
##imanche
##inently
##ing-out
##inkling
##itencia
##judging
##l'accus
##landers
##limited
##ll-like
##loyment
##malicia
##matidae
##nctions
##neville
##nsitive
##ntained
##ntalize
##ntarily
##oloured
##oraceae
##ormable
##ottomed
##pinnate
##pleural
##pliance
##poietic
##pusiese
##quantit
##quiries
##ranches
##regorio
##reilles
##rianize
##rofonde
##rossing
##ructive
##rushing
##ryville
##scended
##sistent
##tefully
##tellano
##terally
##tercera
##thritis
##tilized
##trevido
##trolled
##uations
##udgment
##udiante
##uissier
##uitable
##ulators
##velours
##washing
##-german
##-giving
##ainting
##androus
##aravant
##aristic
##asseoir
##avement
##avoured
##biertos
##cerning
##cesario
##commenc
##cracies
##cturing
##cyanide
##demande
##dencias
##eatment
##ecebido
##eceived
##ecieron
##embling
##emented
##enerous
##eningly
##enoidal
##entured
##ephalia
##erality
##erfully
##ersuade
##ertains
##escribi
##escubri
##estique
##factory
##figured
##gellate
##glement
##gracias
##guement
##guished
##handled
##iculars
##iculous
##idering
##iercing
##ignment
##illable
##illeros
##inieron
##instead
##kedness
##killing
##leading
##learned
##lianism
##licable
##llating
##melling
##minally
##minates
##nalysis
##namente
##ncerned
##nquante
##nquille
##ntality
##ntively
##ntraire
##ntrance
##ocardia
##oiditis
##onforme
##onnaire
##onology
##onsejos
##ophorus
##ormally
##outique
##parlant
##parties
##pecador
##pellent
##perdido
##peutics
##phalism
##ponerle
##ponerme
##prometi
##proving
##quitado
##ratoire
##rialism
##righton
##romania
##ropathy
##rostral
##rounded
##rrompit
##rseness
##rusting
##rvative
##scretos
##sentido
##sertion
##servait
##sifying
##simeter
##ssion's
##sterial
##stfully
##stified
##success
##suivait
##tait-ce
##temente
##tencias
##tensive
##tlement
##tomando
##tomatic
##tomical
##tresala
##tristes
##tructed
##ubieron
##udation
##ulgence
##undable
##undered
##urizing
##utative
##uviesen
##volving
##y-proof
##ysville
##-barred
##-walled
##abanzas
##acities
##actical
##alcanza
##anguage
##anxiety
##appiest
##apriesa
##arreaux
##arriver
##artered
##astante
##binding
##bosomed
##ceeding
##chachos
##chanter
##chistic
##chology
##cialize
##cionado
##circled
##denitis
##dership
##descent
##dijeron
##ducated
##eadedly
##earnest
##eatable
##eatures
##ecution
##efforts
##eguntar
##eholder
##ejemplo
##elicity
##enching
##endance
##eniendo
##enology
##enteric
##environ
##eraceae
##erators
##eristic
##es-vous
##estrial
##evaient
##exemple
##exioned
##explain
##feuille
##finitos
##folious
##gencies
##gitated
##graphed
##grating
##hanical
##hurried
##icising
##igereza
##igieuse
##importa
##ineness
##ingling
##inising
##invenci
##inville
##ionized
##isfecho
##lanting
##latrous
##liaceae
##limbing
##loading
##longues
##lsville
##lturist
##marking
##mentous
##mnation
##mpagnie
##ndicate
##ngeable
##nspired
##ntecato
##nthesis
##oilette
##omplete
##ontenta
##oplegia
##oquence
##otomist
##painted
##pecting
##pensait
##planted
##pulsion
##quiring
##raiment
##ralysis
##rcevait
##reaming
##renched
##rialize
##rideaux
##rinting
##rmality
##rnisien
##rocurar
##rophyte
##rtained
##rtancia
##rtnight
##russian
##shiness
##smiling
##sommeil
##squette
##stiques
##talante
##tectomy
##tempted
##tential
##ternity
##tilbury
##tirring
##toscopy
##udience
##ulently
##umbered
##uncture
##uraille
##urating
##urd'hui
##venient
##xiously
##-banded
##-bitten
##-decked
##-taught
##aculate
##alified
##andelle
##andered
##antando
##anthine
##archant
##ardened
##arrette
##assment
##astness
##atising
##avaient
##blancas
##briolet
##builder
##canivet
##cardial
##chement
##ckiness
##command
##commode
##condamn
##contact
##cording
##counter
##crifice
##dlessly
##dominal
##dontoid
##douceur
##dresses
##eakfast
##easured
##enchyma
##endible
##endroit
##erchant
##eriodic
##ersburg
##etition
##fession
##fficial
##figures
##gginess
##glottic
##hronous
##htfully
##icalize
##iliated
##illions
##inantes
##inction
##ingitis
##inistre
##inology
##intento
##iometry
##isorrey
##ivaient
##ivative
##ividual
##latable
##lecular
##leproof
##litting
##llaceae
##lligent
##lotting
##ltering
##mastoid
##mblance
##miraban
##mirable
##mpereur
##musique
##nclined
##nectomy
##nnaient
##nogenic
##nstinct
##nvoyait
##oderoso
##omorpha
##onating
##ophobic
##osauria
##osphate
##ouchait
##oughted
##parison
##partner
##pathies
##pearing
##pection
##perdait
##philist
##pintado
##plained
##pobreza
##ppiness
##radiate
##ralised
##rcement
##rdering
##ressant
##rophile
##rremeti
##rtebral
##rtified
##saliese
##scences
##scendit
##semaine
##septate
##shining
##sioning
##ssiness
##ssioned
##stillas
##studded
##suceder
##tchable
##thought
##tiently
##tliness
##topping
##uential
##ulately
##umentos
##uminate
##untable
##uralist
##valency
##ventaja
##verting
##vicular
##viously
##wearing
##-beaten
##-heeled
##-hoofed
##-living
##-nerved
##aragoza
##archist
##ateship
##atorium
##atrical
##cadores
##cepting
##cerrado
##cessive
##chamber
##changer
##chnical
##ciality
##cologic
##commend
##copying
##costate
##creased
##ctioned
##curioso
##curring
##cussion
##ddition
##demonio
##despert
##dichada
##dissait
##divided
##douleur
##eadable
##ectacle
##ectasis
##efender
##ejecuci
##elected
##elegant
##emiendo
##entaron
##eometer
##eptible
##eptical
##erapist
##erchait
##erebral
##esigned
##esponde
##essable
##etching
##exation
##facient
##ferring
##genital
##glyphic
##gnition
##guiente
##gularly
##haberse
##harging
##hematic
##humilde
##iciform
##icordia
##igently
##inarian
##ipation
##iquezas
##ismatic
##istesse
##iversas
##ivistic
##knesses
##lankton
##leberry
##lectual
##lenguas
##ligious
##luoride
##machine
##maladie
##masters
##medness
##midable
##ndresse
##ngulate
##nophile
##norrhea
##noticed
##nstance
##ocystic
##oglobin
##oniendo
##onously
##ontagne
##ontinue
##ophenol
##oratory
##orgueil
##ospinal
##osporic
##ostrado
##otheism
##otional
##ourrice
##papeles
##pastora
##phenoid
##physics
##pillary
##pondait
##psychic
##ption's
##quality
##ralidad
##rbonate
##rcevoir
##rculate
##readily
##reatest
##riality
##rientes
##rmandad
##rnesses
##rowning
##rrhexis
##rriendo
##rsively
##rtingly
##rudente
##scopies
##sembled
##skirted
##soledad
##solving
##souffle
##sternum
##sthesis
##sticate
##sticity
##stively
##stopped
##strophe
##thropic
##throsis
##traidor
##trician
##trously
##tuviere
##ubierta
##uchando
##udinous
##usation
##vaginal
##versive
##vestida
##voltura
##winding
quasi-##
pseudo##
counte##
twice-##
electr##
contra##
contin##
hetero##
world-##
entend##
imagin##
noncon##
unders##
circum##
encant##
supers##
interc##
presen##
double##
three-##
admira##
psycho##
satisf##
cross-##
espera##
self-c##
interr##
commen##
determ##
verdad##
precon##
conten##
consid##
discre##
person##
import##
respon##
dispar##
thermo##
superi##
self-d##
interp##
descub##
gentle##
pastor##
interm##
conven##
gastro##
palaeo##
yellow##
instan##
single##
procur##
superc##
white-##
attend##
regard##
expres##
princi##
quadri##
concer##
overco##
nonpro##
supera##
guarda##
inters##
demand##
partic##
spirit##
escrib##
levant##
profes##
conoci##
promet##
transp##
compre##
direct##
object##
silver##
christ##
suppos##
transf##
crypto##
perfec##
self-a##
suspen##
anthro##
respec##
well-c##
self-s##
repres##
inform##
expect##
pregun##
short-##
trouva##
stereo##
supere##
wonder##
alcanz##
simple##
descen##
confus##
observ##
persua##
commun##
histor##
mostra##
appear##
interl##
arriva##
return##
compli##
obliga##
tourna##
enamor##
muestr##
overst##
secret##
water-##
justic##
traver##
change##
contem##
phosph##
second##
well-s##
conver##
dispos##
underc##
infini##
overpr##
self-r##
declar##
distri##
gigant##
noncom##
strong##
sulpho##
entero##
self-i##
cephal##
consol##
enemig##
recomm##
branch##
comple##
impres##
microc##
prosig##
self-p##
uncont##
favour##
sentim##
uncomp##
compar##
distin##
escuch##
microp##
predis##
prince##
micros##
quitar##
self-e##
escrit##
though##
entret##
servic##
chloro##
hacien##
uncons##
winter##
honest##
interv##
spring##
accept##
marcha##
well-a##
blanch##
chondr##
grande##
ignora##
nondis##
affect##
intell##
moment##
reason##
school##
differ##
follow##
volvie##
religi##
smooth##
compos##
hemato##
instru##
overde##
pharma##
throug##
accomp##
genera##
quisie##
troubl##
chromo##
confes##
desdic##
gentil##
multip##
phyllo##
preven##
propos##
tricho##
tuvier##
deligh##
incomp##
interf##
lettre##
libera##
magnet##
parole##
quelqu##
ration##
underp##
actino##
cortes##
engage##
ground##
lorsqu##
nonper##
rough-##
superf##
camina##
ingeni##
intere##
quarte##
sclero##
superp##
thunde##
biblio##
civili##
conoce##
inclin##
resolu##
uninte##
acquai##
cumpli##
erythr##
hydrop##
ichthy##
intern##
straig##
tranqu##
consig##
curios##
hallar##
mentir##
please##
transc##
estima##
longue##
marche##
consci##
dinero##
discon##
litera##
ofreci##
passio##
pneumo##
promis##
quiere##
summer##
thick-##
transm##
montre##
natura##
provid##
public##
reconn##
underb##
voyage##
bacter##
cardio##
overre##
black-##
consej##
friend##
hyperc##
immedi##
light-##
overin##
philos##
segund##
capita##
consen##
improv##
laissa##
llamar##
maravi##
probab##
arthro##
comedi##
intera##
murmur##
senten##
antico##
butter##
countr##
entien##
intert##
physio##
pleuro##
advert##
divers##
estuvi##
quedar##
relati##
retour##
tender##
turtle##
cautiv##
chance##
conclu##
dermat##
master##
small-##
strang##
trembl##
affair##
comenz##
conduc##
machin##
ordina##
semico##
simpli##
sucedi##
bronch##
contar##
except##
experi##
rabbit##
spectr##
undert##
well-d##
ejerci##
laisse##
ornith##
ouvert##
quinqu##
recebi##
travai##
valien##
agrade##
commis##
intent##
poussa##
trache##
weathe##
acabar##
assure##
connec##
couver##
especi##
habitu##
overse##
pruden##
rencon##
sperma##
trouve##
villag##
brachy##
charge##
confir##
constr##
cousin##
disapp##
espant##
hydroc##
middle##
night-##
questi##
saint-##
virtud##
attach##
consta##
hyster##
malheu##
nonint##
schizo##
univer##
well-b##
well-p##
acomod##
animal##
bright##
imposi##
indust##
passer##
termin##
access##
basili##
compan##
crysta##
dilige##
estrem##
half-s##
neighb##
ophtha##
overex##
preten##
solici##
trans-##
agravi##
existe##
feuill##
office##
saccha##
twelve##
well-f##
ajouta##
antoni##
blanca##
corres##
costum##
heart-##
interd##
necess##
portai##
primer##
square##
triste##
andaba##
atrevi##
church##
escude##
malade##
parent##
profon##
renega##
servid##
susten##
sweet-##
tuberc##
derech##
examin##
fantas##
husban##
hyperp##
llevab##
partie##
partir##
pecado##
settle##
vestid##
author##
bouche##
close-##
gobern##
inquir##
megalo##
mentio##
nonsub##
parlai##
pleine##
pre-ex##
rappel##
servan##
surpri##
triple##
underl##
arteri##
certai##
heaven##
impert##
montes##
nephro##
prendr##
states##
xantho##
design##
fatigu##
introd##
negoci##
nontra##
odonto##
pasaba##
propri##
sharp-##
acomet##
comfor##
conser##
descri##
encerr##
escudo##
honour##
hypera##
provec##
remain##
succes##
tongue##
twenty##
uncomm##
carbon##
connai##
desper##
discou##
espald##
grosse##
hermos##
hypers##
invent##
llamab##
majest##
necesi##
pardon##
parece##
physic##
politi##
produc##
raison##
receiv##
round-##
underg##
accoun##
acuerd##
behavi##
cabrer##
compla##
contri##
donner##
empera##
garden##
happen##
licenc##
london##
minute##
nonpre##
nonres##
pharyn##
posses##
prepar##
puesta##
remark##
rememb##
soldad##
temper##
well-r##
barbas##
castig##
cerebr##
cherch##
condes##
cualqu##
diffic##
hypoth##
incons##
phrase##
quanti##
remedi##
repeat##
vencid##
anthra##
antipa##
attent##
caball##
charac##
chroma##
chryso##
common##
consei##
corona##
forest##
german##
gracio##
indivi##
laryng##
licens##
listen##
lympho##
narrow##
nouvea##
organo##
perfor##
pleasa##
procto##
querer##
restai##
situat##
sobrin##
souffl##
subcon##
tuvies##
underf##
window##
addres##
discom##
extrao##
feathe##
golden##
hubies##
libert##
microm##
precom##
prenai##
profit##
promen##
signif##
transi##
unconc##
agains##
ancien##
appell##
apport##
busine##
castel##
collec##
half-c##
heureu##
indiff##
labrad##
lament##
manner##
marrie##
oficio##
pictur##
pneuma##
protec##
sangre##
tenido##
turned##
untran##
vieill##
willia##
yonvil##
bonnet##
broad-##
chrono##
comman##
compas##
consum##
depend##
facili##
hallad##
romanc##
serpen##
souven##
specta##
ventur##
action##
arrive##
billet##
campag##
consul##
domest##
entran##
estudi##
finger##
fuerte##
green-##
hypert##
lheure##
llamad##
llegan##
mechan##
metall##
minist##
offici##
perder##
petite##
philip##
prospe##
pusier##
scarce##
substa##
underd##
altisi##
auberg##
benefi##
candle##
carras##
chaise##
criado##
dijese##
disait##
haemat##
hepato##
honrad##
inconv##
materi##
obscur##
oreill##
origin##
overdi##
pareci##
recomp##
sembla##
suplic##
acerta##
bourge##
cosett##
cristi##
difere##
encami##
galvan##
matter##
mirand##
muchac##
nondef##
proper##
pudier##
quick-##
seeing##
siphon##
temero##
undisc##
yourse##
assist##
azotes##
besoin##
blood-##
confor##
daught##
desmay##
embarr##
estrec##
flower##
george##
hardly##
hatter##
large-##
lookin##
occasi##
orthop##
photoc##
prison##
rentra##
resolv##
right-##
seulem##
slight##
suppli##
suspir##
talkin##
thousa##
travel##
unconf##
anglo-##
believ##
called##
circul##
concie##
danger##
donati##
effect##
execut##
hacerl##
herman##
mauvai##
neurop##
nonrep##
organi##
oyendo##
patron##
police##
recibi##
recoll##
regret##
sulphu##
superm##
supero##
valent##
alegre##
apothi##
chapea##
destin##
devait##
embryo##
enceph##
enferm##
extrac##
immobi##
infant##
l'avai##
nonrec##
notice##
opport##
passan##
preter##
protes##
respue##
sensib##
tholom##
acanth##
agreem##
archiv##
bottle##
carria##
cuidad##
demoni##
desnud##
famili##
galact##
habita##
nonsen##
overpo##
oversp##
parall##
pauvre##
polyph##
proces##
reflec##
terrib##
tienes##
trange##
underr##
ureter##
ventri##
within##
argent##
bitter##
conseq##
convin##
defect##
defend##
devoir##
distan##
entram##
faltar##
favore##
hambre##
horse-##
indign##
l'enfa##
nonexp##
predic##
pudies##
quaran##
sorrow##
suelen##
thorou##
voitur##
volunt##
agreea##
answer##
aparta##
aperce##
astoni##
copper##
desven##
dit-el##
ensuit##
entere##
estuvo##
famill##
franci##
gloria##
glosso##
grypho##
imperi##
letras##
letter##
overca##
overla##
paradi##
pember##
photos##
prefer##
reales##
severa##
sobres##
stone-##
sulpha##
superv##
tempor##
trabaj##
underw##
vengan##
vieron##
voulai##
abando##
absolu##
accide##
acetyl##
advant##
antigu##
attemp##
bestia##
blanco##
bonheu##
celebr##
cranio##
credit##
desenc##
destos##
deuter##
distra##
effort##
esposo##
former##
hyperm##
intend##
livres##
meryto##
metaph##
nardie##
orange##
paragr##
permit##
pigeon##
practi##
priest##
reconc##
report##
resist##
self-f##
sepult##
splend##
superd##
transl##
unconv##
united##
violet##
walked##
baptis##
beauti##
blasto##
contad##
dendro##
doctor##
employ##
entrad##
extrav##
handso##
harmon##
humain##
hypere##
journa##
lendem##
length##
monstr##
multic##
multis##
parais##
period##
poitri##
positi##
regula##
rement##
requir##
retira##
socorr##
syllab##
tendre##
veinte##
villan##
vinier##
acabad##
aguard##
calcul##
compri##
doigts##
duches##
encima##
esprit##
first-##
french##
hasard##
impati##
includ##
merece##
needle##
overbr##
pleura##
pourra##
quadra##
respir##
sentir##
separa##
sudden##
taille##
tempes##
terror##
violen##
armado##
artifi##
cabell##
chante##
classi##
concep##
condui##
couche##
delica##
esposa##
figure##
forwar##
govern##
greate##
hydros##
imprim##
kerato##
leathe##
linaje##
longte##
melano##
modern##
mouvem##
mujere##
nouvel##
orient##
photot##
predes##
protoc##
seven-##
siguie##
sombre##
sortir##
street##
subjec##
suppor##
thorac##
veille##
versos##
well-t##
aconte##
allons##
appela##
autref##
blepha##
combat##
dactyl##
dejand##
dentro##
destas##
displa##
escond##
finish##
formal##
freque##
haberl##
heavy-##
hydrom##
llegad##
melanc##
mistak##
ordena##
purple##
recons##
resent##
reserv##
semi-i##
societ##
solemn##
sosega##
speech##
supern##
tolera##
well-e##
younge##
admire##
altern##
antimo##
apolog##
asimis##
chande##
chevau##
coffee##
colour##
confid##
consti##
contai##
cuisin##
cylind##
death-##
dehors##
efecto##
endeav##
excuse##
genoux##
invita##
longer##
mademo##
nonapp##
permis##
perpet##
photog##
purpos##
revint##
sacrif##
saying##
sermon##
sierra##
sortit##
sympat##
tomber##
urethr##
acknow##
afraid##
afterw##
append##
breast##
brough##
conozc##
corpor##
cotton##
dolori##
enviro##
exempl##
feelin##
fuerza##
humble##
irrita##
jusqu'##
l'avoc##
maestr##
manche##
mettre##
morpho##
nonext##
nourri##
opisth##
overha##
paraph##
parasi##
penden##
pintad##
popula##
protop##
recogi##
sesqui##
stiff-##
timber##
unexpe##
viento##
vinies##
alboro##
associ##
bienve##
compon##
courte##
defens##
depart##
disper##
flatte##
llevad##
magnif##
mandar##
method##
milagr##
misera##
overlo##
pesadu##
phanta##
pierre##
promes##
querid##
remarq##
rosing##
sangui##
sensat##
staphy##
sublim##
albard##
aventu##
barbar##
bondad##
breath##
convic##
corrid##
cuadri##
dejado##
dernie##
dinner##
donair##
epithe##
espejo##
evange##
everyb##
felici##
fortun##
galera##
gallar##
gauche##
hicier##
homoeo##
hubier##
hydrog##
intima##
intran##
justin##
malici##
manger##
miscon##
necesa##
nonimp##
nuestr##
oblige##
overgr##
overso##
photop##
polite##
pollin##
pre-en##
preste##
profun##
repart##
self-o##
shallo##
sident##
singul##
social##
sortai##
souffr##
stomat##
superb##
system##
tement##
transv##
unrepr##
visite##
admini##
advent##
antime##
anxiou##
brachi##
buscan##
campan##
ceremo##
commer##
compte##
condam##
consis##
crimin##
critic##
emport##
encour##
eviden##
faudra##
formul##
health##
humani##
hypoph##
jeunes##
lepido##
librar##
llevar##
macroc##
messie##
microb##
microg##
multif##
multit##
nonpar##
overfa##
parson##
patria##
phalan##
plasmo##
referi##
revere##
revers##
rubber##
sainte##
sectio##
silent##
someti##
string##
sucede##
tetrac##
tradem##
unappr##
underm##
voisin##
vuelto##
vuelve##
accord##
alkali##
amores##
antire##
aristo##
arrang##
bellez##
charit##
chlori##
dejaba##
dispen##
distre##
donnai##
entrai##
entreg##
figura##
franco##
great-##
hicies##
humild##
hyperd##
hypero##
initia##
likely##
manage##
marcel##
montag##
overdr##
paysan##
poster##
puisqu##
quebra##
rboles##
rebuzn##
reform##
speaki##
tetras##
tresse##
unprop##
venido##
well-m##
achrom##
amoros##
antiph##
arriba##
broken##
charre##
compet##
congre##
decirl##
dejase##
descui##
destru##
diente##
disent##
empres##
entrar##
excell##
faites##
fueran##
granul##
guerra##
half-d##
immens##
immuno##
impers##
increa##
interi##
intrac##
lichen##
magist##
milita##
miseri##
naphth##
nature##
never-##
penite##
piedra##
presby##
privat##
provin##
pyrami##
racont##
recept##
revena##
rienda##
seguro##
self-t##
sentid##
seriou##
spheno##
supert##
symbol##
thread##
tourne##
alaban##
assert##
beauty##
champm##
chauff##
coloni##
contro##
courag##
cubier##
demain##
disemb##
elegan##
fatiga##
fellow##
indige##
indisc##
influe##
inspir##
leonel##
meteor##
nondep##
nucleo##
pareil##
pasaro##
pedazo##
photom##
possib##
praise##
propio##
provis##
qu'une##
quinze##
regime##
ressem##
semble##
sevent##
sommes##
sourir##
subter##
superg##
superr##
theolo##
tropho##
undist##
volver##
well-l##
accent##
amista##
amphib##
amphit##
archae##
assemb##
averig##
bastan##
battle##
brusqu##
centri##
cerato##
comput##
desenv##
discov##
discur##
divert##
doucem##
duques##
elle-m##
encubr##
extrem##
fleurs##
forget##
france##
fuesen##
furthe##
hammer##
hechos##
ladysh##
laparo##
liquid##
loose-##
making##
memori##
mother##
multil##
nonacc##
nondec##
opposi##
overli##
overmo##
passag##
pepper##
phlebo##
premie##
presup##
pretty##
proto-##
quadru##
quedab##
rattle##
redist##
reposa##
repreh##
saddle##
salier##
slende##
songea##
steel-##
stupid##
synchr##
tetrap##
theatr##
tormen##
ultra-##
well-i##
wished##
abunda##
antipo##
antipr##
bonhom##
bridge##
catech##
cautio##
charma##
correr##
derrib##
desesp##
desire##
despec##
disput##
educat##
ensemb##
federa##
format##
forste##
fright##
half-r##
hertfo##
indulg##
interg##
llevan##
lympha##
occupa##
oscill##
overfl##
overma##
oversu##
overth##
pacien##
parado##
parame##
peregr##
precio##
preins##
presta##
propre##
quiter##
sancti##
savoir##
scanda##
seguir##
smoke-##
soupir##
sphaer##
spleno##
spongi##
subcom##
superl##
tiempo##
tyrann##
ventan##
well-w##
actual##
additi##
appare##
applic##
automa##
bureau##
cabine##
centra##
conden##
condit##
contor##
correc##
croyai##
decolo##
dehydr##
dextro##
entera##
exceed##
expedi##
explai##
fauteu##
gelati##
habili##
hablad##
half-a##
hundre##
hyperb##
knowle##
little##
llegab##
mejore##
mercur##
methyl##
miraba##
molido##
monarc##
monopo##
montai##
neithe##
noncor##
overtr##
oyeron##
paper-##
pencha##
petit-##
platin##
plusie##
prodig##
reprit##
restri##
rodill##
semipr##
siglos##
specia##
superh##
tendid##
thirty##
thromb##
uncorr##
unpers##
unself##
vision##
vuestr##
absent##
aconse##
agrada##
ammoni##
attrac##
au-des##
bourgh##
camara##
childr##
collin##
cuenta##
dislik##
dodeca##
dormou##
entomo##
exactl##
fiddle##
histoi##
hollow##
hombro##
horizo##
hypost##
insens##
instit##
invenc##
jurame##
mangea##
mantea##
marble##
marqui##
martin##
martyr##
mening##
monoch##
nectar##
nonass##
noninf##
overhe##
oversa##
partid##
pasada##
peligr##
perdid##
pierna##
planet##
polych##
porter##
retran##
rouaul##
self-b##
semeja##
souria##
stomac##
strait##
suffer##
talked##
tercer##
trigon##
tympan##
undera##
unreve##
voulut##
warran##
abraza##
absenc##
accusa##
aposta##
approa##
aprove##
arbres##
autori##
beyond##
button##
centro##
chlora##
combin##
commod##
conjec##
couleu##
creatu##
cyclop##
deseab##
droite##
encome##
escusa##
estorb##
estrel##
fabric##
faisan##
filles##
genero##
half-b##
hospit##
hypoch##
insist##
interj##
interw##
journe##
motion##
offend##
orthog##
out-of##
overwe##
piensa##
plaisi##
podero##
polari##
pouvoi##
precip##
progre##
prophe##
punctu##
qu'est##
regist##
relate##
reques##
respet##
rieure##
somato##
stream##
sugges##
trichi##
undisp##
unreco##
vienen##
well-g##
well-h##
alumin##
amenaz##
amiabl##
anyone##
arroga##
boulev##
cardin##
chacun##
chappa##
clothe##
corrup##
creati##
cultiv##
detene##
devenu##
disint##
dragon##
earnes##
econom##
excele##
faisai##
fashio##
gangli##
iglesi##
incomm##
ingrat##
leguas##
lentem##
mayord##
membra##
mercha##
mettai##
misapp##
monoph##
montra##
mounta##
nacido##
nation##
nonfor##
paules##
pensai##
percei##
percep##
perdon##
periph##
persis##
phytop##
pleasu##
pouvan##
prejud##
propag##
quiera##
refran##
refund##
reinte##
remove##
repren##
rideau##
script##
self-g##
self-l##
self-m##
self-w##
sentit##
sinist##
soneto##
splanc##
still-##
themse##
undere##
unifor##
unprec##
unprov##
volont##
whispe##
worse-##
abomin##
acorda##
americ##
arbitr##
ausenc##
bonnes##
breakf##
camach##
camino##
camisa##
caress##
cellul##
cinqua##
circun##
columb##
compue##
custom##
deserv##
deshon##
diable##
dificu##
discer##
discus##
dissim##
entire##
explic##
extrap##
flambe##
gradua##
half-f##
hippol##
illumi##
indica##
insect##
invest##
juntos##
licate##
macrop##
macros##
manceb##
mantel##
merely##
monter##
morcea##
nombra##
outsta##
overpl##
overti##
pacifi##
papill##
partia##
perist##
perlas##
phreno##
poetas##
pointe##
presum##
radiot##
razona##
recove##
releva##
retomb##
salido##
semide##
semina##
silico##
soldie##
swift-##
thinki##
tight-##
trifal##
trompe##
uncond##
virgin##
vulgar##
weight##
writte##
abiert##
antiqu##
antise##
appart##
arreme##
calami##
canoni##
cerrad##
chasse##
choose##
compen##
conced##
confia##
corrie##
creyen##
cuello##
d'arge##
decide##
desgra##
dilata##
disgra##
echino##
embras##
englis##
explan##
fitzwi##
forzos##
future##
gentes##
glycer##
hamete##
hydrot##
hyperi##
illust##
integr##
langue##
leones##
lequel##
limpia##
long-s##
lorenz##
maland##
mortal##
northe##
overac##
overme##
overpa##
oversh##
parthe##
planta##
poursu##
propor##
puzzle##
quitte##
reconf##
retrou##
rhabdo##
semire##
should##
signal##
soluti##
supple##
surtou##
tradit##
traduc##
tratar##
venera##
vuelta##
walkin##
whatev##
willow##
aderez##
albumi##
alcoho##
alforj##
allant##
alread##
amante##
amoure##
anti-i##
appreh##
articu##
bastar##
carret##
celada##
chicke##
cierta##
clean-##
cloud-##
concea##
confer##
congra##
cuchil##
davant##
decomp##
demeur##
desped##
dispro##
ejempl##
endorm##
engend##
entrea##
envoya##
extra-##
famosa##
fermos##
fluori##
gallin##
guarde##
humili##
identi##
knight##
lastim##
llorar##
mezcla##
nongra##
nonrev##
otherw##
ouvrit##
overbo##
overcr##
overfe##
pantal##
pectin##
phenyl##
porphy##
poussi##
predec##
quoiqu##
rappor##
raptur##
remont##
riquez##
salida##
salpin##
scheme##
scratc##
select##
semipa##
servir##
sombra##
sospec##
specif##
sulfur##
tenant##
tenemo##
tobacc##
ultram##
vaccin##
vecino##
venter##
visita##
vitupe##
vuelva##
wishes##
anatom##
anchor##
antima##
apothe##
argume##
arroja##
arseni##
asimes##
aucune##
aujour##
austen##
backst##
banque##
beginn##
better##
brothe##
captiv##
chanta##
chemis##
clear-##
cloche##
collet##
compag##
comply##
concor##
convie##
decarb##
duplic##
encont##
endoth##
estamo##
estanc##
frater##
frisso##
ganado##
gendar##
gratif##
hablan##
herida##
honey-##
imprud##
infier##
italia##
jardin##
knowin##
laquel##
leucoc##
living##
locura##
maladi##
meetin##
mesure##
meuble##
millio##
motive##
nombre##
noncha##
number##
obtain##
olvida##
opinio##
ostrac##
overem##
oyster##
pancre##
parfoi##
pasado##
patien##
perito##
perver##
planch##
plasti##
pocket##
portra##
precis##
preexp##
preind##
prepro##
quarre##
ready-##
reject##
reside##
retire##
ricote##
rostro##
sabbat##
scatte##
semain##
semipe##
sittin##
southe##
spermo##
spider##
spread##
streng##
succin##
surfac##
syphil##
toilet##
touche##
treint##
trench##
trumpe##
unless##
victor##
vingt-##
affirm##
afrent##
altera##
ambros##
andado##
antich##
anybod##
attrib##
august##
baiser##
belles##
bouton##
cabrio##
calori##
carbur##
caterp##
certif##
cervic##
checke##
cholec##
conjug##
contie##
croire##
degree##
dellas##
deposi##
descom##
dessus##
dialog##
diamon##
earth-##
easily##
entrev##
escape##
esopha##
fracti##
ginger##
gravel##
gregor##
hacers##
half-p##
hallab##
headin##
hibern##
hyperg##
instin##
interb##
invite##
latter##
lefran##
legiti##
llevas##
maison##
mandad##
median##
metal-##
missio##
mortif##
multiv##
myriel##
ndoles##
neglec##
orthod##
overch##
overfr##
overim##
parcel##
parrot##
philan##
ponerl##
powder##
preacc##
presid##
pronon##
reconv##
record##
refrac##
rieuse##
self-h##
sentad##
sincer##
sleep-##
sosieg##
subpro##
subtil##
techni##
testam##
transa##
ultras##
underh##
unhapp##
unplea##
unpres##
unsati##
unsupp##
vegeta##
volume##
vosotr##
woman-##
agitat##
alegra##
amphic##
antica##
appara##
approc##
ayudar##
barrel##
bellac##
brevet##
buscar##
casque##
chambe##
cincho##
claire##
comuni##
cooper##
cortic##
couple##
cria-t##
curiou##
damage##
decirs##
deseng##
disagr##
dramat##
effray##
emotio##
encend##
entrer##
establ##
exclam##
exhibi##
expens##
extern##
faible##
fertil##
frappa##
gravit##
half-i##
half-m##
hatche##
hearin##
hydrol##
illusi##
immort##
incont##
intens##
limite##
malaco##
meanin##
muscul##
nemato##
nomina##
nonsyn##
operat##
overdo##
overta##
paille##
partit##
penetr##
phenom##
pliqua##
plough##
poison##
poners##
preser##
procon##
prolog##
promot##
qu'ils##
refere##
refusa##
repent##
rescat##
reticu##
revolu##
schist##
silenc##
sonnet##
spindl##
spondy##
sugar-##
switch##
theoph##
unprof##
visito##
viveme##
wander##
welcom##
wooden##
writin##
yester##
acudir##
adorna##
antist##
arrier##
atenta##
ausent##
behind##
berber##
blackb##
blanda##
boutiq##
brazen##
burlas##
capabl##
cathol##
cement##
chapel##
chatte##
chorio##
compra##
concil##
convul##
crossb##
cuerdo##
cultur##
d'abor##
deceiv##
dejaro##
demasi##
deprec##
dichos##
diffus##
diminu##
disple##
disqui##
doctri##
dolich##
drawin##
duerme##
eccles##
encare##
entert##
felice##
forty-##
franch##
galeot##
goutte##
gracia##
gramma##
graves##
hymeno##
hypocr##
iguala##
incapa##
incorr##
induct##
inscri##
insole##
insula##
intrap##
involu##
joined##
justif##
lamell##
lengua##
llegas##
manife##
marito##
mediat##
melodi##
menest##
microt##
modera##
montan##
nement##
neurot##
oblong##
occipi##
ofrece##
overbu##
overcl##
overle##
overri##
pagado##
palaci##
pearl-##
peculi##
petrol##
pistol##
ponder##
porcel##
postco##
potent##
preach##
procee##
progra##
pronou##
proton##
puedes##
pulver##
puntua##
recogn##
redond##
repara##
restra##
robust##
romano##
romant##
sanglo##
scarle##
screen##
semima##
shovel##
siquie##
soleda##
steam-##
sujeto##
suppre##
suspec##
synthe##
testim##
tomado##
triang##
undefe##
undeli##
veilla##
vindic##
voudra##
voulez##
wester##
absorb##
academ##
acerca##
advier##
ambula##
analog##
anoche##
antici##
assura##
attitu##
bombar##
brown-##
calida##
capill##
carcin##
cardia##
carpet##
charmi##
chauss##
cheese##
claudi##
compad##
concei##
concre##
coutai##
decent##
demons##
desert##
despac##
diabol##
diaman##
digest##
diphth##
discip##
disgus##
encier##
encycl##
enterr##
entour##
envelo##
escali##
estate##
etheri##
famoso##
flores##
fluoro##
fuente##
georgi##
gettin##
gyneco##
homoge##
humana##
hydrox##
impart##
incorp##
innoce##
insign##
kindne##
l'ombr##
lanter##
lectur##
limita##
linear##
margar##
measur##
meille##
menton##
modest##
monkey##
monoto##
ncipes##
neceda##
nonret##
norman##
omphal##
orches##
overpe##
panthe##
pertur##
peuple##
plagio##
prepos##
pteryg##
pusies##
qualit##
quedan##
rapide##
readin##
recrea##
reliqu##
reproc##
restor##
retabl##
retard##
rhynch##
sabido##
segura##
seismo##
semian##
semidi##
statue##
stigma##
symphy##
temple##
throat##
toiles##
tombai##
toucha##
toxico##
trance##
trente##
tumult##
unacco##
uncirc##
unequa##
unfore##
vagabo##
vertic##
vesicu##
volupt##
whole-##
young-##
acostu##
adress##
advers##
alient##
allowe##
androg##
animat##
anomal##
atento##
belly-##
bouque##
carnes##
chambr##
classe##
coarse##
collar##
column##
commit##
concen##
crucif##
declin##
delibe##
depres##
deriva##
despoj##
during##
envidi##
episco##
eterna##
exerci##
extens##
femini##
fiesta##
foresh##
forgiv##
forgot##
fossil##
giving##
grapho##
hesita##
highly##
impass##
improp##
inconc##
indisp##
jacobi##
l'heur##
lieues##
medica##
medici##
morali##
ndosel##
nobody##
partou##
pauper##
perspi##
phaner##
photoe##
polyme##
preced##
puesto##
quince##
rayonn##
recont##
regala##
reinst##
rejoic##
rendre##
repris##
resign##
ridicu##
salama##
secure##
septem##
shadow##
shield##
slippe##
squamo##
strato##
subsid##
substr##
tailor##
techno##
teleph##
templa##
theori##
thimbl##
transu##
underv##
unrest##
unwill##
virtuo##
vulcan##
wretch##
absurd##
angeli##
appren##
appuya##
aspect##
autore##
baissa##
balanc##
ballad##
balsam##
bizarr##
blache##
bronze##
brutal##
cabare##
calend##
caroli##
carton##
cathar##
chemic##
choice##
chromi##
clavic##
compro##
contac##
contig##
corral##
crivit##
crooke##
cuanta##
cuesta##
dacryo##
dancin##
dedans##
desemb##
develo##
devena##
deveni##
dimanc##
diplom##
disant##
discla##
dissen##
dissol##
distil##
douleu##
episto##
escala##
eulogi##
expans##
fiery-##
full-f##
half-t##
heathe##
hesper##
hispan##
homolo##
hurrie##
inspec##
jargon##
l'accu##
l'arge##
labour##
malign##
mangan##
manqua##
mesmos##
minera##
morisc##
muerta##
ndolos##
nearly##
nonabs##
noninc##
nonmet##
nonspe##
north-##
opened##
osteop##
oversl##
parach##
parezc##
parlan##
partne##
patter##
pedicu##
pendul##
pensat##
pensio##
perica##
perine##
phoeni##
pleasi##
portes##
pousse##
prevai##
printe##
profan##
puerta##
quitad##
replac##
replic##
result##
rminos##
roentg##
rustic##
salies##
scient##
sculpt##
sentie##
septen##
soft-s##
solame##
somewh##
standa##
starch##
stretc##
surviv##
suspic##
taking##
talant##
tampoc##
tantal##
telegr##
tendit##
totali##
triump##
turbin##
tuvach##
under-##
unexpl##
unimpr##
unpred##
unsens##
unsupe##
vapour##
veratr##
verteb##
wanted##
whenev##
a-t-il##
abstra##
aimait##
amanec##
amphis##
anti-s##
anticl##
archit##
asteri##
astrol##
auricu##
austra##
bander##
beaver##
beggar##
border##
cadena##
candid##
cannon##
capric##
catalo##
centre##
chrysa##
cicatr##
cienci##
colora##
conjur##
cyclos##
defini##
descon##
desear##
dictat##
discri##
douceu##
ebooks##
estend##
excite##
exposi##
extras##
faltab##
fictio##
flagel##
fraile##
globul##
gobier##
grandi##
graphi##
hastil##
height##
housek##
indist##
inhabi##
insuff##
lacayo##
limpio##
llegue##
lobste##
mandam##
manifi##
marked##
medita##
memora##
mentec##
microf##
miente##
miniat##
narcot##
narice##
necrop##
nephew##
nickel##
ninety##
nondet##
nonsec##
nonuni##
nsulas##
nuevos##
occurr##
orchid##
orthoc##
outstr##
overra##
pentac##
perdue##
persig##
placer##
pleure##
pondai##
prairi##
preall##
prefor##
premed##
proced##
prompt##
prosec##
prosop##
prosta##
quinta##
quitta##
radiat##
reacti##
recita##
renova##
renver##
retrac##
sarcop##
scapul##
seleno##
semica##
sidero##
snake-##
soulie##
south-##
statio##
steady##
sterco##
sterno##
suburb##
subver##
tabula##
tallow##
testig##
thalam##
thalas##
tosilo##
transe##
transs##
treasu##
tribun##
trinit##
truth-##
turnin##
undete##
undoub##
unforg##
unintr##
unpart##
unprot##
untemp##
venced##
vendre##
ventro##
viscer##
volcan##
witnes##
##ically##
##ograph##
##bility##
##ations##
##ration##
##tional##
##edness##
##zation##
##leness##
##izatio##
##tation##
##abilit##
##usness##
##ousnes##
##blenes##
##ticall##
##cation##
##ologic##
##quasi-##
##nation##
##ablene##
##lation##
##counte##
##nesses##
##pseudo##
##ogical##
##logica##
##ection##
##ounter##
##icatio##
##graphi##
##tively##
##veness##
##ivenes##
##ationa##
##lement##
##aceous##
##logist##
##cephal##
##stical##
##ologis##
##ificat##
##raphic##
##ometer##
##electr##
##iously##
##ession##
##ficati##
##alness##
##contra##
##iousne##
##sation##
##metric##
##twice-##
##ferous##
##iferou##
##inatio##
##tivene##
##istica##
##contin##
##termin##
##graphy##
##lectro##
##ionist##
##presen##
##action##
##atical##
##resent##
##lizati##
##sville##
##miento##
##ibilit##
##ngness##
##headed##
##tednes##
##ingnes##
##amente##
##pressi##
##tionis##
##rative##
##omorph##
##mental##
##ionali##
##unders##
##ometri##
##branch##
##ssness##
##ulatio##
##ontinu##
##ulness##
##iation##
##tement##
##essnes##
##fulnes##
##lessne##
##shness##
##ention##
##listic##
##phical##
##ativel##
##hetero##
##lities##
##commen##
##entend##
##culate##
##tingly##
##ential##
##icular##
##sement##
##imagin##
##trical##
##flower##
##itatio##
##erable##
##encant##
##elling##
##respon##
##circum##
##hearte##
##ishnes##
##mation##
##minati##
##lizing##
##positi##
##eratio##
##rating##
##ements##
##isatio##
##making##
##etical##
##lastic##
##tative##
##torial##
##ctiona##
##lating##
##ticula##
##imient##
##struct##
##earted##
##-shape##
##person##
##psycho##
##shaped##
##minded##
##world-##
##issait##
##ermina##
##noncon##
##ifying##
##tering##
##alized##
##ctions##
##alizat##
##eather##
##ianism##
##teness##
##phobia##
##ranchi##
##tograp##
##rement##
##entati##
##sition##
##onally##
##iologi##
##aphica##
##etermi##
##spirit##
##ophobi##
##interc##
##determ##
##tabili##
##ective##
##morphi##
##ncanta##
##script##
##supers##
##conten##
##earing##
##plicat##
##espond##
##cement##
##satisf##
##anthro##
##genera##
##ordina##
##alisti##
##tribut##
##tion's##
##escent##
##tologi##
##espera##
##master##
##sively##
##conven##
##ressio##
##ulated##
##-minde##
##liness##
##nizati##
##-heade##
##nthrop##
##ephalo##
##onside##
##oplast##
##ventur##
##rticul##
##double##
##gation##
##interr##
##matica##
##nsider##
##oscope##
##admira##
##consid##
##dednes##
##iculat##
##essive##
##ionall##
##t-elle##
##colore##
##ricall##
##commun##
##ntatio##
##import##
##nstant##
##calnes##
##ogenic##
##onalis##
##gicall##
##prehen##
##thermo##
##articu##
##dition##
##nville##
##ooking##
##uction##
##ending##
##three-##
##direct##
##enetic##
##escrib##
##icalne##
##itable##
##produc##
##etrica##
##therap##
##expres##
##ositio##
##christ##
##compli##
##lution##
##ension##
##illing##
##lative##
##sivene##
##xpress##
##dation##
##ferent##
##alizin##
##minate##
##antado##
##descen##
##acious##
##-color##
##compre##
##iction##
##vation##
##nating##
##nologi##
##olored##
##rously##
##interp##
##-faced##
##discre##
##graphe##
##genous##
##magina##
##nograp##
##nistic##
##ringly##
##cantad##
##hologi##
##rologi##
##nement##
##ontent##
##ocepha##
##sibili##
##nizing##
##olutio##
##phthal##
##sional##
##cultur##
##ission##
##lookin##
##nicall##
##chroma##
##concer##
##cross-##
##onical##
##ighted##
##omania##
##ressed##
##thetic##
##vement##
##ership##
##licate##
##self-c##
##ationi##
##gement##
##repres##
##change##
##orship##
##format##
##lessly##
##respec##
##rizati##
##lingly##
##morpho##
##rograp##
##yellow##
##culati##
##hicall##
##perfec##
##attend##
##ectomy##
##geneti##
##iaceae##
##libera##
##othera##
##omatic##
##natura##
##rousne##
##tracti##
##dactyl##
##oblast##
##otropi##
##phosph##
##riness##
##transp##
##atural##
##erdade##
##escenc##
##ionary##
##itting##
##ntness##
##onable##
##verdad##
##conver##
##ephali##
##inable##
##precon##
##iblene##
##genesi##
##saient##
##stitut##
##guarda##
##inated##
##interm##
##oscopi##
##ssiona##
##comple##
##ez-vou##
##scence##
##z-vous##
##acteri##
##minist##
##regard##
##dispar##
##gentle##
##missio##
##erfect##
##espect##
##fishes##
##ncepha##
##strati##
##ishing##
##object##
##stance##
##cative##
##consci##
##ncontr##
##ometry##
##superi##
##adores##
##enceph##
##instan##
##magnet##
##tropic##
##inters##
##princi##
##profes##
##tongue##
##gastro##
##ilitie##
##inform##
##intell##
##itical##
##pastor##
##litera##
##ommuni##
##hromat##
##ouble-##
##partic##
##rapher##
##rincip##
##uation##
##ientos##
##monger##
##nction##
##rdader##
##roscop##
##tament##
##transf##
##amenta##
##eologi##
##etting##
##iograp##
##nderst##
##rizing##
##secret##
##temper##
##differ##
##expect##
##ativen##
##eating##
##fferen##
##trophi##
##cating##
##chondr##
##enesis##
##inesse##
##procur##
##rament##
##ristic##
##self-d##
##shment##
##entali##
##histor##
##observ##
##tarian##
##iffere##
##ophili##
##tioned##
##tifica##
##dering##
##itious##
##dispos##
##ersona##
##icated##
##ouvert##
##silver##
##-leave##
##compos##
##it-ell##
##ophyll##
##single##
##though##
##tructi##
##ulator##
##demand##
##distri##
##eading##
##esenta##
##descub##
##essing##
##matous##
##palaeo##
##tiness##
##aissai##
##ciones##
##hought##
##leaved##
##mpress##
##persua##
##contem##
##nstruc##
##ontemp##
##organi##
##handed##
##mporta##
##phyllo##
##superc##
##terial##
##distin##
##heureu##
##istori##
##ogenes##
##physic##
##rained##
##ertain##
##instru##
##ternal##
##tionar##
##assion##
##esente##
##ortion##
##affect##
##atenes##
##ensive##
##laient##
##passio##
##relati##
##scopic##
##supera##
##tholog##
##thropo##
##iencia##
##lighte##
##ressiv##
##suppos##
##anchia##
##impres##
##licati##
##native##
##parent##
##reason##
##tourna##
##uestra##
##vieron##
##vision##
##collec##
##consol##
##ctivel##
##culari##
##escend##
##mentar##
##nforma##
##ollect##
##white-##
##appear##
##charge##
##ishmen##
##levant##
##centri##
##erence##
##ormati##
##scribe##
##syllab##
##tablen##
##enesse##
##itiona##
##oratio##
##plasti##
##rmatio##
##chloro##
##erativ##
##ferenc##
##logies##
##overco##
##quadri##
##second##
##isting##
##lectio##
##nalist##
##olitic##
##active##
##aining##
##ialize##
##ochrom##
##anship##
##conoci##
##esting##
##ground##
##imenta##
##lising##
##ulatin##
##urable##
##ecting##
##nonpro##
##ogenet##
##spring##
##suspen##
##cripti##
##dingly##
##eprese##
##lowing##
##ogenou##
##bacter##
##carbon##
##endait##
##estion##
##ntinua##
##stanti##
##tching##
##ensibl##
##iating##
##inatin##
##ophysi##
##rabili##
##-looki##
##ematic##
##erated##
##ologie##
##religi##
##tempor##
##asting##
##propri##
##servic##
##sulpho##
##entero##
##mentat##
##nalize##
##promet##
##specia##
##stereo##
##tentio##
##constr##
##elf-co##
##eville##
##ophtha##
##puesta##
##servat##
##tology##
##tuvier##
##bjecti##
##centra##
##ciousn##
##eeding##
##ientes##
##ionate##
##izable##
##lusion##
##tomies##
##tratio##
##biliti##
##compar##
##iaceou##
##icator##
##ighten##
##istian##
##monstr##
##niform##
##nsible##
##promis##
##quiera##
##rehens##
##alitie##
##istrib##
##ntable##
##odonti##
##ractio##
##rystal##
##sentim##
##sidera##
##stribu##
##cident##
##confus##
##crimin##
##easure##
##ermato##
##presse##
##crysta##
##hthalm##
##inking##
##interl##
##liform##
##timent##
##trouva##
##crypto##
##eption##
##fectio##
##gramma##
##issant##
##obliga##
##ristia##
##stroph##
##anding##
##gressi##
##micall##
##ntendi##
##onvill##
##siness##
##strate##
##taient##
##tivity##
##voluti##
##accept##
##entric##
##ervati##
##pecial##
##public##
##self-s##
##depend##
##esthes##
##ficien##
##footed##
##infini##
##penden##
##school##
##self-a##
##string##
##dresse##
##mediat##
##ntinue##
##rough-##
##strong##
##wonder##
##alised##
##ciousl##
##conduc##
##declar##
##eaking##
##erless##
##nifica##
##sthesi##
##tender##
##tizati##
##traver##
##ceptio##
##ehensi##
##elight##
##estima##
##politi##
##alling##
##amento##
##capita##
##eograp##
##erical##
##ialist##
##identi##
##ingle-##
##intere##
##ndedne##
##ocrati##
##opical##
##portan##
##romete##
##stomat##
##atisfa##
##atoria##
##inging##
##micros##
##mostra##
##onaliz##
##physio##
##ravers##
##recomm##
##return##
##ularly##
##well-c##
##arthro##
##astica##
##connec##
##enerat##
##honest##
##inistr##
##lectri##
##onnect##
##quaint##
##romati##
##simple##
##ation'##
##camina##
##chromo##
##dermat##
##eratin##
##favour##
##iality##
##icativ##
##justic##
##sclero##
##atolog##
##civili##
##dynami##
##escubr##
##evanta##
##ignora##
##ispara##
##multip##
##regula##
##rescen##
##semble##
##tating##
##ttered##
##classi##
##ellow-##
##icious##
##iology##
##llemen##
##nstitu##
##onless##
##orphic##
##oscopy##
##stress##
##tailed##
##uratio##
##ductio##
##enamor##
##entlem##
##erment##
##philos##
##ributi##
##sitive##
##speran##
##strict##
##trange##
##antage##
##entime##
##inator##
##pregun##
##regunt##
##short-##
##cience##
##enture##
##formed##
##ligenc##
##portio##
##quarte##
##stable##
##supere##
##alcanz##
##arriva##
##dicati##
##encies##
##factio##
##ilosop##
##ionism##
##itativ##
##losoph##
##motion##
##ophore##
##pharyn##
##titude##
##ventio##
##argent##
##arious##
##bright##
##chlori##
##chrono##
##courag##
##cratic##
##ensati##
##illage##
##inclin##
##lament##
##lander##
##mother##
##onstra##
##provid##
##pruden##
##advert##
##alient##
##commis##
##critic##
##empera##
##finger##
##hiloso##
##interv##
##lisati##
##nterco##
##ointed##
##ominat##
##scribi##
##statio##
##uctive##
##vantag##
##angula##
##eneral##
##engage##
##nished##
##onstru##
##pneumo##
##ralize##
##rendre##
##snesse##
##specta##
##ticism##
##eringl##
##ssembl##
##stinct##
##tituti##
##-foote##
##accomp##
##alking##
##aneous##
##experi##
##riousl##
##sembla##
##smooth##
##turned##
##bearin##
##consej##
##ellate##
##equent##
##nature##
##perati##
##pointe##
##reconc##
##ssemen##
##static##
##substa##
##tizing##
##tropho##
##uarter##
##credit##
##german##
##ignifi##
##ossess##
##rimina##
##roduct##
##tified##
##underc##
##valent##
##water-##
##cimien##
##endenc##
##eriali##
##ersuad##
##ichthy##
##latter##
##llable##
##muestr##
##munica##
##olysis##
##otherm##
##posses##
##rising##
##sionis##
##transm##
##aciend##
##ctable##
##dental##
##lograp##
##ornith##
##overst##
##pharma##
##prince##
##rother##
##tterin##
##ulture##
##compan##
##corpor##
##ectomi##
##elatio##
##enting##
##erlike##
##harmac##
##hemato##
##ircums##
##isable##
##nventi##
##oplasm##
##practi##
##resses##
##rianis##
##self-r##
##sponde##
##tresse##
##atingl##
##cardio##
##creati##
##examin##
##iberal##
##illion##
##manshi##
##ochemi##
##please##
##rialis##
##talize##
##transc##
##tricho##
##uperin##
##utatio##
##utting##
##well-s##
##atured##
##biolog##
##ctioni##
##dadera##
##deligh##
##educat##
##egunta##
##entral##
##ersion##
##establ##
##friend##
##ntrans##
##omical##
##ortait##
##preven##
##quisit##
##rablen##
##rectio##
##scienc##
##sequen##
##tendai##
##troubl##
##unctio##
##ystall##
##acquai##
##alisin##
##arines##
##author##
##breath##
##cquain##
##hospho##
##indust##
##latory##
##mechan##
##mologi##
##ngular##
##oncert##
##onform##
##servan##
##sulphu##
##tuberc##
##ubstan##
##ulphur##
##utiona##
##atable##
##cardia##
##commod##
##emical##
##entien##
##gigant##
##holder##
##hrough##
##imeter##
##improv##
##inding##
##jectio##
##knowle##
##microc##
##mouthe##
##ntally##
##ourage##
##overpr##
##propos##
##rammat##
##riform##
##rofess##
##strain##
##throug##
##winter##
##bercul##
##church##
##existe##
##harmon##
##intern##
##ndustr##
##noncom##
##nterpr##
##operat##
##perfor##
##rocura##
##trache##
##ensiti##
##entall##
##ervant##
##escrit##
##inting##
##ionabl##
##lanche##
##moment##
##ndable##
##nfinit##
##nomina##
##nteres##
##ntimen##
##osophi##
##quitar##
##rially##
##consta##
##descri##
##endent##
##ficial##
##haryng##
##itions##
##nowled##
##obranc##
##onserv##
##ounded##
##outhed##
##owledg##
##prendr##
##probab##
##rminat##
##self-i##
##sperma##
##ssible##
##ssions##
##ubercu##
##agneti##
##alment##
##ariani##
##aughte##
##colour##
##consum##
##eureux##
##iscret##
##lf-con##
##llatio##
##nising##
##orious##
##overin##
##raight##
##resolu##
##rowing##
##straig##
##traigh##
##urning##
##chemic##
##confes##
##design##
##enemig##
##erator##
##ermine##
##erythr##
##follow##
##idence##
##microp##
##naient##
##portai##
##self-p##
##ternat##
##ultura##
##unding##
##-hande##
##acanth##
##ateria##
##blanch##
##certai##
##conclu##
##eflect##
##ipping##
##materi##
##matize##
##nology##
##orable##
##ostati##
##phonic##
##popula##
##predis##
##prosig##
##reserv##
##signif##
##tially##
##uasi-c##
##uncont##
##ammati##
##appela##
[...]
