the
and
to
it
she
of
said
you
alice
in
was
that
as
her
at
on
all
with
had
but
for
so
they
be
not
very
what
this
little
he
out
is
one
down
there
up
his
if
about
then
no
them
know
like
were
again
herself
went
would
do
have
when
could
or
queen
thought
off
how
me
time
into
see
who
gryphon##
duchess##
dormous##
nothing##
looking##
caterpi##
replied##
without##
chapter##
another##
getting##
curious##
questio##
anythin##
however##
remembe##
somethi##
anxious##
certain##
perhaps##
talking##
beautif##
hastily##
because##
lobster##
beginni##
creatur##
everyth##
silence##
suppose##
through##
hurried##
suddenl##
croquet##
finishe##
interru##
majesty##
serpent##
surpris##
turning##
convers##
executi##
explain##
footman##
growing##
minutes##
soldier##
thinkin##
whether##
believe##
childre##
conside##
general##
hedgeho##
lessons##
offende##
remarke##
repeate##
sitting##
witness##
yoursel##
against##
angrily##
continu##
differe##
feeling##
importa##
puzzled##
shouted##
timidly##
togethe##
twinkle##
waiting##
whisper##
##gryphon##
##duchess##
##dormous##
##ormouse##
##nothing##
##looking##
##aterpil##
##caterpi##
##erpilla##
##replied##
##rpillar##
##terpill##
##without##
##getting##
##chapter##
##another##
##curious##
##questio##
##uestion##
##anythin##
##emember##
##however##
##nything##
##remembe##
##mething##
##omethin##
##somethi##
##anxious##
##certain##
##perhaps##
##talking##
##beautif##
##hastily##
##autiful##
##because##
##eautifu##
##lobster##
##beginni##
##creatur##
##eginnin##
##ertainl##
##erythin##
##everyth##
##footman##
##ginning##
##nxiousl##
##ogether##
##reature##
##rtainly##
##rything##
##silence##
##suppose##
##through##
##togethe##
##venture##
##verythi##
##xiously##
##hurried##
##suddenl##
##turning##
##uddenly##
##croquet##
##finishe##
##importa##
##inished##
##interru##
##majesty##
##mportan##
##nterrup##
##portant##
##serpent##
##surpris##
##terrupt##
##urprise##
##convers##
##ecution##
##ersatio##
##executi##
##explain##
##growing##
##hinking##
##minutes##
##nversat##
##onversa##
##rsation##
##soldier##
##thinkin##
##versati##
##whether##
##xecutio##
##appeare##
##believe##
##childre##
##conside##
##eatures##
##edgehog##
##emarked##
##epeated##
##ffended##
##general##
##ghtened##
##hedgeho##
##hildren##
##ightene##
##lessons##
##offende##
##oldiers##
##onsider##
##ourself##
##ppeared##
##remarke##
##repeate##
##righten##
##sitting##
##witness##
##yoursel##
##against##
##angrily##
##continu##
##differe##
##errupte##
##feeling##
##fferent##
##ifferen##
##ndering##
##ntinued##
##ontinue##
##puzzled##
##rrupted##
##shouted##
##timidly##
##twinkle##
##waiting##
##whisper##
##ardener##
##changed##
##comfort##
##confusi##
##directi##
##distanc##
##dreadfu##
##eagerly##
##erybody##
##everybo##
##evidenc##
##exactly##
##execute##
##followe##
##frighte##
##gardene##
##houlder##
##irectio##
##istance##
##meaning##
##mushroo##
##noticed##
##ollowed##
##opportu##
##ortunit##
##patient##
##portuni##
##pportun##
##present##
##rdeners##
##readful##
##rection##
##rtunity##
##running##
##shoulde##
##underst##
##ushroom##
##verybod##
##vidence##
##whiting##
##william##
##adventu##
##appened##
##atching##
##atientl##
##busines##
##cheshir##
##chimney##
##decided##
##delight##
##difficu##
##dventur##
##enerall##
##entence##
##entures##
##fficult##
##flaming##
##fortabl##
##happene##
##heshire##
##history##
##ifficul##
##lamingo##
##mfortab##
##nerally##
##nonsens##
##obsters##
##omebody##
##omforta##
##onderin##
##onsense##
##pleased##
##possibl##
##pressed##
##resting##
##rprised##
##sentenc##
##somebod##
##subject##
##tiently##
##treacle##
##usiness##
##wonderi##
##writing##
##gryphon
##duchess
##ormouse
##nothing
##looking
##replied
##rpillar
##without
##getting
##chapter
##another
##however
##nything
##curious
##mething
##perhaps
##talking
##uestion
##hastily
##because
##emember
##footman
##ginning
##ogether
##rtainly
##rything
##silence
##suppose
##through
##xiously
##autiful
##turning
##uddenly
##inished
##majesty
##portant
##growing
##hinking
##hurried
##minutes
##whether
##eatures
##emarked
##epeated
##explain
##ffended
##ghtened
##hildren
##lessons
##oldiers
##ourself
##ppeared
##sitting
##witness
##against
##angrily
##believe
##fferent
##ndering
##ntinued
##puzzled
##rrupted
##rsation
##serpent
##shouted
##timidly
##waiting
##changed
##eagerly
##erybody
##exactly
##istance
##lobster
##meaning
##noticed
##ollowed
##rdeners
##rtunity
##running
##twinkle
##ushroom
##vidence
##whiting
##william
##appened
##atching
##edgehog
##entures
##feeling
##heshire
##history
##nerally
##obsters
##omebody
##onsense
##pleased
##pressed
##resting
##rprised
##tiently
##usiness
turtle##
hatter##
grypho##
rabbit##
looked##
duches##
dormou##
should##
before##
nothin##
minute##
lookin##
moment##
wonder##
things##
caterp##
replie##
remark##
please##
seemed##
withou##
course##
rather##
change##
chapte##
garden##
anothe##
gettin##
curiou##
happen##
questi##
anythi##
howeve##
rememb##
repeat##
execut##
enough##
finish##
someth##
sudden##
anxiou##
beauti##
certai##
perhap##
talkin##
though##
hastil##
indeed##
turned##
becaus##
called##
lobste##
saying##
answer##
beginn##
better##
creatu##
everyt##
itself##
silenc##
suppos##
throug##
trying##
always##
behind##
follow##
hurrie##
lesson##
notice##
people##
really##
twinkl##
wouldn##
afraid##
appear##
confus##
croque##
direct##
hardly##
interr##
listen##
majest##
pigeon##
serpen##
surpri##
turnin##
conver##
explai##
footma##
gloves##
growin##
manage##
matter##
nearly##
offend##
reason##
sister##
soldie##
thinki##
waited##
whethe##
believ##
bottle##
bright##
childr##
consid##
distan##
either##
fright##
genera##
having##
hedgeh##
opened##
puzzle##
sittin##
walked##
witnes##
yourse##
agains##
angril##
coming##
contin##
couldn##
differ##
eviden##
feelin##
import##
pepper##
shoute##
timidl##
togeth##
trembl##
waitin##
whispe##
##turtle##
##hatter##
##grypho##
##ryphon##
##rabbit##
##looked##
##duches##
##uchess##
##ormous##
##dormou##
##rmouse##
##should##
##before##
##othing##
##nothin##
##ything##
##lookin##
##minute##
##ooking##
##moment##
##things##
##wonder##
##aterpi##
##caterp##
##eplied##
##erpill##
##pillar##
##replie##
##rpilla##
##terpil##
##remark##
##etting##
##please##
##seemed##
##course##
##ithout##
##withou##
##gettin##
##rather##
##change##
##chapte##
##garden##
##hapter##
##urious##
##alking##
##anothe##
##nother##
##curiou##
##estion##
##happen##
##questi##
##uestio##
##anythi##
##emembe##
##howeve##
##member##
##nythin##
##owever##
##rememb##
##repeat##
##execut##
##iously##
##enough##
##ething##
##finish##
##methin##
##omethi##
##someth##
##sudden##
##turned##
##anxiou##
##beauti##
##certai##
##erhaps##
##ertain##
##nished##
##nxious##
##perhap##
##talkin##
##though##
##astily##
##eautif##
##hastil##
##indeed##
##inking##
##marked##
##autifu##
##becaus##
##called##
##dering##
##ecause##
##inning##
##lobste##
##obster##
##saying##
##utiful##
##answer##
##appear##
##beginn##
##better##
##creatu##
##eature##
##eginni##
##enture##
##erythi##
##everyt##
##footma##
##gether##
##ginnin##
##hrough##
##ilence##
##itself##
##ogethe##
##ootman##
##reatur##
##rtainl##
##rythin##
##sation##
##silenc##
##suppos##
##tainly##
##throug##
##togeth##
##trying##
##uppose##
##urning##
##urried##
##ventur##
##veryth##
##xiousl##
##always##
##behind##
##ddenly##
##follow##
##hurrie##
##lesson##
##notice##
##people##
##really##
##rowing##
##turnin##
##twinkl##
##uddenl##
##wouldn##
##afraid##
##ajesty##
##butter##
##confus##
##croque##
##direct##
##either##
##erpent##
##errupt##
##hardly##
##ighten##
##import##
##inishe##
##interr##
##listen##
##majest##
##mporta##
##nterru##
##ortant##
##pigeon##
##portan##
##roquet##
##rprise##
##serpen##
##stance##
##surpri##
##terrup##
##urpris##
##conver##
##cution##
##ecutio##
##elieve##
##ersati##
##explai##
##gloves##
##growin##
##hether##
##hinkin##
##inutes##
##manage##
##matter##
##nearly##
##nversa##
##offend##
##oldier##
##onvers##
##oursel##
##reason##
##rsatio##
##sister##
##soldie##
##thinki##
##versat##
##waited##
##whethe##
##xecuti##
##xplain##
##atures##
##believ##
##bottle##
##bright##
##childr##
##coming##
##consid##
##dgehog##
##distan##
##eaning##
##ection##
##edgeho##
##eeling##
##emarke##
##eneral##
##epeate##
##essons##
##fended##
##ffende##
##fright##
##genera##
##ghtene##
##having##
##hedgeh##
##hildre##
##htened##
##ildren##
##itness##
##itting##
##ldiers##
##mbling##
##nsider##
##onside##
##opened##
##peared##
##peated##
##ppeare##
##puzzle##
##ressed##
##righte##
##sittin##
##urself##
##walked##
##witnes##
##yourse##
##agains##
##aiting##
##angril##
##contin##
##couldn##
##differ##
##eviden##
##feelin##
##ferent##
##fferen##
##gainst##
##ground##
##hisper##
##houted##
##iffere##
##imidly##
##llowed##
##nderin##
##ngrily##
##ntinue##
##ontinu##
##patien##
##pepper##
##rrupte##
##rupted##
##shoute##
##tching##
##timidl##
##tinued##
##trembl##
##unning##
##uzzled##
##waitin##
##whispe##
##winkle##
##turtle
##hatter
##ryphon
##rabbit
##looked
##uchess
##rmouse
##before
##othing
##ything
##moment
##ooking
##things
##eplied
##pillar
##etting
##seemed
##should
##course
##ithout
##rather
##hapter
##alking
##nother
##minute
##owever
##urious
##iously
##please
##enough
##ething
##turned
##wonder
##erhaps
##estion
##nished
##astily
##garden
##indeed
##inking
##marked
##called
##dering
##ecause
##inning
##saying
##better
##change
##gether
##hrough
##ilence
##itself
##member
##ootman
##tainly
##trying
##uppose
##urning
##always
##behind
##ddenly
##people
##really
##rowing
##utiful
##wouldn
##afraid
##ajesty
##either
##hardly
##ortant
##pigeon
##sation
##urried
##gloves
##hether
##inutes
##nearly
##stance
##though
##waited
##atures
##bottle
##coming
##eaning
##essons
##fended
##having
##htened
##ildren
##itness
##itting
##ldiers
##mbling
##opened
##peared
##peated
##remark
##ressed
##urself
##walked
##xplain
##aiting
##answer
##butter
##couldn
##elieve
##erpent
##ferent
##gainst
##ground
##houted
##imidly
##llowed
##matter
##ngrily
##reason
##rupted
##sister
##tching
##tinued
##unning
##uzzled
thing##
think##
turtl##
began##
hatte##
gryph##
quite##
rabbi##
their##
first##
other##
voice##
never##
which##
after##
looke##
mouse##
duche##
large##
round##
dormo##
shoul##
great##
befor##
march##
every##
nothi##
right##
found##
minut##
pleas##
begin##
looki##
momen##
wonde##
heard##
white##
cater##
repli##
might##
remar##
three##
going##
seeme##
under##
chang##
curio##
while##
witho##
cours##
rathe##
shall##
chapt##
garde##
added##
somet##
anoth##
child##
getti##
happe##
quest##
silen##
speak##
words##
anyth##
court##
cried##
house##
howev##
remem##
repea##
being##
execu##
tried##
enoug##
finis##
inter##
spoke##
sudde##
table##
where##
anxio##
asked##
beaut##
certa##
close##
perha##
talki##
thoug##
doesn##
hasti##
indee##
turne##
becau##
calle##
leave##
lobst##
sayin##
small##
answe##
bette##
creat##
dinah##
expla##
itsel##
mouth##
notic##
ought##
puzzl##
suppo##
these##
throu##
tryin##
##thing##
##mouse##
##other##
##atter##
##think##
##turtl##
##urtle##
##began##
##hatte##
##gryph##
##quite##
##right##
##rypho##
##yphon##
##abbit##
##rabbi##
##round##
##their##
##first##
##voice##
##never##
##which##
##after##
##looke##
##ooked##
##tting##
##chess##
##duche##
##uches##
##large##
##ormou##
##rmous##
##dormo##
##hould##
##shoul##
##efore##
##great##
##befor##
##ourse##
##oking##
##march##
##othin##
##ather##
##every##
##nothi##
##pleas##
##ythin##
##found##
##inute##
##looki##
##minut##
##ookin##
##begin##
##hings##
##momen##
##oment##
##onder##
##wonde##
##heard##
##white##
##aterp##
##ation##
##cater##
##eplie##
##erpil##
##illar##
##pilla##
##plied##
##repli##
##rpill##
##terpi##
##under##
##emark##
##might##
##remar##
##three##
##eemed##
##ettin##
##going##
##lease##
##ouldn##
##seeme##
##while##
##chang##
##cours##
##curio##
##ithou##
##nning##
##thout##
##witho##
##ether##
##getti##
##rathe##
##rious##
##shall##
##table##
##apter##
##arden##
##chapt##
##ering##
##garde##
##hange##
##hapte##
##iting##
##where##
##added##
##aking##
##ought##
##somet##
##uriou##
##alkin##
##anoth##
##child##
##lking##
##nothe##
##quest##
##rning##
##appen##
##estio##
##happe##
##ously##
##silen##
##speak##
##stion##
##tures##
##uesti##
##words##
##anyth##
##cause##
##court##
##cried##
##ember##
##ememb##
##epeat##
##fully##
##house##
##howev##
##membe##
##nythi##
##oweve##
##owing##
##remem##
##repea##
##rough##
##rying##
##wever##
##being##
##execu##
##inter##
##iousl##
##rried##
##sleep##
##tiful##
##tried##
##xecut##
##aving##
##enoug##
##ently##
##ethin##
##etter##
##finis##
##inish##
##methi##
##nough##
##ometh##
##rtain##
##spoke##
##sudde##
##turne##
##udden##
##urned##
##utter##
##anxio##
##asked##
##aying##
##beaut##
##certa##
##close##
##eauti##
##erhap##
##ertai##
##hough##
##ished##
##nishe##
##nxiou##
##pened##
##perha##
##rhaps##
##talki##
##thoug##
##xious##
##arked##
##astil##
##ature##
##autif##
##doesn##
##hasti##
##indee##
##inkin##
##lence##
##marke##
##ndeed##
##nking##
##stily##
##story##
##tions##
##ainly##
##alled##
##appea##
##becau##
##bster##
##calle##
##derin##
##ecaus##
##footm##
##ighte##
##innin##
##leave##
##lobst##
##obste##
##sayin##
##small##
##utifu##
##thing
##mouse
##atter
##other
##urtle
##began
##quite
##yphon
##round
##think
##their
##first
##which
##abbit
##never
##voice
##ooked
##tting
##after
##chess
##right
##efore
##great
##oking
##march
##ather
##large
##found
##hings
##oment
##heard
##white
##illar
##plied
##might
##eemed
##going
##hould
##ouldn
##nning
##ourse
##thout
##three
##while
##ether
##shall
##table
##apter
##ation
##ering
##added
##aking
##iting
##lking
##rning
##inute
##ously
##rious
##tures
##where
##words
##cried
##fully
##owing
##wever
##being
##lease
##rying
##tried
##aving
##cause
##court
##ently
##house
##nough
##onder
##urned
##asked
##aying
##etter
##ished
##ought
##pened
##rhaps
##rried
##spoke
##stion
##tiful
##under
##arden
##arked
##doesn
##lence
##ndeed
##nking
##stily
##story
##tions
##ainly
##alled
##speak
thin##
look##
some##
your##
king##
turt##
head##
hear##
well##
bega##
hatt##
mock##
ever##
gryp##
quit##
much##
rabb##
just##
thei##
firs##
here##
othe##
shou##
voic##
only##
more##
neve##
whic##
come##
cour##
must##
afte##
mous##
duch##
over##
tone##
turn##
larg##
roun##
such##
will##
back##
came##
dorm##
long##
seem##
grea##
been##
befo##
make##
whit##
from##
grow##
hand##
last##
tell##
marc##
plea##
foun##
noth##
once##
repl##
righ##
door##
rema##
dear##
minu##
begi##
chan##
hare##
mome##
near##
talk##
wond##
word##
made##
next##
thre##
cate##
eyes##
mean##
than##
migh##
take##
with##
goin##
good##
poor##
soon##
unde##
curi##
jury##
upon##
whil##
away##
call##
does##
find##
hurr##
rath##
shal##
chap##
foot##
gard##
same##
sure##
took##
adde##
even##
felt##
half##
read##
sort##
thro##
anot##
chil##
gett##
happ##
sigh##
till##
beau##
crie##
ques##
reme##
side##
sile##
spea##
wait##
wish##
anyt##
face##
hard##
hous##
howe##
open##
repe##
supp##
walk##
bein##
exec##
feet##
thou##
trie##
writ##
##thin##
##hing##
##king##
##ther##
##ever##
##ight##
##ting##
##tter##
##look##
##ouse##
##ound##
##some##
##tion##
##mous##
##atte##
##ning##
##here##
##othe##
##your##
##ough##
##ling##
##head##
##nder##
##hink##
##rtle##
##well##
##ould##
##reat##
##turt##
##urtl##
##ches##
##hear##
##egan##
##ried##
##bega##
##hatt##
##mock##
##noth##
##come##
##gryp##
##phon##
##quit##
##righ##
##ryph##
##uite##
##ypho##
##abbi##
##bbit##
##just##
##much##
##rabb##
##cour##
##heir##
##oice##
##roun##
##thei##
##firs##
##irst##
##only##
##ring##
##shou##
##voic##
##long##
##neve##
##ying##
##hich##
##more##
##whic##
##ment##
##oked##
##must##
##ious##
##read##
##afte##
##arch##
##fter##
##ooke##
##ours##
##thou##
##ttin##
##turn##
##over##
##tone##
##fore##
##leas##
##uche##
##arge##
##came##
##duch##
##hess##
##side##
##will##
##hand##
##larg##
##ormo##
##rmou##
##ster##
##such##
##ance##
##back##
##dorm##
##houl##
##seem##
##urse##
##appe##
##efor##
##ered##
##grea##
##ater##
##athe##
##been##
##befo##
##ings##
##last##
##make##
##self##
##whit##
##from##
##grow##
##hout##
##mark##
##plea##
##ture##
##very##
##ence##
##okin##
##once##
##tell##
##marc##
##othi##
##repl##
##stan##
##till##
##able##
##foun##
##hall##
##unde##
##ythi##
##ange##
##door##
##hare##
##oing##
##rema##
##dear##
##inut##
##minu##
##nute##
##onde##
##ooki##
##talk##
##than##
##ught##
##begi##
##chan##
##egin##
##even##
##mome##
##near##
##ntly##
##omen##
##sing##
##take##
##wond##
##word##
##eard##
##hite##
##llar##
##made##
##next##
##thre##
##atio##
##cate##
##ding##
##epli##
##erpi##
##eyes##
##hang##
##illa##
##lied##
##mean##
##pill##
##plie##
##rpil##
##stil##
##terp##
##ease##
##emar##
##emed##
##ened##
##esti##
##etti##
##hree##
##migh##
##urio##
##with##
##alle##
##eeme##
##foot##
##goin##
##good##
##hile##
##late##
##mber##
##poor##
##soon##
##sure##
##tabl##
##uldn##
##upon##
##ving##
##whil##
##ally##
##curi##
##full##
##iste##
##itho##
##jury##
##nnin##
##away##
##body##
##call##
##does##
##ethe##
##find##
##gard##
##gett##
##hurr##
##llow##
##rath##
##riou##
##shal##
##uest##
##adde##
##apte##
##arde##
##atch##
##ause##
##chap##
##dded##
##erin##
##happ##
##hapt##
##itin##
##lled##
##nish##
##pter##
##rden##
##same##
##ssed##
##took##
##wher##
##akin##
##felt##
##half##
##less##
##ntin##
##omet##
##reme##
##sort##
##thro##
##alki##
##anot##
##chil##
##hild##
##hous##
##howe##
##lkin##
##ming##
##ness##
##ourt##
##ques##
##rnin##
##room##
##shed##
##sigh##
##spea##
##ures##
##wing##
##king
##hing
##ther
##ting
##ouse
##ever
##ight
##tter
##ound
##ning
##here
##well
##ling
##your
##rtle
##tion
##egan
##mock
##ried
##phon
##uite
##head
##come
##hink
##just
##heir
##some
##irst
##much
##only
##oice
##hich
##more
##ying
##bbit
##oked
##ring
##must
##ough
##came
##fter
##hess
##tone
##long
##ment
##such
##fore
##over
##reat
##ered
##back
##been
##ings
##self
##from
##nder
##ance
##arch
##ence
##able
##hall
##once
##till
##arge
##last
##oing
##will
##hare
##tell
##ntly
##door
##eard
##hite
##llar
##made
##next
##dear
##ding
##eyes
##lied
##urse
##ened
##look
##emed
##make
##ould
##poor
##sing
##sure
##uldn
##upon
##ving
##ally
##hile
##hout
##hree
##away
##body
##ious
##soon
##ster
##take
##dded
##even
##good
##hand
##lled
##pter
##same
##side
##ssed
##than
##took
##ught
##felt
##ness
##room
##ures
##ause
##ears
##find
##ging
##half
##nute
##ords
##shed
##used
##usly
##wing
##wish
##ange
##eing
##nded
##sort
##ully
##ease
##feet
##hole
##mber
##rned
##bill
##ions
##ourt
##soup
thi##
whi##
hea##
loo##
tur##
beg##
som##
cat##
you##
sho##
eve##
did##
don##
kin##
its##
the##
can##
say##
com##
get##
qui##
mor##
con##
hat##
now##
cou##
wel##
any##
mou##
cha##
mus##
wor##
moc##
rea##
rem##
won##
fir##
her##
see##
gry##
min##
sha##
are##
muc##
rab##
rep##
way##
jus##
not##
thr##
har##
oth##
voi##
fin##
onl##
too##
dea##
him##
mar##
nev##
fro##
duc##
mad##
mak##
ton##
aft##
got##
gre##
wil##
suc##
lea##
lon##
fou##
gro##
lar##
ove##
rou##
cam##
bac##
dor##
han##
tea##
tel##
why##
bee##
fee##
poo##
rat##
two##
wit##
bef##
tal##
chi##
eye##
pla##
ple##
cur##
las##
sur##
que##
soo##
tri##
ask##
fel##
nea##
onc##
put##
rig##
sto##
bea##
cro##
doo##
tak##
tre##
use##
hal##
man##
mea##
sou##
jur##
mom##
per##
tho##
day##
nex##
pro##
sta##
tha##
whe##
bot##
goo##
sor##
spe##
und##
fac##
hur##
mig##
par##
add##
goi##
sig##
cal##
dis##
has##
hou##
let##
try##
upo##
awa##
doe##
foo##
yet##
car##
dre##
gar##
how##
pig##
sam##
wai##
bec##
cri##
sti##
wis##
##ing##
##ter##
##hin##
##thi##
##her##
##the##
##ver##
##ear##
##kin##
##eve##
##ome##
##ook##
##our##
##rea##
##use##
##ous##
##ent##
##ght##
##igh##
##tur##
##ill##
##uch##
##ere##
##tte##
##hea##
##und##
##tin##
##whi##
##ead##
##oth##
##are##
##all##
##ell##
##hou##
##eat##
##nce##
##ess##
##ite##
##ked##
##ion##
##oun##
##ust##
##ers##
##han##
##loo##
##ard##
##ate##
##ame##
##beg##
##der##
##nde##
##one##
##mou##
##ink##
##ore##
##way##
##ied##
##ted##
##ast##
##ice##
##urt##
##ind##
##cat##
##get##
##som##
##tio##
##che##
##est##
##sho##
##ugh##
##att##
##lar##
##lea##
##nin##
##you##
##and##
##tle##
##don##
##nly##
##ock##
##com##
##ide##
##ake##
##min##
##rou##
##ove##
##hes##
##ong##
##did##
##mar##
##not##
##oke##
##red##
##rie##
##its##
##row##
##rin##
##ing
##ter
##her
##use
##ver
##ght
##ked
##ome
##nce
##ell
##ust
##are
th##
be##
ca##
ha##
re##
mo##
ma##
co##
so##
do##
wh##
lo##
he##
an##
go##
sh##
gr##
wa##
di##
no##
se##
sa##
si##
wo##
fi##
to##
su##
ne##
ch##
wi##
ra##
mu##
la##
st##
ta##
mi##
tu##
le##
tr##
qu##
fo##
fa##
we##
##in##
##er##
##ng##
##re##
##ed##
##te##
##ea##
##on##
##an##
##ar##
##ou##
##th##
##se##
##he##
##en##
##le##
##st##
##es##
##hi##
##ll##
##ur##
##at##
##ve##
##ch##
##ne##
##oo##
##de##
##ha##
##or##
##me##
##ly##
##it##
##us##
##nd##
##ti##
##be##
##ho##
##ri##
##el##
##ro##
##al##
##ee##
##lo##
##ng
##ed
##er
##ly
##re
##ll
##on
##se
##es
##st
##an
##le
##nd
##ce
##ch
##en
##ay
##me
##et
##te
exclaim##
passage##
uglific##
##exclaim##
##passage##
##ography##
##uglific##
##passage
##ography
exclai##
crumbs##
except##
passag##
effect##
uglifi##
unfold##
##exclai##
##xclaim##
##assage##
##crumbs##
##except##
##passag##
##effect##
##glific##
##graphy##
##ldfish##
##ograph##
##rsault##
##ss-exa##
##ubtful##
##uglifi##
##unfold##
##assage
##crumbs
##except
##effect
##graphy
##ldfish
##rsault
##ubtful
birds##
glass##
excla##
puppy##
##birds##
##glass##
##excla##
##puppy##
##claim##
##xclai##
##-pigs##
##assag##
##civil##
##crumb##
##excep##
##expec##
##extra##
##judge##
##offic##
##passa##
##rumbs##
##slipp##
##ssage##
##uglif##
##xcept##
##accid##
##crash##
##effec##
##ffect##
##funny##
##girls##
##knife##
##knowl##
##oblig##
##snail##
##splas##
##t-of-##
##birds
##glass
##puppy
##-pigs
##civil
##judge
##rumbs
##ssage
##xcept
##crash
##ffect
##funny
##girls
##knife
##snail
baby##
kept##
bird##
glad##
life##
draw##
jump##
glas##
pass##
excl##
girl##
pupp##
swim##
know##
pair##
viol##
eggs##
like##
nibb##
pack##
swam##
crum##
exce##
expe##
extr##
judg##
knoc##
offi##
paws##
slip##
spla##
ugli##
##baby##
##kept##
##bird##
##life##
##glad##
##lass##
##draw##
##glas##
##irds##
##jump##
##pass##
##upid##
##excl##
##fect##
##girl##
##lish##
##pair##
##pupp##
##swim##
##uppy##
##xcla##
##-box##
##-pig##
##clai##
##know##
##laim##
##viol##
##cept##
##crum##
##eggs##
##like##
##nibb##
##pack##
##paws##
##swam##
##baby
##kept
##life
##glad
##irds
##lass
##draw
##lish
##uppy
##-box
##pair
##upid
##eggs
##pack
##paws
##swam
##swim
gla##
old##
air##
bab##
bir##
exc##
kep##
adv##
dra##
lif##
pic##
pie##
cra##
jum##
kno##
own##
pas##
acc##
few##
key##
kna##
dry##
exp##
##air##
##ass##
##old##
##gla##
##age##
##ful##
##ept##
##lif##
##ump##
##aby##
##ife##
##las##
##bab##
##pie##
##bir##
##cla##
##exc##
##kep##
##raw##
##adv##
##dra##
##ird##
##ish##
##lad##
##box##
##cra##
##ect##
##own##
##pic##
##umb##
##cup##
##jum##
##key##
##kno##
##pas##
##pid##
##rds##
##acc##
##aws##
##dge##
##few##
##gue##
##kna##
##app##
##bow##
##dry##
##exp##
##paw##
##rgo##
##rts##
##ubt##
##upi##
##air
##age
##old
##ful
##ept
##ass
##aby
##ife
##ish
##lad
##own
##box
##key
##rds
##aws
##few
##dge
##dry
##rts
##isn
##ncy
##ppy
##raw
##cup
##ect
##gue
##irs
##pid
my##
by##
li##
oh##
pa##
un##
dr##
ex##
am##
kn##
##li##
##by##
##un##
##my##
##ld##
##ir##
##as##
##pa##
##am##
##fe##
##mp##
##ra##
##im##
##la##
##oh##
##ad##
##nt##
##pi##
##ul##
##ol##
##ss##
##is##
##ai##
##ck##
##dr##
##ge##
##ow##
##po##
##pp##
##ts##
##ag##
##cl##
##ep##
##ic##
##il##
##ry##
##gu##
##id##
##um##
##up##
##ac##
##aw##
##ex##
##ke##
##ru##
##cu##
##pt##
##sh##
##gl##
##ab##
##bo##
##fu##
##kn##
##pe##
##sn##
##gi##
##tw##
##ct##
##if##
##na##
##ie##
##sp##
##by
##my
##ld
##oh
##nt
##ts
##ge
##ir
##ry
##ul
##ss
##am
##ck
##pt
##sh
##lk-jug##
##lk-jug
audib##
sky-r##
##audib##
##k-jug##
##lk-ju##
##sky-r##
##y-sug##
##k-jug
sque##
viii##
##rtoi##
##sque##
##viii##
##viii
sky##
squ##
occ##
smi##
vii##
aff##
off##
flu##
iii##
sca##
swa##
xii##
##sky##
##squ##
##uff##
##iii##
##lty##
##occ##
##smi##
##tom##
##vii##
##aff##
##duc##
##eze##
##lky##
##mbl##
##off##
##rto##
##toi##
##y-f##
##-fr##
##cei##
##cia##
##e-b##
##eks##
##flu##
##ign##
##joy##
##lki##
##noy##
##nyw##
##ody##
##que##
##sca##
##swa##
##wnw##
##xii##
##iii
##lty
##sky
##tom
##uff
##eze
##lky
##cia
##eks
##ody
##vii
##xii
br##
ga##
jo##
sc##
fl##
sm##
ev##
of##
sk##
vi##
pu##
va##
wr##
##od##
##br##
##ze##
##ft##
##ty##
##ga##
##jo##
##ud##
##ii##
##rn##
##sc##
##do##
##ff##
##dd##
##ez##
##mi##
##rt##
##uc##
##du##
##fl##
##gs##
##lp##
##sk##
##ah##
##lt##
##ms##
##qu##
##rp##
##-p##
##bb##
##ky##
##mb##
##ok##
##om##
##sm##
##ut##
##wd##
##ze
##ty
##ft
##od
##do
##gs
##ah
##ii
##lp
##ok
blue##
slug##
zigz##
##blue##
##cogn##
##rm-y##
##slug##
##y-ta##
##zigz##
##blue
3.0##
avo##
blu##
egg##
slu##
zig##
##-cr##
##-ey##
##-ma##
##-ta##
##-tr##
##3.0##
##avo##
##avy##
##blu##
##ce-##
##cog##
##cop##
##egg##
##igz##
##iot##
##lue##
##lug##
##m-e##
##m-y##
##ogn##
##p-b##
##p-r##
##r-f##
##rks##
##rm-##
##rrh##
##slu##
##t-h##
##ubl##
##ubs##
##y-t##
##zig##
##3.0
##avy
##egg
##iot
##lue
##rks
##rrh
##ubs
ki##
nu##
pr##
ye##
da##
hu##
em##
lu##
pl##
##-t##
##dn##
##co##
##ds##
##mo##
##op##
##si##
##ce##
##dy##
##ps##
##wn##
##-d##
##bs##
##ek##
##et##
##gg##
##ig##
##ki##
##ks##
##lu##
##nn##
##nu##
##pr##
##rv##
##ue##
##ug##
##ye##
##-b##
##ax##
##bi##
##ca##
##da##
##ef##
##hu##
##ls##
##lv##
##m-##
##mn##
##ns##
##pl##
##rm##
##tt##
##tu##
##ub##
##wi##
##ws##
##-e##
##-n##
##-s##
##bl##
##dg##
##e-##
##em##
##nc##
##rk##
##so##
##sy##
##t-##
##ta##
##vy##
##dn
##ds
##dy
##ps
##wn
##bs
##ks
##ue
##ef
##ls
##mn
##ns
11##
au##
ba##
eb##
iv##
ix##
ob##
sw##
xi##
##11##
##a-##
##ak##
##au##
##ba##
##eb##
##iv##
##ix##
##mm##
##nb##
##ni##
##ob##
##oe##
##pu##
##sw##
##tn##
##xi##
##ys##
##zy##
##11
##ak
##iv
##ix
##oe
##xi
##ys
##zy
eh##
fr##
hj##
hm##
ja##
oy##
sl##
vo##
##-m##
##az##
##ci##
##di##
##eg##
##eh##
##fr##
##g-##
##hj##
##hm##
##ia##
##io##
##ja##
##ju##
##lk##
##lm##
##lr##
##ot##
##oy##
##rs##
##rw##
##sl##
##vo##
##w-##
##wl##
##xp##
##y-##
##yn##
##zi##
##eh
##hm
##ia
##lk
##ot
##rs
##yn
[delim]
 
\n
“
\n\n
’
,”
_
!”
:
;
.”
!
?”
—
\t
*
(
—”
?
‘
“—
“_
.)
:—
_,”
,)
)
),
?_”
_,
_.”
.’”
—‘
‘_
(“
!_”
!’
***
?—
—“
!’”
).
.’
;”
[
_,’”
_.
_—’
—’”
’!”
!—
):
);
)—“
,’
.—
?’”
_:
_—
_—”
—‘_
’—
“’
”
!_
!—_
!’?”
!”)
(_
)—
,_
,’”
.,
.]
.—“
.”)
;—
?)
?_
?”,
]
_).
_,’
_.—
_.’”
_;
_?”
_—’”
_’
ù
—(
—]
—_
—’
‘’_
’?”
“—_
“‘
“‘_
“‘—
”)
”,
”;
”—
